{
  "version": "1.0",
  "truncation": null,
  "padding": null,
  "added_tokens": [
    {
      "id": 0,
      "content": "[UNK]",
      "single_word": false,
      "lstrip": false,
      "rstrip": false,
      "normalized": false,
      "special": true
    },
    {
      "id": 1,
      "content": "[CLS]",
      "single_word": false,
      "lstrip": false,
      "rstrip": false,
      "normalized": false,
      "special": true
    },
    {
      "id": 2,
      "content": "[SEP]",
      "single_word": false,
      "lstrip": false,
      "rstrip": false,
      "normalized": false,
      "special": true
    },
    {
      "id": 3,
      "content": "[PAD]",
      "single_word": false,
      "lstrip": false,
      "rstrip": false,
      "normalized": false,
      "special": true
    },
    {
      "id": 4,
      "content": "[MASK]",
      "single_word": false,
      "lstrip": false,
      "rstrip": false,
      "normalized": false,
      "special": true
    }
  ],
  "normalizer": null,
  "pre_tokenizer": {
    "type": "ByteLevel",
    "add_prefix_space": true,
    "trim_offsets": true,
    "use_regex": true
  },
  "post_processor": null,
  "decoder": null,
  "model": {
    "type": "BPE",
    "dropout": null,
    "unk_token": null,
    "continuing_subword_prefix": null,
    "end_of_word_suffix": null,
    "fuse_unk": false,
    "byte_fallback": false,
    "vocab": {
      "[UNK]": 0,
      "[CLS]": 1,
      "[SEP]": 2,
      "[PAD]": 3,
      "[MASK]": 4,
      "!": 5,
      "\"": 6,
      "#": 7,
      "$": 8,
      "%": 9,
      "&": 10,
      "'": 11,
      "(": 12,
      ")": 13,
      "*": 14,
      "+": 15,
      ",": 16,
      "-": 17,
      ".": 18,
      "/": 19,
      "0": 20,
      "1": 21,
      "2": 22,
      "3": 23,
      "4": 24,
      "5": 25,
      "6": 26,
      "7": 27,
      "8": 28,
      "9": 29,
      ":": 30,
      ";": 31,
      "<": 32,
      "=": 33,
      ">": 34,
      "?": 35,
      "@": 36,
      "A": 37,
      "B": 38,
      "C": 39,
      "D": 40,
      "E": 41,
      "F": 42,
      "G": 43,
      "H": 44,
      "I": 45,
      "J": 46,
      "K": 47,
      "L": 48,
      "M": 49,
      "N": 50,
      "O": 51,
      "P": 52,
      "Q": 53,
      "R": 54,
      "S": 55,
      "T": 56,
      "U": 57,
      "V": 58,
      "W": 59,
      "X": 60,
      "Y": 61,
      "Z": 62,
      "[": 63,
      "\\": 64,
      "]": 65,
      "^": 66,
      "_": 67,
      "`": 68,
      "a": 69,
      "b": 70,
      "c": 71,
      "d": 72,
      "e": 73,
      "f": 74,
      "g": 75,
      "h": 76,
      "i": 77,
      "j": 78,
      "k": 79,
      "l": 80,
      "m": 81,
      "n": 82,
      "o": 83,
      "p": 84,
      "q": 85,
      "r": 86,
      "s": 87,
      "t": 88,
      "u": 89,
      "v": 90,
      "w": 91,
      "x": 92,
      "y": 93,
      "z": 94,
      "{": 95,
      "|": 96,
      "}": 97,
      "~": 98,
      "¡": 99,
      "¢": 100,
      "£": 101,
      "¤": 102,
      "¥": 103,
      "¦": 104,
      "§": 105,
      "¨": 106,
      "©": 107,
      "ª": 108,
      "«": 109,
      "¬": 110,
      "®": 111,
      "¯": 112,
      "°": 113,
      "±": 114,
      "²": 115,
      "³": 116,
      "´": 117,
      "µ": 118,
      "¶": 119,
      "·": 120,
      "¸": 121,
      "¹": 122,
      "º": 123,
      "»": 124,
      "¼": 125,
      "½": 126,
      "¾": 127,
      "¿": 128,
      "À": 129,
      "Á": 130,
      "Â": 131,
      "Ã": 132,
      "Ä": 133,
      "Å": 134,
      "Æ": 135,
      "Ç": 136,
      "È": 137,
      "É": 138,
      "Ê": 139,
      "Ë": 140,
      "Ì": 141,
      "Í": 142,
      "Î": 143,
      "Ï": 144,
      "Ð": 145,
      "Ñ": 146,
      "Ò": 147,
      "Ó": 148,
      "Ô": 149,
      "Õ": 150,
      "Ö": 151,
      "×": 152,
      "Ø": 153,
      "Ù": 154,
      "Ú": 155,
      "Û": 156,
      "Ü": 157,
      "Ý": 158,
      "Þ": 159,
      "ß": 160,
      "à": 161,
      "á": 162,
      "â": 163,
      "ã": 164,
      "ä": 165,
      "å": 166,
      "æ": 167,
      "ç": 168,
      "è": 169,
      "é": 170,
      "ê": 171,
      "ë": 172,
      "ì": 173,
      "í": 174,
      "î": 175,
      "ï": 176,
      "ð": 177,
      "ñ": 178,
      "ò": 179,
      "ó": 180,
      "ô": 181,
      "õ": 182,
      "ö": 183,
      "÷": 184,
      "ø": 185,
      "ù": 186,
      "ú": 187,
      "û": 188,
      "ü": 189,
      "ý": 190,
      "þ": 191,
      "ÿ": 192,
      "Ā": 193,
      "ā": 194,
      "Ă": 195,
      "ă": 196,
      "Ą": 197,
      "ą": 198,
      "Ć": 199,
      "ć": 200,
      "Ĉ": 201,
      "ĉ": 202,
      "Ċ": 203,
      "ċ": 204,
      "Č": 205,
      "č": 206,
      "Ď": 207,
      "ď": 208,
      "Đ": 209,
      "đ": 210,
      "Ē": 211,
      "ē": 212,
      "Ĕ": 213,
      "ĕ": 214,
      "Ė": 215,
      "ė": 216,
      "Ę": 217,
      "ę": 218,
      "Ě": 219,
      "ě": 220,
      "Ĝ": 221,
      "ĝ": 222,
      "Ğ": 223,
      "ğ": 224,
      "Ġ": 225,
      "ġ": 226,
      "Ģ": 227,
      "ģ": 228,
      "Ĥ": 229,
      "ĥ": 230,
      "Ħ": 231,
      "ħ": 232,
      "Ĩ": 233,
      "ĩ": 234,
      "Ī": 235,
      "ī": 236,
      "Ĭ": 237,
      "ĭ": 238,
      "Į": 239,
      "į": 240,
      "İ": 241,
      "ı": 242,
      "Ĳ": 243,
      "ĳ": 244,
      "Ĵ": 245,
      "ĵ": 246,
      "Ķ": 247,
      "ķ": 248,
      "ĸ": 249,
      "Ĺ": 250,
      "ĺ": 251,
      "Ļ": 252,
      "ļ": 253,
      "Ľ": 254,
      "ľ": 255,
      "Ŀ": 256,
      "ŀ": 257,
      "Ł": 258,
      "ł": 259,
      "Ń": 260,
      "in": 261,
      "re": 262,
      "Ġs": 263,
      "Ġp": 264,
      "Ġc": 265,
      "on": 266,
      "er": 267,
      "en": 268,
      "Ġa": 269,
      "Ġt": 270,
      "es": 271,
      "Ġl": 272,
      "ou": 273,
      "an": 274,
      "Ġm": 275,
      "Ġd": 276,
      "ing": 277,
      "it": 278,
      "is": 279,
      "Ġf": 280,
      "ar": 281,
      "al": 282,
      "Ġb": 283,
      "at": 284,
      "Ġw": 285,
      "le": 286,
      "or": 287,
      "ed": 288,
      "Ġg": 289,
      "Ġn": 290,
      "ent": 291,
      "Ã©": 292,
      "Ġh": 293,
      "ic": 294,
      "et": 295,
      "ot": 296,
      "Ġre": 297,
      "om": 298,
      "ly": 299,
      "Ġe": 300,
      "il": 301,
      "ion": 302,
      "ro": 303,
      "as": 304,
      "us": 305,
      "ac": 306,
      "qu": 307,
      "Ġv": 308,
      "el": 309,
      "Ġst": 310,
      "op": 311,
      "ay": 312,
      "Ġr": 313,
      "id": 314,
      "im": 315,
      "iv": 316,
      "ig": 317,
      "ol": 318,
      "ers": 319,
      "em": 320,
      "un": 321,
      "ct": 322,
      "Ġth": 323,
      "Ġin": 324,
      "ch": 325,
      "ke": 326,
      "st": 327,
      "Ġis": 328,
      "est": 329,
      "ont": 330,
      "ur": 331,
      "Ġtr": 332,
      "ant": 333,
      "ow": 334,
      "one": 335,
      "Ġnot": 336,
      "ut": 337,
      "ad": 338,
      "ag": 339,
      "Ġj": 340,
      "Ġch": 341,
      "Ġcom": 342,
      "Ġpl": 343,
      "ir": 344,
      "Ġqu": 345,
      "am": 346,
      "ce": 347,
      "Ġpe": 348,
      "Ġal": 349,
      "ver": 350,
      "ld": 351,
      "Ġy": 352,
      "Ġpar": 353,
      "Ġgo": 354,
      "Ġpro": 355,
      "ation": 356,
      "se": 357,
      "Ġse": 358,
      "ally": 359,
      "Ġne": 360,
      "end": 361,
      "av": 362,
      "ble": 363,
      "ill": 364,
      "pp": 365,
      "ort": 366,
      "and": 367,
      "ul": 368,
      "our": 369,
      "ff": 370,
      "ould": 371,
      "Ġdo": 372,
      "Ġcon": 373,
      "ain": 374,
      "ment": 375,
      "Ġli": 376,
      "nt": 377,
      "ht": 378,
      "Ġsu": 379,
      "ire": 380,
      "ist": 381,
      "Ġex": 382,
      "Ġi": 383,
      "ere": 384,
      "ity": 385,
      "king": 386,
      "ople": 387,
      "Ġit": 388,
      "ess": 389,
      "Ġpeople": 390,
      "Ġlo": 391,
      "ie": 392,
      "ate": 393,
      "Ġde": 394,
      "od": 395,
      "pe": 396,
      "out": 397,
      "ear": 398,
      "Ġ2": 399,
      "ri": 400,
      "Ã¨": 401,
      "Ġam": 402,
      "nd": 403,
      "Ġar": 404,
      "Ġ\"": 405,
      "Ġsh": 406,
      "Ġget": 407,
      "ond": 408,
      "res": 409,
      "Ġo": 410,
      "Ġan": 411,
      "Ġlike": 412,
      "ive": 413,
      "Ġwould": 414,
      "Ġk": 415,
      "ait": 416,
      "Ġ1": 417,
      "ais": 418,
      "au": 419,
      "ens": 420,
      "ous": 421,
      "ice": 422,
      "lo": 423,
      "ter": 424,
      "Ġun": 425,
      "age": 426,
      "ne": 427,
      "ans": 428,
      "ci": 429,
      "Ġpo": 430,
      "Ġpr": 431,
      "ight": 432,
      "ine": 433,
      "ps": 434,
      "ard": 435,
      "Ġen": 436,
      "Ġle": 437,
      "ast": 438,
      "are": 439,
      "art": 440,
      "Ġwor": 441,
      "ement": 442,
      "Ġone": 443,
      "Ġcomp": 444,
      "Ġus": 445,
      "Ġta": 446,
      "Ġma": 447,
      "ace": 448,
      "ack": 449,
      "ell": 450,
      "Ġare": 451,
      "ure": 452,
      "ind": 453,
      "ound": 454,
      "Ġmo": 455,
      "ang": 456,
      "ĠÃ": 457,
      "ss": 458,
      "ab": 459,
      "te": 460,
      "me": 461,
      "ite": 462,
      "Ġbu": 463,
      "ap": 464,
      "ck": 465,
      "ue": 466,
      "Ġtim": 467,
      "her": 468,
      "hing": 469,
      "Ġim": 470,
      "ave": 471,
      "ve": 472,
      "ome": 473,
      "ies": 474,
      "Ġcan": 475,
      "Ġev": 476,
      "ide": 477,
      "Ġplus": 478,
      "Ġyear": 479,
      "tt": 480,
      "ord": 481,
      "Ġmont": 482,
      "Ġapp": 483,
      "ux": 484,
      "Ġcl": 485,
      "ass": 486,
      "ien": 487,
      "Ġbe": 488,
      "Ġwe": 489,
      "Ġpre": 490,
      "old": 491,
      "Ġcont": 492,
      "all": 493,
      "ai": 494,
      "ub": 495,
      "Ġme": 496,
      "Ġever": 497,
      "Ġ20": 498,
      "able": 499,
      "aire": 500,
      "per": 501,
      "um": 502,
      "act": 503,
      "oug": 504,
      "Ġman": 505,
      "ays": 506,
      "ĠdÃ©": 507,
      "so": 508,
      "Ġ3": 509,
      "Ġ>": 510,
      "Ġco": 511,
      "Ġalso": 512,
      "Ġparis": 513,
      "Ġevery": 514,
      "Ġsa": 515,
      "ong": 516,
      "ick": 517,
      "que": 518,
      "Ġgr": 519,
      "ction": 520,
      "int": 521,
      "Ġtime": 522,
      "now": 523,
      "Ġpart": 524,
      "app": 525,
      "§a": 526,
      "Ġop": 527,
      "Ġsp": 528,
      "Ġdr": 529,
      "ĠÃ§a": 530,
      "Ġper": 531,
      "ance": 532,
      "Ġcity": 533,
      "Ġfre": 534,
      "Ġhe": 535,
      "ok": 536,
      "ud": 537,
      "Ġfr": 538,
      "ign": 539,
      "'s": 540,
      "00": 541,
      "orm": 542,
      "Ġhave": 543,
      "Ġyou": 544,
      "Ġsee": 545,
      "Ã©t": 546,
      "Ġeven": 547,
      "cc": 548,
      "ore": 549,
      "ting": 550,
      "Ġas": 551,
      "Ġknow": 552,
      "Ġwork": 553,
      "Ġthing": 554,
      "Ġinc": 555,
      "Ġro": 556,
      "Ġpers": 557,
      "oir": 558,
      "Ġad": 559,
      "Ġgoing": 560,
      "Ġsi": 561,
      "Ġany": 562,
      "Ġneed": 563,
      "Ġperson": 564,
      "ink": 565,
      "ish": 566,
      "if": 567,
      "os": 568,
      "up": 569,
      "Ġres": 570,
      "ions": 571,
      "ier": 572,
      "ild": 573,
      "ille": 574,
      "own": 575,
      "Ġyears": 576,
      "ge": 577,
      "Ġmet": 578,
      "Ġgood": 579,
      "th": 580,
      "tre": 581,
      "Ġspe": 582,
      "Ġav": 583,
      "Ġwh": 584,
      "Ġwill": 585,
      "ondon": 586,
      "Ġfe": 587,
      "Ġcomm": 588,
      "Ġcr": 589,
      "Ġcou": 590,
      "Ġcould": 591,
      "Ġlondon": 592,
      "Ġbr": 593,
      "ak": 594,
      "com": 595,
      "Ġact": 596,
      "li": 597,
      "erv": 598,
      "Ġstill": 599,
      "Ġplace": 600,
      "Ġnew": 601,
      "port": 602,
      "ually": 603,
      "Ġph": 604,
      "ated": 605,
      "ors": 606,
      "ents": 607,
      "Ġreally": 608,
      "ase": 609,
      "Ġmake": 610,
      "ber": 611,
      "Ġend": 612,
      "ating": 613,
      "bs": 614,
      "Ġaut": 615,
      "Ġto": 616,
      "Ġwant": 617,
      "ĠrÃ©": 618,
      "Ġstre": 619,
      "ult": 620,
      "ough": 621,
      "lic": 622,
      "Ġsome": 623,
      "Ġag": 624,
      "Ġtout": 625,
      "Ġlot": 626,
      "Ġdis": 627,
      "Ġday": 628,
      "Ġbus": 629,
      "Ġrem": 630,
      "ffic": 631,
      "ry": 632,
      "uc": 633,
      "Ġcar": 634,
      "Ġtor": 635,
      "onto": 636,
      "Ã¨s": 637,
      "Ġaround": 638,
      "20": 639,
      "ple": 640,
      "Ġway": 641,
      "Ġthe": 642,
      "uch": 643,
      "igh": 644,
      "ible": 645,
      "Ġso": 646,
      "Ġdi": 647,
      "Ġbl": 648,
      "Ġche": 649,
      "ours": 650,
      "pt": 651,
      "Ġpol": 652,
      "Ġlong": 653,
      "Ġmar": 654,
      "Ġrent": 655,
      "elle": 656,
      "Ġthink": 657,
      "Ġmany": 658,
      "Ġsaid": 659,
      "be": 660,
      "not": 661,
      "nch": 662,
      "ru": 663,
      "ert": 664,
      "Ġback": 665,
      "ame": 666,
      "Ġstreet": 667,
      "ek": 668,
      "ois": 669,
      "Ġsc": 670,
      "Ġpub": 671,
      "Ġmuch": 672,
      "Ġfa": 673,
      "Ġgu": 674,
      "Ã©e": 675,
      "Ġreg": 676,
      "Ġint": 677,
      "Ġweek": 678,
      "Ġfrench": 679,
      "way": 680,
      "Ġent": 681,
      "Ġet": 682,
      "alk": 683,
      "ust": 684,
      "Ġthere": 685,
      "Ġinf": 686,
      "Ġtrans": 687,
      "Ġcannot": 688,
      "low": 689,
      "Ãª": 690,
      "Ġ5": 691,
      "Ġtw": 692,
      "omet": 693,
      "ations": 694,
      "ra": 695,
      "ince": 696,
      "Ġfind": 697,
      "ote": 698,
      "Ġprob": 699,
      "ia": 700,
      "ily": 701,
      "ious": 702,
      "og": 703,
      "ood": 704,
      "ins": 705,
      "Ġhapp": 706,
      "Ġtoronto": 707,
      "Ġ4": 708,
      "oup": 709,
      "itÃ©": 710,
      "Ġrest": 711,
      "ants": 712,
      "Ġsub": 713,
      "Ġtake": 714,
      "Ġsomeone": 715,
      "ep": 716,
      "Ġsomet": 717,
      "Ġpay": 718,
      "anc": 719,
      "Ġfri": 720,
      "Ġbo": 721,
      "Ġgot": 722,
      "ach": 723,
      "Ã¨re": 724,
      "cl": 725,
      "ip": 726,
      "Ġsay": 727,
      "Ġacc": 728,
      "Ġfam": 729,
      "Ã©r": 730,
      "Ġthat": 731,
      "Ġtry": 732,
      "dit": 733,
      "Ġcent": 734,
      "Ġgre": 735,
      "ically": 736,
      "pect": 737,
      "uck": 738,
      "wh": 739,
      "Ġap": 740,
      "ict": 741,
      "Ġcanad": 742,
      "ail": 743,
      "ect": 744,
      "Ġold": 745,
      "Ġpass": 746,
      "Ġliv": 747,
      "Ġfaire": 748,
      "Ġstart": 749,
      "Ġchang": 750,
      "gl": 751,
      "thing": 752,
      "Ġserv": 753,
      "Ġfin": 754,
      "Ġhous": 755,
      "Ġem": 756,
      "Ġcons": 757,
      "Ġetc": 758,
      "ool": 759,
      "Ġsch": 760,
      "Ġtour": 761,
      "Ġww": 762,
      "uss": 763,
      "Ġve": 764,
      "Ġinst": 765,
      "Ġprov": 766,
      "cial": 767,
      "Ġmonth": 768,
      "Ġthey": 769,
      "ique": 770,
      "ty": 771,
      "ĠÃ©": 772,
      "Ġfait": 773,
      "ress": 774,
      "Ġpoint": 775,
      "Ġpublic": 776,
      "ian": 777,
      "oy": 778,
      "rÃ©": 779,
      "Ġlit": 780,
      "Ġbon": 781,
      "ets": 782,
      "Ġlook": 783,
      "Ġbuy": 784,
      "Ġtwo": 785,
      "ile": 786,
      "vel": 787,
      "ĠÂ": 788,
      "Ġte": 789,
      "its": 790,
      "Ġbas": 791,
      "Ġgen": 792,
      "Ġnon": 793,
      "Ġinter": 794,
      "urs": 795,
      "Ġseem": 796,
      "Ġexp": 797,
      "Ġactually": 798,
      "Ġsomething": 799,
      "ful": 800,
      "ner": 801,
      "ues": 802,
      "ways": 803,
      "Ġsm": 804,
      "Ġass": 805,
      "Ġmay": 806,
      "Ġdon": 807,
      "ith": 808,
      "ise": 809,
      "iss": 810,
      "ath": 811,
      "Ġwell": 812,
      "ical": 813,
      "Ġins": 814,
      "Ġtrav": 815,
      "orth": 816,
      "Ġbuild": 817,
      "Ġwww": 818,
      "ft": 819,
      "ose": 820,
      "ures": 821,
      "ence": 822,
      "Ġatt": 823,
      "Ġland": 824,
      "Ġfl": 825,
      "Ġfun": 826,
      "Ġfir": 827,
      "Ġhel": 828,
      "Ġvis": 829,
      "Ġtrain": 830,
      "ends": 831,
      "ered": 832,
      "Ġarr": 833,
      "Ġincre": 834,
      "az": 835,
      "ob": 836,
      "Ġcert": 837,
      "ons": 838,
      "Ġmin": 839,
      "Ġdes": 840,
      "Ġdire": 841,
      "Ġrec": 842,
      "Ġproper": 843,
      "Ġnever": 844,
      "Ġconc": 845,
      "Ġart": 846,
      "Ġund": 847,
      "Ġmontre": 848,
      "âĢ": 849,
      "rent": 850,
      "Ġsim": 851,
      "ense": 852,
      "Ġbet": 853,
      "Ġhtt": 854,
      "ices": 855,
      "Ġrat": 856,
      "Ġind": 857,
      "Ġcomme": 858,
      "Ġloc": 859,
      "Ġgetting": 860,
      "Ġoff": 861,
      "âĢ¦": 862,
      "Ġhttps": 863,
      "iz": 864,
      "Ġup": 865,
      "ouse": 866,
      "Ġmond": 867,
      "ater": 868,
      "Ġwith": 869,
      "Ġeas": 870,
      "Ġproble": 871,
      "aint": 872,
      "htt": 873,
      "Ġdep": 874,
      "Ġthings": 875,
      "Ġcommun": 876,
      "Ġfirst": 877,
      "Ġproblem": 878,
      "fe": 879,
      "io": 880,
      "ost": 881,
      "oking": 882,
      "read": 883,
      "Ġcol": 884,
      "Ġla": 885,
      "ale": 886,
      "Ġwom": 887,
      "lect": 888,
      "Ġstop": 889,
      "che": 890,
      "Ġsec": 891,
      "Ġpost": 892,
      "ably": 893,
      "Ġimp": 894,
      "Ġschool": 895,
      "https": 896,
      "du": 897,
      "Ġsy": 898,
      "Ġsur": 899,
      "Ġput": 900,
      "Ġcur": 901,
      "ern": 902,
      "Ġlive": 903,
      "other": 904,
      "Ġel": 905,
      "aces": 906,
      "urn": 907,
      "Ġquel": 908,
      "Ġsure": 909,
      "Ġsupp": 910,
      "Ġhousing": 911,
      "ussi": 912,
      "Ġbetter": 913,
      "ib": 914,
      "Ġz": 915,
      "Ġsince": 916,
      "Ġcro": 917,
      "Ġcas": 918,
      "ones": 919,
      "Ġtick": 920,
      "Ġlast": 921,
      "Ġwalk": 922,
      "ory": 923,
      "ich": 924,
      "Ġref": 925,
      "ĠtrÃ¨s": 926,
      "ute": 927,
      "ade": 928,
      "Ġalways": 929,
      "vern": 930,
      "Ġconst": 931,
      "Ġbeau": 932,
      "Ġask": 933,
      "Ġfeel": 934,
      "Ġhappen": 935,
      "Ġcertain": 936,
      "les": 937,
      "xt": 938,
      "ªtre": 939,
      "Ġsit": 940,
      "Ġple": 941,
      "Ġpop": 942,
      "Ġac": 943,
      "ouv": 944,
      "Ġdem": 945,
      "ings": 946,
      "ary": 947,
      "Ġblo": 948,
      "Ġwent": 949,
      "Ġhouse": 950,
      "Ġreal": 951,
      "ques": 952,
      "iver": 953,
      "Ġinv": 954,
      "ists": 955,
      "Ġdec": 956,
      "ĠÃªtre": 957,
      "Ġcost": 958,
      "Ġfamily": 959,
      "ial": 960,
      "ole": 961,
      "pl": 962,
      "ule": 963,
      "Ãł": 964,
      "Ġu": 965,
      "Ġke": 966,
      "Ġsign": 967,
      "Ġca": 968,
      "Ġclo": 969,
      "Ġcare": 970,
      "Ġaussi": 971,
      "Ġter": 972,
      "ount": 973,
      "Ġfol": 974,
      "Ġvi": 975,
      "Ġstud": 976,
      "Ġje": 977,
      "Ġshop": 978,
      "ssible": 979,
      "ler": 980,
      "Ġor": 981,
      "Ġout": 982,
      "ree": 983,
      "Ġlet": 984,
      "Ġmat": 985,
      "Ġgens": 986,
      "Ġhome": 987,
      "Ġhigh": 988,
      "erst": 989,
      "Ġiss": 990,
      "ages": 991,
      "Ġquand": 992,
      "Ġlooking": 993,
      "Ġopt": 994,
      "Ġanything": 995,
      "Ġmontreal": 996,
      "gg": 997,
      "nc": 998,
      "ual": 999,
      "ved": 1000,
      "Ġsw": 1001,
      "Ġless": 1002,
      "Ġmed": 1003,
      "ities": 1004,
      "Ġbig": 1005,
      "Ġwait": 1006,
      "led": 1007,
      "Ã©s": 1008,
      "Ġhon": 1009,
      "oth": 1010,
      "Ġplan": 1011,
      "Ġnear": 1012,
      "Ġshow": 1013,
      "Ġengl": 1014,
      "Ġleast": 1015,
      "Ġuse": 1016,
      "Ġbeh": 1017,
      "Ġeveryone": 1018,
      "Ġcanada": 1019,
      "aur": 1020,
      "iers": 1021,
      "ks": 1022,
      "less": 1023,
      "ws": 1024,
      "Ġ6": 1025,
      "Ġes": 1026,
      "Ġlow": 1027,
      "Ġright": 1028,
      "Ġpeu": 1029,
      "Ġconv": 1030,
      "Ġkid": 1031,
      "Ġpriv": 1032,
      "Ġcomple": 1033,
      "Ġ30": 1034,
      "where": 1035,
      "get": 1036,
      "ied": 1037,
      "ians": 1038,
      "Ġ'": 1039,
      "Ġ7": 1040,
      "Ġcor": 1041,
      "Ġlear": 1042,
      "Ġment": 1043,
      "Ġmus": 1044,
      "Ġbest": 1045,
      "ative": 1046,
      "Ġnight": 1047,
      "Ġtrou": 1048,
      "Ġ10": 1049,
      "Ġmove": 1050,
      "ought": 1051,
      "Ġadv": 1052,
      "Ġcount": 1053,
      "Ġregard": 1054,
      "Ġdonc": 1055,
      "Ġhelp": 1056,
      "Ġunderst": 1057,
      "Ġmonde": 1058,
      "aut": 1059,
      "coup": 1060,
      "uis": 1061,
      "ycl": 1062,
      "Ġ9": 1063,
      "red": 1064,
      "Ġtem": 1065,
      "Ġdel": 1066,
      "ars": 1067,
      "alking": 1068,
      "Ġbre": 1069,
      "Ġgro": 1070,
      "Ġnice": 1071,
      "Ġrel": 1072,
      "rol": 1073,
      "ason": 1074,
      "Ġstation": 1075,
      "ope": 1076,
      "ember": 1077,
      "Ġjus": 1078,
      "Ġgovern": 1079,
      "Ġneigh": 1080,
      "ffere": 1081,
      "ments": 1082,
      "Ġworld": 1083,
      "Ġarea": 1084,
      "Ġimm": 1085,
      "Ġ201": 1086,
      "Ġgrand": 1087,
      "Ġdriv": 1088,
      "Ġperm": 1089,
      "Ġpolice": 1090,
      "Ġbeaucoup": 1091,
      "Ġenglish": 1092,
      "Ġneighb": 1093,
      "kes": 1094,
      "vote": 1095,
      "ys": 1096,
      "Ã´": 1097,
      "Ġpet": 1098,
      "Ġport": 1099,
      "Ġcal": 1100,
      "Ġcour": 1101,
      "Ġcap": 1102,
      "Ġmen": 1103,
      "Ġmone": 1104,
      "Ġdown": 1105,
      "Ġdating": 1106,
      "Ġbad": 1107,
      "Ġbien": 1108,
      "ates": 1109,
      "Ġrep": 1110,
      "Ġvers": 1111,
      "Ġstr": 1112,
      "Ġthough": 1113,
      "Ġtra": 1114,
      "Ġplaces": 1115,
      "cept": 1116,
      "Ġexper": 1117,
      "Ġexpect": 1118,
      "Ġlevel": 1119,
      "Ġopen": 1120,
      "Ġavoir": 1121,
      "Ġdiffere": 1122,
      "Ġprobably": 1123,
      "Ġwomen": 1124,
      "Ġelse": 1125,
      "Ġlearn": 1126,
      "Ġmoney": 1127,
      "gan": 1128,
      "lÃ¨": 1129,
      "Ġ8": 1130,
      "Ġsl": 1131,
      "Ġsort": 1132,
      "Ġty": 1133,
      "Ġlig": 1134,
      "ĠmÃ©t": 1135,
      "Ġdid": 1136,
      "Ġbi": 1137,
      "Ġbit": 1138,
      "Ã©c": 1139,
      "Ã©n": 1140,
      "Ã©es": 1141,
      "Ġrev": 1142,
      "Ġvo": 1143,
      "ident": 1144,
      "Ġquest": 1145,
      "Ġpeut": 1146,
      "Ġdoes": 1147,
      "istes": 1148,
      "Ġdev": 1149,
      "Ġtax": 1150,
      "tty": 1151,
      "ience": 1152,
      "Ġpretty": 1153,
      "Ġ202": 1154,
      "Ġago": 1155,
      "Ġunderstand": 1156,
      "Ġgovernment": 1157,
      "Ġligne": 1158,
      "day": 1159,
      "ract": 1160,
      "Ġside": 1161,
      "Ġcall": 1162,
      "enc": 1163,
      "Ġtous": 1164,
      "Ġline": 1165,
      "Ġlang": 1166,
      "Ġmight": 1167,
      "Ġfor": 1168,
      "arge": 1169,
      "Ġnorm": 1170,
      "ots": 1171,
      "Ġret": 1172,
      "Ġvie": 1173,
      "Ġchild": 1174,
      "ular": 1175,
      "Ġanother": 1176,
      "Ġprice": 1177,
      "Ġused": 1178,
      "Ġclass": 1179,
      "Ġspeak": 1180,
      "Ġtransport": 1181,
      "Ġfriends": 1182,
      "Ġgreat": 1183,
      "Ġservice": 1184,
      "ĠÂ£": 1185,
      "Ġproperty": 1186,
      "Ġsyst": 1187,
      "Ġfollow": 1188,
      "ah": 1189,
      "ject": 1190,
      "ph": 1191,
      "ye": 1192,
      "Ġou": 1193,
      "Ġed": 1194,
      "Ġont": 1195,
      "Ġaff": 1196,
      "Ġaway": 1197,
      "Ġdate": 1198,
      "Ġbed": 1199,
      "Ġworth": 1200,
      "Ġgiv": 1201,
      "Ġeff": 1202,
      "asse": 1203,
      "Ġquart": 1204,
      "Ġpark": 1205,
      "ational": 1206,
      "Ġseen": 1207,
      "erest": 1208,
      "Ġenough": 1209,
      "Ġcontin": 1210,
      "Ġcheck": 1211,
      "Ġinterest": 1212,
      "Ġrestaur": 1213,
      "Ġontar": 1214,
      "aid": 1215,
      "ger": 1216,
      "ket": 1217,
      "lord": 1218,
      "oint": 1219,
      "rÃ¨s": 1220,
      "Ã§": 1221,
      "Ġ$": 1222,
      "Ġsol": 1223,
      "Ġsem": 1224,
      "Ġsans": 1225,
      "Ġcre": 1226,
      "erally": 1227,
      "Ġtou": 1228,
      "Ġtop": 1229,
      "Ġlou": 1230,
      "Ġmid": 1231,
      "Ġmill": 1232,
      "Ġmess": 1233,
      "arm": 1234,
      "Ġnum": 1235,
      "Ġhard": 1236,
      "une": 1237,
      "Ġlove": 1238,
      "Ġdef": 1239,
      "Ġann": 1240,
      "Ġtaking": 1241,
      "Ġtimes": 1242,
      "Ġmeet": 1243,
      "comm": 1244,
      "Ġblack": 1245,
      "Ġcheap": 1246,
      "ances": 1247,
      "Ġchange": 1248,
      "Ġmonths": 1249,
      "Ġvisit": 1250,
      "Ġwithout": 1251,
      "Ġsecond": 1252,
      "Ġkeep": 1253,
      "Ġhonest": 1254,
      "Ġjuste": 1255,
      "Ġdifferent": 1256,
      "ĠmÃ©tro": 1257,
      "aim": 1258,
      "air": 1259,
      "no": 1260,
      "tle": 1261,
      "ug": 1262,
      "ving": 1263,
      "Ġpri": 1264,
      "Ġcle": 1265,
      "Ġaw": 1266,
      "Ġtt": 1267,
      "Ġmain": 1268,
      "arr": 1269,
      "Ġhear": 1270,
      "Ġhope": 1271,
      "rop": 1272,
      "Ġva": 1273,
      "Ġval": 1274,
      "Ġrun": 1275,
      "erse": 1276,
      "Ġqual": 1277,
      "ending": 1278,
      "Ġconf": 1279,
      "Ġdeux": 1280,
      "Ġans": 1281,
      "aug": 1282,
      "cially": 1283,
      "ards": 1284,
      "arent": 1285,
      "Ġfrance": 1286,
      "Ġdisc": 1287,
      "Ġintern": 1288,
      "Ġseems": 1289,
      "Ġlandlord": 1290,
      "Ġconstru": 1291,
      "Ġdemand": 1292,
      "cle": 1293,
      "form": 1294,
      "gr": 1295,
      "ix": 1296,
      "ient": 1297,
      "line": 1298,
      "rer": 1299,
      "Ġser": 1300,
      "Ġset": 1301,
      "Ġcet": 1302,
      "Ġcycl": 1303,
      "ene": 1304,
      "Ġten": 1305,
      "Ġmade": 1306,
      "ither": 1307,
      "ised": 1308,
      "Ġfac": 1309,
      "Ġbro": 1310,
      "Ġhom": 1311,
      "Ġreason": 1312,
      "Ġrecomm": 1313,
      "iment": 1314,
      "Ġalread": 1315,
      "Ġyes": 1316,
      "Ġsuper": 1317,
      "ndre": 1318,
      "Ġshort": 1319,
      "aux": 1320,
      "Ġmoins": 1321,
      "Ã©tait": 1322,
      "Ġautom": 1323,
      "Ġfaut": 1324,
      "Ãªt": 1325,
      "Ġconsid": 1326,
      "Ġconcern": 1327,
      "Ġprivate": 1328,
      "Ã´t": 1329,
      "Ġontario": 1330,
      "Ġalready": 1331,
      "gal": 1332,
      "hood": 1333,
      "joy": 1334,
      "ted": 1335,
      "ines": 1336,
      "Ġce": 1337,
      "ering": 1338,
      "Ġmal": 1339,
      "Ġfem": 1340,
      "Ġfound": 1341,
      "Ġfood": 1342,
      "alth": 1343,
      "Ġban": 1344,
      "Ġwin": 1345,
      "Ġgive": 1346,
      "ety": 1347,
      "Ġred": 1348,
      "Ġrer": 1349,
      "Ġeither": 1350,
      "ils": 1351,
      "Ġrue": 1352,
      "Ġjam": 1353,
      "Ġjour": 1354,
      "Ġcho": 1355,
      "Ġque": 1356,
      "ull": 1357,
      "ately": 1358,
      "pecially": 1359,
      "Ġenjoy": 1360,
      "Ġcompan": 1361,
      "Ġgroup": 1362,
      "Ġfree": 1363,
      "Ġincl": 1364,
      "Ġroad": 1365,
      "Ġadd": 1366,
      "Ġphone": 1367,
      "bec": 1368,
      "Ġliving": 1369,
      "Ġmaybe": 1370,
      "Ġincreas": 1371,
      "Ġlocal": 1372,
      "Ġcurrent": 1373,
      "Ġespecially": 1374,
      "Ġtraffic": 1375,
      "Ġlangu": 1376,
      "Ġnormal": 1377,
      "Ġttc": 1378,
      "ead": 1379,
      "iÃ¨re": 1380,
      "most": 1381,
      "nes": 1382,
      "oot": 1383,
      "pr": 1384,
      "uff": 1385,
      "Ġ&": 1386,
      "Ġpres": 1387,
      "Ġcop": 1388,
      "Ġcult": 1389,
      "ery": 1390,
      "Ġab": 1391,
      "Ġtold": 1392,
      "Ġturn": 1393,
      "Ġluck": 1394,
      "Ġdist": 1395,
      "ition": 1396,
      "Ġfar": 1397,
      "Ġfont": 1398,
      "Ġfuck": 1399,
      "arch": 1400,
      "ork": 1401,
      "Ġhist": 1402,
      "ĠvÃ©": 1403,
      "Ġstay": 1404,
      "Ġcome": 1405,
      "Ġcomment": 1406,
      "Ġalmost": 1407,
      "Ġlife": 1408,
      "Ġenf": 1409,
      "ared": 1410,
      "Ġbud": 1411,
      "Ġimag": 1412,
      "ĠmontrÃ©": 1413,
      "Ġmean": 1414,
      "ruct": 1415,
      "Ġdirect": 1416,
      "Ġsupport": 1417,
      "Ġtickets": 1418,
      "Ġpopul": 1419,
      "others": 1420,
      "Ġexperience": 1421,
      "Ġhonestly": 1422,
      "50": 1423,
      "aking": 1424,
      "hip": 1425,
      "par": 1426,
      "Ġord": 1427,
      "Ġown": 1428,
      "Ġsound": 1429,
      "Ġpan": 1430,
      "Ġabs": 1431,
      "Ġtell": 1432,
      "Ġdou": 1433,
      "Ġfine": 1434,
      "Ġfore": 1435,
      "als": 1436,
      "Ġbill": 1437,
      "ats": 1438,
      "Ġwr": 1439,
      "Ġgard": 1440,
      "Ġville": 1441,
      "els": 1442,
      "Ġram": 1443,
      "ime": 1444,
      "olog": 1445,
      "und": 1446,
      "Ġjob": 1447,
      "irt": 1448,
      "Ġparking": 1449,
      "Ġprof": 1450,
      "Ġprodu": 1451,
      "Ġnext": 1452,
      "aine": 1453,
      "Ġpossible": 1454,
      "Ġmaking": 1455,
      "elles": 1456,
      "aires": 1457,
      "Ġresp": 1458,
      "Ġphot": 1459,
      "Ġlots": 1460,
      "Ġsocial": 1461,
      "Ġentre": 1462,
      "Ġapart": 1463,
      "ĠaprÃ¨s": 1464,
      "Ġbuilding": 1465,
      "Ġplease": 1466,
      "Ġclose": 1467,
      "Ġcomplete": 1468,
      "Ġtemps": 1469,
      "Ġsystem": 1470,
      "Ġinclud": 1471,
      "bl": 1472,
      "iqu": 1473,
      "Ġon": 1474,
      "iness": 1475,
      "Ġsais": 1476,
      "Ġpat": 1477,
      "Ġcam": 1478,
      "Ġable": 1479,
      "Ġaction": 1480,
      "Ġlarge": 1481,
      "ital": 1482,
      "Ġface": 1483,
      "Ġfact": 1484,
      "arg": 1485,
      "atch": 1486,
      "icle": 1487,
      "eter": 1488,
      "Ġvoir": 1489,
      "Ġvois": 1490,
      "Ġvra": 1491,
      "Ġstuff": 1492,
      "unch": 1493,
      "ante": 1494,
      "Ġjo": 1495,
      "Ġpeux": 1496,
      "Ġext": 1497,
      "ody": 1498,
      "Ġshit": 1499,
      "Ġprices": 1500,
      "Ġusually": 1501,
      "Ġmoving": 1502,
      "Ġwebs": 1503,
      "Ġcontact": 1504,
      "Ġmanag": 1505,
      "Ġfran": 1506,
      "Ġresid": 1507,
      "Ġautre": 1508,
      "Ġremember": 1509,
      "Ġdiffic": 1510,
      "ĠproblÃ¨": 1511,
      "Ġprovince": 1512,
      "Ġarriv": 1513,
      "Ġstudents": 1514,
      "Ġkids": 1515,
      "Ġloud": 1516,
      "Ġlanguage": 1517,
      "ĠmontrÃ©al": 1518,
      "bre": 1519,
      "ca": 1520,
      "fr": 1521,
      "fic": 1522,
      "iens": 1523,
      "jours": 1524,
      "ning": 1525,
      "ness": 1526,
      "oc": 1527,
      "pos": 1528,
      "vot": 1529,
      "Ġest": 1530,
      "ren": 1531,
      "Ġsus": 1532,
      "Ġsav": 1533,
      "Ġsays": 1534,
      "Ġpict": 1535,
      "Ġtre": 1536,
      "Ġdays": 1537,
      "Ġbag": 1538,
      "ention": 1539,
      "Ġhot": 1540,
      "Ġear": 1541,
      "use": 1542,
      "Ġviv": 1543,
      "Ġstore": 1544,
      "Ġrais": 1545,
      "Ġrien": 1546,
      "ution": 1547,
      "avi": 1548,
      "Ġdog": 1549,
      "Ġsugg": 1550,
      "iste": 1551,
      "Ġexact": 1552,
      "Ġamount": 1553,
      "aiss": 1554,
      "Ġenc": 1555,
      "ange": 1556,
      "abit": 1557,
      "Ġhead": 1558,
      "Ġhealth": 1559,
      "Ġanyone": 1560,
      "Ġpersonne": 1561,
      "ific": 1562,
      "Ġbusiness": 1563,
      "Ġmarket": 1564,
      "Ġguy": 1565,
      "Ġ40": 1566,
      "Ġliterally": 1567,
      "Ġgenre": 1568,
      "Ġrather": 1569,
      "Ġsitu": 1570,
      "Ġinvest": 1571,
      "Ġcountry": 1572,
      "reddit": 1573,
      "Ġbike": 1574,
      "Ġquestion": 1575,
      "Ġquartier": 1576,
      "Ġtoujours": 1577,
      "Ġmessage": 1578,
      "Ġinternational": 1579,
      "Ġconstruction": 1580,
      "ĠvÃ©lo": 1581,
      "Ġpopulation": 1582,
      "Ġabsol": 1583,
      "Ġvraiment": 1584,
      "aff": 1585,
      "br": 1586,
      "fort": 1587,
      "jor": 1588,
      "ng": 1589,
      "ping": 1590,
      "Ã»": 1591,
      "Ġid": 1592,
      "Ġothers": 1593,
      "Ġsal": 1594,
      "Ġpot": 1595,
      "Ġpour": 1596,
      "Ġciv": 1597,
      "Ġant": 1598,
      "Ġmer": 1599,
      "Ġmom": 1600,
      "Ġmust": 1601,
      "Ġdro": 1602,
      "Ġdone": 1603,
      "Ġford": 1604,
      "Ġfuc": 1605,
      "Ġbou": 1606,
      "Ġbel": 1607,
      "att": 1608,
      "Ġhig": 1609,
      "ics": 1610,
      "ash": 1611,
      "used": 1612,
      "acy": 1613,
      "ches": 1614,
      "irl": 1615,
      "Ġalors": 1616,
      "Ġallow": 1617,
      "Ġyet": 1618,
      "Ġgets": 1619,
      "Ġocc": 1620,
      "Ġoffic": 1621,
      "Ġoft": 1622,
      "Ġkind": 1623,
      "Ġ13": 1624,
      "Ġ100": 1625,
      "Ġlead": 1626,
      "Ġcompl": 1627,
      "Ġappoint": 1628,
      "Ġcontrol": 1629,
      "Ġmec": 1630,
      "ĠdÃ©j": 1631,
      "Ġneeds": 1632,
      "Ġmetro": 1633,
      "Ġspeci": 1634,
      "Ġavant": 1635,
      "Ġweeks": 1636,
      "Ġfriend": 1637,
      "Ġcentr": 1638,
      "Ġlived": 1639,
      "Ġlittle": 1640,
      "Ġincrease": 1641,
      "Ġhappened": 1642,
      "Ġterm": 1643,
      "Ġouts": 1644,
      "Ġissue": 1645,
      "Ġcalled": 1646,
      "Ġtype": 1647,
      "Ġrestaurants": 1648,
      "Ġwebsite": 1649,
      "Ġsuggest": 1650,
      "Ġfucking": 1651,
      "Ġhigher": 1652,
      "Ġoften": 1653,
      "30": 1654,
      "48": 1655,
      "80": 1656,
      "cess": 1657,
      "cri": 1658,
      "gy": 1659,
      "ially": 1660,
      "ken": 1661,
      "lÃ©": 1662,
      "ossible": 1663,
      "ts": 1664,
      "Ġide": 1665,
      "Ġsout": 1666,
      "Ġpur": 1667,
      "Ġpaid": 1668,
      "Ġcame": 1669,
      "eric": 1670,
      "Ġtalk": 1671,
      "ĠlÃł": 1672,
      "Ġmil": 1673,
      "Ġfort": 1674,
      "Ġflo": 1675,
      "Ġform": 1676,
      "Ġwalking": 1677,
      "Ġgirl": 1678,
      "Ġnorth": 1679,
      "ott": 1680,
      "Ġread": 1681,
      "Ġrend": 1682,
      "Ġelect": 1683,
      "quÃ©": 1684,
      "Ġvu": 1685,
      "Ġstand": 1686,
      "owe": 1687,
      "Ġnothing": 1688,
      "utes": 1689,
      "agn": 1690,
      "Ġalone": 1691,
      "Ġaller": 1692,
      "Ġproject": 1693,
      "Ġconne": 1694,
      "oute": 1695,
      "Ġameric": 1696,
      "Ġ12": 1697,
      "Ġ17": 1698,
      "ensive": 1699,
      "Ġunless": 1700,
      "Ġusing": 1701,
      "Ġmajor": 1702,
      "Ġareas": 1703,
      "Ġapps": 1704,
      "Ġclaim": 1705,
      "Ġeverything": 1706,
      "Ġrespect": 1707,
      "Ġwhite": 1708,
      "Ġwhole": 1709,
      "Ġcounc": 1710,
      "Ġcars": 1711,
      "Ġguess": 1712,
      "Ġsubreddit": 1713,
      "Ġsaying": 1714,
      "Ġtech": 1715,
      "Ġfund": 1716,
      "Ġrecent": 1717,
      "Ġeasy": 1718,
      "Ġcommunity": 1719,
      "Ġlaw": 1720,
      "Ġorig": 1721,
      "Ġissues": 1722,
      "Ġmedia": 1723,
      "Ġbehavi": 1724,
      "Ġmusic": 1725,
      "Ġdeliver": 1726,
      "Ġneighbour": 1727,
      "Ġnumber": 1728,
      "Ġrecommend": 1729,
      "Ġjamais": 1730,
      "Ġcivil": 1731,
      "Ġoutside": 1732,
      "con": 1733,
      "ee": 1734,
      "eur": 1735,
      "ik": 1736,
      "jet": 1737,
      "ped": 1738,
      "ric": 1739,
      "ves": 1740,
      "Ã¹": 1741,
      "Ġ0": 1742,
      "inal": 1743,
      "ret": 1744,
      "reci": 1745,
      "Ġsou": 1746,
      "Ġsens": 1747,
      "Ġpack": 1748,
      "erm": 1749,
      "Ġair": 1750,
      "Ġtalking": 1751,
      "esp": 1752,
      "ane": 1753,
      "Ġmon": 1754,
      "Ġmem": 1755,
      "Ġmind": 1756,
      "ism": 1757,
      "Ġfire": 1758,
      "Ġfall": 1759,
      "Ġfois": 1760,
      "Ġfull": 1761,
      "ators": 1762,
      "atically": 1763,
      "Ġwater": 1764,
      "Ġhal": 1765,
      "Ġhand": 1766,
      "ilar": 1767,
      "row": 1768,
      "Ġver": 1769,
      "elf": 1770,
      "oph": 1771,
      "Ġrid": 1772,
      "Ġrand": 1773,
      "imes": 1774,
      "imit": 1775,
      "ural": 1776,
      "Ġtruc": 1777,
      "Ġcha": 1778,
      "Ġplay": 1779,
      "ird": 1780,
      "Ġall": 1781,
      "Ġparce": 1782,
      "Ġgoes": 1783,
      "Ġsex": 1784,
      "Ġdoct": 1785,
      "ains": 1786,
      "Ġexist": 1787,
      "ieux": 1788,
      "Ġdeal": 1789,
      "Ġamaz": 1790,
      "ĠoÃ¹": 1791,
      "Ġ15": 1792,
      "Ġenv": 1793,
      "Ġleft": 1794,
      "ements": 1795,
      "Ġappreci": 1796,
      "aient": 1797,
      "Ġcov": 1798,
      "Ġspend": 1799,
      "Ġfront": 1800,
      "Ġwants": 1801,
      "Ġlonger": 1802,
      "ellement": 1803,
      "Ġstreets": 1804,
      "Ġ50": 1805,
      "Ġpaying": 1806,
      "Ġaccess": 1807,
      "Ġtrying": 1808,
      "Ġemp": 1809,
      "Ġvegan": 1810,
      "Ġexpensive": 1811,
      "Ġsmall": 1812,
      "Ġoffer": 1813,
      "Ġupvote": 1814,
      "Ġdepuis": 1815,
      "Ġimpossible": 1816,
      "Ġticket": 1817,
      "Ġuk": 1818,
      "Ġclos": 1819,
      "Ġlower": 1820,
      "Ġtrouver": 1821,
      "Ġbreak": 1822,
      "Ġdriving": 1823,
      "Ġdownvote": 1824,
      "Ġedit": 1825,
      "Ġimagine": 1826,
      "ĠproblÃ¨me": 1827,
      "voting": 1828,
      "Ġpictures": 1829,
      "Ġsituation": 1830,
      "Ġappointment": 1831,
      "Ġsouth": 1832,
      "Ġrandom": 1833,
      "ces": 1834,
      "fer": 1835,
      "mer": 1836,
      "mes": 1837,
      "nent": 1838,
      "of": 1839,
      "pm": 1840,
      "vious": 1841,
      "Ġer": 1842,
      "inite": 1843,
      "Ġsk": 1844,
      "Ġsing": 1845,
      "Ġpi": 1846,
      "Ġped": 1847,
      "Ġpand": 1848,
      "Ġpath": 1849,
      "eral": 1850,
      "Ġlist": 1851,
      "Ġlight": 1852,
      "Ġlater": 1853,
      "Ġmis": 1854,
      "Ġmod": 1855,
      "Ġmiss": 1856,
      "Ġmaint": 1857,
      "Ġdow": 1858,
      "Ġfut": 1859,
      "Ġbar": 1860,
      "Ġwas": 1861,
      "lev": 1862,
      "Ġgar": 1863,
      "Ġno": 1864,
      "ility": 1865,
      "ross": 1866,
      "Ġvill": 1867,
      "Ġstat": 1868,
      "Ġris": 1869,
      "Ġrac": 1870,
      "ivers": 1871,
      "Ġchose": 1872,
      "Ġcomes": 1873,
      "ample": 1874,
      "Ġseule": 1875,
      "nds": 1876,
      "Ġeng": 1877,
      "astruct": 1878,
      "Ġprendre": 1879,
      "Ġcool": 1880,
      "Ġsafe": 1881,
      "Ġpartic": 1882,
      "Ġpersonal": 1883,
      "the": 1884,
      "Ġcouple": 1885,
      "Ġendro": 1886,
      "ĠrÃ©g": 1887,
      "Ġpolit": 1888,
      "Ġentire": 1889,
      "Ġinfr": 1890,
      "Ġtransit": 1891,
      "Ãªte": 1892,
      "ogle": 1893,
      "dition": 1894,
      "Ġcentre": 1895,
      "Ġpasser": 1896,
      "Ġservices": 1897,
      "Ġbased": 1898,
      "Ġbuildings": 1899,
      "Ġflat": 1900,
      "Ġarticle": 1901,
      "Ġsimple": 1902,
      "Ġsimilar": 1903,
      "Ġwithin": 1904,
      "Ġcross": 1905,
      "Ġacross": 1906,
      "Ġinvol": 1907,
      "Ġadvice": 1908,
      "Ġdrivers": 1909,
      "Ġporte": 1910,
      "Ġafford": 1911,
      "Ġgiven": 1912,
      "Ġeffort": 1913,
      "Ġinteresting": 1914,
      "Ġprix": 1915,
      "Ġclear": 1916,
      "ersection": 1917,
      "Ġquality": 1918,
      "Ġcette": 1919,
      "Ġcompany": 1920,
      "Ġonline": 1921,
      "Ġresidents": 1922,
      "Ġabsolute": 1923,
      "ĠdÃ©jÃł": 1924,
      "Ġcentral": 1925,
      "owever": 1926,
      "Ġappreciate": 1927,
      "Ġdownt": 1928,
      "bo": 1929,
      "bers": 1930,
      "but": 1931,
      "co": 1932,
      "gu": 1933,
      "he": 1934,
      "ipp": 1935,
      "min": 1936,
      "oi": 1937,
      "pa": 1938,
      "you": 1939,
      "Ġur": 1940,
      "Ġones": 1941,
      "rect": 1942,
      "Ġsite": 1943,
      "Ġsense": 1944,
      "Ġsouv": 1945,
      "Ġpal": 1946,
      "Ġpast": 1947,
      "Ġpress": 1948,
      "Ġpasse": 1949,
      "Ġparent": 1950,
      "Ġach": 1951,
      "Ġtend": 1952,
      "Ġmass": 1953,
      "Ġdit": 1954,
      "ature": 1955,
      "ather": 1956,
      "Ġwast": 1957,
      "Ġgl": 1958,
      "Ġglo": 1959,
      "ĠgÃ©n": 1960,
      "Ã©g": 1961,
      "Ġhor": 1962,
      "Ġhold": 1963,
      "ett": 1964,
      "Ġreport": 1965,
      "ilt": 1966,
      "room": 1967,
      "Ġvar": 1968,
      "ided": 1969,
      "idge": 1970,
      "ival": 1971,
      "igr": 1972,
      "emic": 1973,
      "estri": 1974,
      "util": 1975,
      "Ġquite": 1976,
      "Ġquick": 1977,
      "ames": 1978,
      "Ġye": 1979,
      "endant": 1980,
      "Ġextre": 1981,
      "Ġexample": 1982,
      "ession": 1983,
      "ieurs": 1984,
      "Ã¨me": 1985,
      "Ġob": 1986,
      "Ġover": 1987,
      "tern": 1988,
      "Ġleave": 1989,
      "Ġmob": 1990,
      "aph": 1991,
      "Ġimages": 1992,
      "Ġappro": 1993,
      "Ġmeans": 1994,
      "airement": 1995,
      "ĠdÃ©c": 1996,
      "Ġdrug": 1997,
      "Ġheav": 1998,
      "Ġworked": 1999,
      "Ġroom": 2000,
      "Ġspeaking": 2001,
      "Ġfeed": 2002,
      "Ġtook": 2003,
      "Ġremind": 2004,
      "Ġsoon": 2005,
      "Ġregular": 2006,
      "ustom": 2007,
      "Ġinfo": 2008,
      "Ġinform": 2009,
      "Ġstarted": 2010,
      "Ġfinally": 2011,
      "Ġinstall": 2012,
      "velop": 2013,
      "Ġbasically": 2014,
      "Ġtravel": 2015,
      "Ġsurpr": 2016,
      "plac": 2017,
      "Ġorgan": 2018,
      "Ġoption": 2019,
      "Ġoptions": 2020,
      "Ġwaiting": 2021,
      "Ġmention": 2022,
      "Ġtrouve": 2023,
      "Ġgros": 2024,
      "Ġcourse": 2025,
      "Ġhomes": 2026,
      "Ġbudget": 2027,
      "Ġearly": 2028,
      "Ġdelivery": 2029,
      "astructure": 2030,
      "Ġdowntown": 2031,
      "do": 2032,
      "dle": 2033,
      "ex": 2034,
      "iques": 2035,
      "lie": 2036,
      "mar": 2037,
      "nel": 2038,
      "oke": 2039,
      "ock": 2040,
      "right": 2041,
      "tout": 2042,
      "uro": 2043,
      "ume": 2044,
      "Ġens": 2045,
      "ĠÃ©t": 2046,
      "Ġsat": 2047,
      "Ġsell": 2048,
      "Ġsold": 2049,
      "Ġsaint": 2050,
      "Ġpire": 2051,
      "Ġpick": 2052,
      "Ġcase": 2053,
      "Ġcities": 2054,
      "ĠcÃ´t": 2055,
      "Ġcustom": 2056,
      "onne": 2057,
      "Ġauc": 2058,
      "Ġtot": 2059,
      "Ġtrop": 2060,
      "Ġmult": 2061,
      "Ġden": 2062,
      "itch": 2063,
      "iser": 2064,
      "Ġfle": 2065,
      "Ġfed": 2066,
      "Ġfast": 2067,
      "ark": 2068,
      "alement": 2069,
      "Ġbur": 2070,
      "Ġbout": 2071,
      "Ġbab": 2072,
      "ativ": 2073,
      "Ġwest": 2074,
      "Ġwind": 2075,
      "let": 2076,
      "lection": 2077,
      "Ġgare": 2078,
      "Ġnois": 2079,
      "Ã©d": 2080,
      "Ġhell": 2081,
      "Ġhum": 2082,
      "Ġhowever": 2083,
      "ici": 2084,
      "Ġrequ": 2085,
      "ili": 2086,
      "Ġvont": 2087,
      "Ġstup": 2088,
      "Ġrame": 2089,
      "Ġriver": 2090,
      "Ġthree": 2091,
      "Ġthought": 2092,
      "cher": 2093,
      "Ġcher": 2094,
      "Ġchat": 2095,
      "Ġplut": 2096,
      "vert": 2097,
      "Ġprop": 2098,
      "Ġsubs": 2099,
      "Ġ25": 2100,
      "ries": 2101,
      "Ġok": 2102,
      "Ġlikely": 2103,
      "Ġpos": 2104,
      "Ġpoor": 2105,
      "Ġtakes": 2106,
      "Ġmois": 2107,
      "anger": 2108,
      "Ġbuilt": 2109,
      "Ġplusieurs": 2110,
      "Ġappli": 2111,
      "Ġclin": 2112,
      "Ġprem": 2113,
      "Ġcontre": 2114,
      "Ġcontract": 2115,
      "Ġparisien": 2116,
      "Ġsaf": 2117,
      "Ġpartner": 2118,
      "Ġspace": 2119,
      "Ġdrive": 2120,
      "Ġyoung": 2121,
      "Ġworks": 2122,
      "Ġspecial": 2123,
      "Ġavo": 2124,
      "Ġsoci": 2125,
      "Ġscre": 2126,
      "Ġguys": 2127,
      "Ġgreen": 2128,
      "Ġolder": 2129,
      "Ġveh": 2130,
      "Ġinstead": 2131,
      "Ġtravail": 2132,
      "Ġattract": 2133,
      "Ġminutes": 2134,
      "Ġoffice": 2135,
      "Ġeasier": 2136,
      "Ġcollect": 2137,
      "Ġsurtout": 2138,
      "Ġquelqu": 2139,
      "Ġquelques": 2140,
      "ibly": 2141,
      "Ġcertains": 2142,
      "Ġblock": 2143,
      "Ġcosts": 2144,
      "Ġviol": 2145,
      "Ġjew": 2146,
      "Ġmatch": 2147,
      "Ġbehind": 2148,
      "Ġmental": 2149,
      "Ġpetit": 2150,
      "Ġ2023": 2151,
      "Ġcontinue": 2152,
      "Ġmiddle": 2153,
      "Ġdefinite": 2154,
      "Ġcheaper": 2155,
      "Ġlandlords": 2156,
      "Ġconcerns": 2157,
      "Ġfemme": 2158,
      "Ġquebec": 2159,
      "Ġincreased": 2160,
      "Ġculture": 2161,
      "Ġforeign": 2162,
      "Ġproduct": 2163,
      "Ġcompletely": 2164,
      "Ġvivre": 2165,
      "Ġencore": 2166,
      "Ġhalf": 2167,
      "Ġemplo": 2168,
      "Ġpedestri": 2169,
      "Ġpandemic": 2170,
      "Ġfuture": 2171,
      "Ġinfrastructure": 2172,
      "Ġinvolved": 2173,
      "Ġabsolutely": 2174,
      "Ġsouvent": 2175,
      "Ġextreme": 2176,
      "Ġdefinitely": 2177,
      "99": 2178,
      "af": 2179,
      "ec": 2180,
      "how": 2181,
      "jour": 2182,
      "ll": 2183,
      "land": 2184,
      "ming": 2185,
      "mmer": 2186,
      "ny": 2187,
      "oci": 2188,
      "ply": 2189,
      "pers": 2190,
      "rait": 2191,
      "uit": 2192,
      "ument": 2193,
      "we": 2194,
      "wer": 2195,
      "ycle": 2196,
      "Ġ%": 2197,
      "inking": 2198,
      "Ġsor": 2199,
      "Ġsous": 2200,
      "Ġsoir": 2201,
      "Ġps": 2202,
      "Ġpouv": 2203,
      "Ġcit": 2204,
      "Ġcel": 2205,
      "Ġcut": 2206,
      "Ġcard": 2207,
      "onn": 2208,
      "enue": 2209,
      "Ġaf": 2210,
      "Ġah": 2211,
      "Ġlaug": 2212,
      "Ġlimit": 2213,
      "Ġdess": 2214,
      "itt": 2215,
      "iture": 2216,
      "Ġfit": 2217,
      "Ġfais": 2218,
      "Ġfoot": 2219,
      "Ġbond": 2220,
      "Ġwond": 2221,
      "Ġwatch": 2222,
      "orc": 2223,
      "Ġgang": 2224,
      "Ġnet": 2225,
      "Ġnom": 2226,
      "Ã©p": 2227,
      "Ġhu": 2228,
      "Ġhours": 2229,
      "Ġhabit": 2230,
      "Ġrece": 2231,
      "Ġeg": 2232,
      "Ġequ": 2233,
      "Ġeye": 2234,
      "usement": 2235,
      "quent": 2236,
      "Ġvend": 2237,
      "eless": 2238,
      "Ġstory": 2239,
      "Ġru": 2240,
      "Ġrul": 2241,
      "Ġthan": 2242,
      "urance": 2243,
      "agne": 2244,
      "Ġjud": 2245,
      "Ġchar": 2246,
      "Ġchau": 2247,
      "Ġcoming": 2248,
      "Ġquai": 2249,
      "verage": 2250,
      "sez": 2251,
      "Ġsever": 2252,
      "avais": 2253,
      "aines": 2254,
      "Ġsummer": 2255,
      "Ġexcept": 2256,
      "Ġlog": 2257,
      "ieve": 2258,
      "Ġdevelop": 2259,
      "rible": 2260,
      "Ġ18": 2261,
      "Ġunivers": 2262,
      "Ġprote": 2263,
      "Ġworse": 2264,
      "Ġcompre": 2265,
      "Ġmakes": 2266,
      "Ġmoy": 2267,
      "Ġmoved": 2268,
      "ables": 2269,
      "Ġweird": 2270,
      "Ġpret": 2271,
      "uber": 2272,
      "Ġmeat": 2273,
      "ĠdÃ©t": 2274,
      "Ġeverywhere": 2275,
      "ctions": 2276,
      "Ġperform": 2277,
      "Ġasking": 2278,
      "Ġassez": 2279,
      "Ġanyway": 2280,
      "Ġmettre": 2281,
      "Ġautres": 2282,
      "Ġintersection": 2283,
      "Ãªtre": 2284,
      "Ġhappens": 2285,
      "Ġsubway": 2286,
      "Ġbox": 2287,
      "ailable": 2288,
      "Ġhouses": 2289,
      "Ġtourists": 2290,
      "Ġprovin": 2291,
      "Ġbonne": 2292,
      "obil": 2293,
      "Ġsimply": 2294,
      "Ġrates": 2295,
      "ize": 2296,
      "Ġwoman": 2297,
      "Ġposted": 2298,
      "Ġasked": 2299,
      "Ġaccept": 2300,
      "Ġbloc": 2301,
      "Ġswe": 2302,
      "Ġregarde": 2303,
      "Ġquestions": 2304,
      "ences": 2305,
      "Ġchildren": 2306,
      "Ġoui": 2307,
      "Ġeffect": 2308,
      "Ġsolution": 2309,
      "Ġprior": 2310,
      "Ġaware": 2311,
      "Ġserious": 2312,
      "Ġautomatically": 2313,
      "Ġceux": 2314,
      "Ġdistance": 2315,
      "Ġhistor": 2316,
      "Ġorder": 2317,
      "Ġsounds": 2318,
      "Ġdouble": 2319,
      "Ġphoto": 2320,
      "Ġdifficile": 2321,
      "Ġmoment": 2322,
      "Ġamerican": 2323,
      "conom": 2324,
      "Ġcovid": 2325,
      "Ġsingle": 2326,
      "ĠpiÃ©t": 2327,
      "Ġwaste": 2328,
      "ĠgÃ©nÃ©r": 2329,
      "ĠcÃ´tÃ©": 2330,
      "ĠplutÃ´t": 2331,
      "Ġavoid": 2332,
      "10": 2333,
      "13": 2334,
      "16": 2335,
      "28": 2336,
      "aws": 2337,
      "by": 2338,
      "cou": 2339,
      "come": 2340,
      "ez": 2341,
      "fia": 2342,
      "fect": 2343,
      "ha": 2344,
      "iel": 2345,
      "ike": 2346,
      "ips": 2347,
      "iple": 2348,
      "ma": 2349,
      "more": 2350,
      "ned": 2351,
      "nce": 2352,
      "over": 2353,
      "ror": 2354,
      "sh": 2355,
      "ties": 2356,
      "time": 2357,
      "vent": 2358,
      "yl": 2359,
      "ying": 2360,
      "yle": 2361,
      "Ġ#": 2362,
      "inst": 2363,
      "Ġsin": 2364,
      "Ġsent": 2365,
      "Ġsau": 2366,
      "ĠsÃ»": 2367,
      "Ġpun": 2368,
      "Ġpap": 2369,
      "Ġpiss": 2370,
      "Ġpense": 2371,
      "Ġcir": 2372,
      "Ġcart": 2373,
      "Ġcold": 2374,
      "Ġcours": 2375,
      "Ġcfia": 2376,
      "ero": 2377,
      "Ġtar": 2378,
      "Ġtow": 2379,
      "Ġtellement": 2380,
      "Ġlat": 2381,
      "Ġlines": 2382,
      "Ġlaiss": 2383,
      "Ġdue": 2384,
      "isÃ©": 2385,
      "Ġfav": 2386,
      "Ġfres": 2387,
      "Ġfix": 2388,
      "Ġbot": 2389,
      "Ġbut": 2390,
      "Ġbene": 2391,
      "atre": 2392,
      "atory": 2393,
      "Ġgas": 2394,
      "Ġnord": 2395,
      "Ġname": 2396,
      "enty": 2397,
      "entially": 2398,
      "Ġhit": 2399,
      "Ġhour": 2400,
      "Ġhall": 2401,
      "ether": 2402,
      "Ġeast": 2403,
      "asion": 2404,
      "Ġven": 2405,
      "Ġvot": 2406,
      "Ġvac": 2407,
      "Ġvict": 2408,
      "Ġstol": 2409,
      "igation": 2410,
      "oll": 2411,
      "emple": 2412,
      "str": 2413,
      "Ġisra": 2414,
      "estin": 2415,
      "ury": 2416,
      "Ġtrack": 2417,
      "Ġtried": 2418,
      "agr": 2419,
      "Ġchance": 2420,
      "ĠquÃ©": 2421,
      "Ġpeace": 2422,
      "Ġyork": 2423,
      "Ġgoogle": 2424,
      "Ġconn": 2425,
      "odd": 2426,
      "Ġ24": 2427,
      "riÃ¨re": 2428,
      "Ġshirt": 2429,
      "Ġanim": 2430,
      "ension": 2431,
      "Ġunfort": 2432,
      "Ġposs": 2433,
      "Ġpris": 2434,
      "Ġprom": 2435,
      "Ġworking": 2436,
      "Ġcompagn": 2437,
      "urer": 2438,
      "Ġmost": 2439,
      "Ġimage": 2440,
      "Ġevent": 2441,
      "Ġevents": 2442,
      "Ġ2000": 2443,
      "ump": 2444,
      "ĠdÃ©f": 2445,
      "Ġcoff": 2446,
      "Ġgrou": 2447,
      "Ġpartie": 2448,
      "Ġpartout": 2449,
      "Ġopin": 2450,
      "Ġdrink": 2451,
      "Ġperfect": 2452,
      "ude": 2453,
      "Ġfranc": 2454,
      "Ġrob": 2455,
      "Ġsix": 2456,
      "Ġanymore": 2457,
      "illeurs": 2458,
      "Ġavailable": 2459,
      "Ġcommit": 2460,
      "Ġbrought": 2461,
      "like": 2462,
      "Ġended": 2463,
      "ĠrÃ©c": 2464,
      "ĠrÃ©s": 2465,
      "Ġagree": 2466,
      "Ġbusy": 2467,
      "Ġremo": 2468,
      "Ġpolic": 2469,
      "Ġmarch": 2470,
      "Ġinfl": 2471,
      "Ġfinding": 2472,
      "Ġhappy": 2473,
      "itÃ©s": 2474,
      "Ġsometimes": 2475,
      "Ġbook": 2476,
      "Ġfinan": 2477,
      "Ġveux": 2478,
      "ĠÃ©gal": 2479,
      "ression": 2480,
      "Ġlooks": 2481,
      "Ġbuying": 2482,
      "ĠÂ«": 2483,
      "ĠÂ»": 2484,
      "fully": 2485,
      "Ġassoci": 2486,
      "Ġinside": 2487,
      "Ġrecord": 2488,
      "Ġunder": 2489,
      "Ġratp": 2490,
      "ized": 2491,
      "Ġdepending": 2492,
      "Ġproblems": 2493,
      "Ġsym": 2494,
      "Ġzone": 2495,
      "Ġconvers": 2496,
      "Ġcorrect": 2497,
      "Ġgroc": 2498,
      "Ġlevels": 2499,
      "Ġlearned": 2500,
      "Ġtyp": 2501,
      "Ġrestaurant": 2502,
      "Ġmillion": 2503,
      "Ġdemande": 2504,
      "gram": 2505,
      "Ġfacil": 2506,
      "Ġreasonable": 2507,
      "Ġconsider": 2508,
      "Ġbanlie": 2509,
      "Ġcurrently": 2510,
      "iÃ¨rement": 2511,
      "Ġdirectly": 2512,
      "Ġramq": 2513,
      "Ġrespons": 2514,
      "Ġapartment": 2515,
      "iquement": 2516,
      "Ġextra": 2517,
      "Ġsusp": 2518,
      "Ġspecific": 2519,
      "Ġelectric": 2520,
      "Ġtechn": 2521,
      "Ġoriginal": 2522,
      "Ġneighbourhood": 2523,
      "Ġchaque": 2524,
      "Ġdoctor": 2525,
      "Ġmainten": 2526,
      "ĠrÃ©gul": 2527,
      "Ġacheter": 2528,
      "Ġyeah": 2529,
      "Ġmentioned": 2530,
      "Ġstupid": 2531,
      "Ġjewish": 2532,
      "Ġextremely": 2533,
      "Ġsorry": 2534,
      "Ġseveral": 2535,
      "Ġstolen": 2536,
      "Ġunfortun": 2537,
      "ĠÃ©galement": 2538,
      "23": 2539,
      "24": 2540,
      "ban": 2541,
      "bres": 2542,
      "de": 2543,
      "df": 2544,
      "fri": 2545,
      "gs": 2546,
      "ges": 2547,
      "iet": 2548,
      "iff": 2549,
      "ients": 2550,
      "just": 2551,
      "ked": 2552,
      "oire": 2553,
      "por": 2554,
      "ta": 2555,
      "tte": 2556,
      "uil": 2557,
      "vie": 2558,
      "work": 2559,
      "ym": 2560,
      "âĤ": 2561,
      "Ġess": 2562,
      "Ġign": 2563,
      "Ġutil": 2564,
      "inx": 2565,
      "ined": 2566,
      "Ġsqu": 2567,
      "ĠsÃ©c": 2568,
      "Ġpens": 2569,
      "Ġpendant": 2570,
      "erators": 2571,
      "Ġtok": 2572,
      "Ġlic": 2573,
      "anes": 2574,
      "Ġmix": 2575,
      "Ġmieux": 2576,
      "Ġdai": 2577,
      "Ġdates": 2578,
      "inge": 2579,
      "itter": 2580,
      "Ġfil": 2581,
      "Ġfour": 2582,
      "Ġfight": 2583,
      "Ġfurn": 2584,
      "alle": 2585,
      "Ġbes": 2586,
      "Ġbor": 2587,
      "ator": 2588,
      "Ġwar": 2589,
      "Ġwal": 2590,
      "org": 2591,
      "edi": 2592,
      "Ġgars": 2593,
      "Ġnive": 2594,
      "ente": 2595,
      "Ã©rer": 2596,
      "Ġho": 2597,
      "Ġhur": 2598,
      "Ġhang": 2599,
      "icles": 2600,
      "Ġreach": 2601,
      "Ġeating": 2602,
      "Ġeconom": 2603,
      "iling": 2604,
      "Ġvr": 2605,
      "Ġvas": 2606,
      "elt": 2607,
      "Ġstage": 2608,
      "Ġstations": 2609,
      "Ġstaff": 2610,
      "Ġrom": 2611,
      "Ġrad": 2612,
      "Ġrap": 2613,
      "Ġrapp": 2614,
      "imate": 2615,
      "imum": 2616,
      "Ġthre": 2617,
      "Ġthread": 2618,
      "urbs": 2619,
      "antage": 2620,
      "ades": 2621,
      "Ġcharg": 2622,
      "Ġplat": 2623,
      "iron": 2624,
      "Ġparl": 2625,
      "Ġprogram": 2626,
      "Ġnecess": 2627,
      "aving": 2628,
      "avoir": 2629,
      "Ġdoit": 2630,
      "Ġdoor": 2631,
      "Ġconse": 2632,
      "Ġcondu": 2633,
      "istic": 2634,
      "Ġexc": 2635,
      "Ġexemple": 2636,
      "Ġloin": 2637,
      "Ġload": 2638,
      "earing": 2639,
      "Ã¨res": 2640,
      "Ġshould": 2641,
      "Ġ11": 2642,
      "Ġ14": 2643,
      "ĠprÃ©": 2644,
      "Ġleg": 2645,
      "Ġworst": 2646,
      "Ġmaps": 2647,
      "Ġimport": 2648,
      "Ġevict": 2649,
      "Ġappart": 2650,
      "Ġapparent": 2651,
      "asser": 2652,
      "Ġbeg": 2653,
      "Ġ2020": 2654,
      "ablement": 2655,
      "ĠdÃ©p": 2656,
      "Ġ35": 2657,
      "Ġground": 2658,
      "Ġheat": 2659,
      "Ġheure": 2660,
      "000": 2661,
      "Ġroll": 2662,
      "Ġaddition": 2663,
      "Ġpersonnes": 2664,
      "illed": 2665,
      "Ġwhether": 2666,
      "Ġfeu": 2667,
      "Ġbridge": 2668,
      "Ġactual": 2669,
      "Ġtoget": 2670,
      "Ġwanted": 2671,
      "Ġrental": 2672,
      "Ġfair": 2673,
      "ĠfaÃ§": 2674,
      "Ġsuburbs": 2675,
      "Ġfries": 2676,
      "Ġcanadian": 2677,
      "Ġchanged": 2678,
      "rÃ©s": 2679,
      "Ġassume": 2680,
      "Ġattention": 2681,
      "Ġfunny": 2682,
      "Ġhelps": 2683,
      "azy": 2684,
      "Ġdesign": 2685,
      "Ġdescri": 2686,
      "Ġeasily": 2687,
      "Ġstopped": 2688,
      "Ġimpro": 2689,
      "Ġimpact": 2690,
      "Ġschools": 2691,
      "Ġzero": 2692,
      "Ġcases": 2693,
      "Ġfeels": 2694,
      "Ġcertaines": 2695,
      "Ġups": 2696,
      "Ġshoppers": 2697,
      "Ġplanning": 2698,
      "Ġ60": 2699,
      "Ġconven": 2700,
      "Ġcountries": 2701,
      "rolinx": 2702,
      "Ġimmigr": 2703,
      "Ġimmedi": 2704,
      "Ġcourt": 2705,
      "Ġelsewhere": 2706,
      "Ġslight": 2707,
      "Ġforc": 2708,
      "Ġclasses": 2709,
      "Ġfollowing": 2710,
      "Ġfollowed": 2711,
      "Ġgives": 2712,
      "Ġquartiers": 2713,
      "Ġcontinu": 2714,
      "Ã§ais": 2715,
      "airs": 2716,
      "nov": 2717,
      "Ġheard": 2718,
      "aught": 2719,
      "ground": 2720,
      "Ġtenant": 2721,
      "Ġtenants": 2722,
      "Ġconsidered": 2723,
      "Ġwinter": 2724,
      "Ġreduc": 2725,
      "Ġcompanies": 2726,
      "Ġturned": 2727,
      "Ġhistory": 2728,
      "Ġenfants": 2729,
      "Ġwrong": 2730,
      "Ġprofit": 2731,
      "Ġincluding": 2732,
      "ĠfranÃ§ais": 2733,
      "Ġexactly": 2734,
      "Ġidi": 2735,
      "Ġmerci": 2736,
      "Ġidea": 2737,
      "Ġconnect": 2738,
      "Ġrespectful": 2739,
      "Ġcouncil": 2740,
      "Ġfunding": 2741,
      "Ġcivilians": 2742,
      "Ġexisting": 2743,
      "viously": 2744,
      "Ġnov": 2745,
      "Ġparents": 2746,
      "Ġmobile": 2747,
      "Ġapproach": 2748,
      "Ġreminder": 2749,
      "Ġinformation": 2750,
      "Ġaucune": 2751,
      "Ġmultiple": 2752,
      "Ġsafety": 2753,
      "Ġlaugh": 2754,
      "Ġhuge": 2755,
      "Ġrules": 2756,
      "Ġchauff": 2757,
      "Ġsinon": 2758,
      "Ġfresh": 2759,
      "Ġbenef": 2760,
      "ĠquÃ©bec": 2761,
      "Ġmostly": 2762,
      "friend": 2763,
      "âĤ¬": 2764,
      "Ġdaily": 2765,
      "Ġniveau": 2766,
      "Ġapparently": 2767,
      "Ġtogether": 2768,
      "ĠfaÃ§on": 2769,
      "59": 2770,
      "86": 2771,
      "92": 2772,
      "bing": 2773,
      "ball": 2774,
      "dh": 2775,
      "don": 2776,
      "der": 2777,
      "fically": 2778,
      "go": 2779,
      "gers": 2780,
      "hib": 2781,
      "habit": 2782,
      "ji": 2783,
      "ling": 2784,
      "mart": 2785,
      "oo": 2786,
      "pli": 2787,
      "pose": 2788,
      "rais": 2789,
      "ton": 2790,
      "uu": 2791,
      "uel": 2792,
      "uite": 2793,
      "ward": 2794,
      "walk": 2795,
      "wise": 2796,
      "wich": 2797,
      "yal": 2798,
      "Ġ@": 2799,
      "Ġill": 2800,
      "Ġother": 2801,
      "Ġodd": 2802,
      "iner": 2803,
      "Ġsnow": 2804,
      "Ġself": 2805,
      "Ġpie": 2806,
      "Ġpets": 2807,
      "onction": 2808,
      "onstr": 2809,
      "erb": 2810,
      "ergy": 2811,
      "ĠtÃ©": 2812,
      "Ġtod": 2813,
      "Ġtub": 2814,
      "Ġtip": 2815,
      "Ġlor": 2816,
      "Ġlate": 2817,
      "Ġlack": 2818,
      "Ġlink": 2819,
      "anche": 2820,
      "Ġmc": 2821,
      "Ġmot": 2822,
      "Ġmag": 2823,
      "Ġmais": 2824,
      "Ġder": 2825,
      "isse": 2826,
      "Ġfant": 2827,
      "Ġfonction": 2828,
      "Ġbal": 2829,
      "Ġbat": 2830,
      "Ġbord": 2831,
      "Ġbille": 2832,
      "Ġbought": 2833,
      "ata": 2834,
      "Ġwide": 2835,
      "ley": 2836,
      "leep": 2837,
      "ority": 2838,
      "Ġgone": 2839,
      "Ġgau": 2840,
      "Ġgame": 2841,
      "Ġnob": 2842,
      "Ã©ro": 2843,
      "Ġha": 2844,
      "Ġhate": 2845,
      "Ġharm": 2846,
      "Ġeuro": 2847,
      "aster": 2848,
      "ush": 2849,
      "Ġvou": 2850,
      "Ġvide": 2851,
      "Ġstar": 2852,
      "Ġstyle": 2853,
      "Ġrare": 2854,
      "Ġrail": 2855,
      "Ġrich": 2856,
      "ides": 2857,
      "iday": 2858,
      "imp": 2859,
      "ived": 2860,
      "ership": 2861,
      "Ġisland": 2862,
      "urday": 2863,
      "antly": 2864,
      "ows": 2865,
      "Ġjap": 2866,
      "Ġjours": 2867,
      "Ġjust": 2868,
      "Ġcham": 2869,
      "Ġcharge": 2870,
      "Ġcomments": 2871,
      "Ġplenty": 2872,
      "Ġquiet": 2873,
      "ament": 2874,
      "Ġalong": 2875,
      "Ġaltern": 2876,
      "Ġparc": 2877,
      "Ġsepar": 2878,
      "endre": 2879,
      "ended": 2880,
      "endent": 2881,
      "iller": 2882,
      "ully": 2883,
      "Ġdoc": 2884,
      "aining": 2885,
      "Ġsuiv": 2886,
      "Ġsuff": 2887,
      "Ġsuck": 2888,
      "ired": 2889,
      "atever": 2890,
      "Ġdeg": 2891,
      "Ġdead": 2892,
      "Ġarm": 2893,
      "Ġargu": 2894,
      "Ġoh": 2895,
      "Ġoct": 2896,
      "Ġang": 2897,
      "Ġ19": 2898,
      "loo": 2899,
      "loir": 2900,
      "Ġuni": 2901,
      "Ġunits": 2902,
      "new": 2903,
      "arth": 2904,
      "Ġcompose": 2905,
      "Ġcompared": 2906,
      "angers": 2907,
      "ability": 2908,
      "Ġclub": 2909,
      "Ġclairement": 2910,
      "iennent": 2911,
      "Ġbeaut": 2912,
      "Ġprefer": 2913,
      "Ġ200": 2914,
      "Ġmanque": 2915,
      "ĠdÃ©m": 2916,
      "Ġ>\"": 2917,
      "icken": 2918,
      "intÃ©r": 2919,
      "Ġspot": 2920,
      "Ġdra": 2921,
      "Ġdram": 2922,
      "Ġseek": 2923,
      "Ġanywhere": 2924,
      "Ġpersonally": 2925,
      "osed": 2926,
      "Ġmetrolinx": 2927,
      "Ġwhatever": 2928,
      "Ġcrit": 2929,
      "Ġcris": 2930,
      "Ġcrazy": 2931,
      "Ġbrit": 2932,
      "Ġphones": 2933,
      "Ġphys": 2934,
      "Ġblame": 2935,
      "Ġchez": 2936,
      "Ġscoot": 2937,
      "ustr": 2938,
      "Ġprobablement": 2939,
      "ogr": 2940,
      "Ġreste": 2941,
      "Ġcanadians": 2942,
      "Ġpassage": 2943,
      "Ġlives": 2944,
      "Ġinstit": 2945,
      "ĠÃ©v": 2946,
      "Ġlooked": 2947,
      "Ġgenerally": 2948,
      "Ġgeneral": 2949,
      "Ġseemed": 2950,
      "Ġexplo": 2951,
      "Ġinsane": 2952,
      "Ġinsurance": 2953,
      "Ġtrava": 2954,
      "Ġtrains": 2955,
      "Ġdesc": 2956,
      "Ġdirection": 2957,
      "Ġlocation": 2958,
      "ization": 2959,
      "Ġupvoting": 2960,
      "Ġdepends": 2961,
      "Ġcommunic": 2962,
      "Ġquelque": 2963,
      "Ġcrois": 2964,
      "Ġsitting": 2965,
      "Ġplein": 2966,
      "Ġcaf": 2967,
      "Ġshops": 2968,
      "Ġmatter": 2969,
      "othes": 2970,
      "Ġpeuvent": 2971,
      "autre": 2972,
      "Ġrelations": 2973,
      "Ġ2016": 2974,
      "Ġneighbor": 2975,
      "Ġcapital": 2976,
      "Ġdownvoting": 2977,
      "Ġexpected": 2978,
      "Ġopened": 2979,
      "Ġsortie": 2980,
      "Ġtaxes": 2981,
      "Ġunderstanding": 2982,
      "ency": 2983,
      "Ġtransportation": 2984,
      "Ġsemble": 2985,
      "Ġsemaine": 2986,
      "Ġmeeting": 2987,
      "Ġclean": 2988,
      "Ġvalue": 2989,
      "Ġruns": 2990,
      "Ġanswer": 2991,
      "Ġroads": 2992,
      "Ġpresent": 2993,
      "Ġenfin": 2994,
      "Ġpanne": 2995,
      "Ġdifficult": 2996,
      "Ġraison": 2997,
      "ification": 2998,
      "Ġanti": 2999,
      "Ġbelieve": 3000,
      "Ġoccasion": 3001,
      "Ġcomplain": 3002,
      "Ġcomplaint": 3003,
      "Ġspecifically": 3004,
      "Ġfloor": 3005,
      "Ġrecently": 3006,
      "Ġwaterloo": 3007,
      "Ġamazon": 3008,
      "Ġamazing": 3009,
      "Ġmoderators": 3010,
      "Ġendroit": 3011,
      "Ġglob": 3012,
      "Ġvarious": 3013,
      "Ġobviously": 3014,
      "Ġheavy": 3015,
      "Ġcustomers": 3016,
      "atives": 3017,
      "Ġsubsid": 3018,
      "Ġclinic": 3019,
      "Ġproducts": 3020,
      "Ġpedestrians": 3021,
      "Ġpsy": 3022,
      "Ġcela": 3023,
      "Ġdessus": 3024,
      "Ġperformed": 3025,
      "Ġprovincial": 3026,
      "Ġblocking": 3027,
      "Ġisrael": 3028,
      "agram": 3029,
      "Ġcoffee": 3030,
      "Ġopinion": 3031,
      "Ġconversation": 3032,
      "Ġgrocery": 3033,
      "ĠsÃ©cur": 3034,
      "Ġconduct": 3035,
      "Ġbegin": 3036,
      "Ġslightly": 3037,
      "Ġotherwise": 3038,
      "Ġtoday": 3039,
      "Ġeurope": 3040,
      "Ġbeautif": 3041,
      "12": 3042,
      "15": 3043,
      "70": 3044,
      "75": 3045,
      "bu": 3046,
      "bed": 3047,
      "cr": 3048,
      "den": 3049,
      "ged": 3050,
      "gue": 3051,
      "ham": 3052,
      "hors": 3053,
      "iÃ©": 3054,
      "iod": 3055,
      "jp": 3056,
      "lin": 3057,
      "nels": 3058,
      "oin": 3059,
      "off": 3060,
      "ores": 3061,
      "oque": 3062,
      "occ": 3063,
      "ober": 3064,
      "pite": 3065,
      "pital": 3066,
      "rim": 3067,
      "rical": 3068,
      "uf": 3069,
      "uine": 3070,
      "vis": 3071,
      "vers": 3072,
      "wn": 3073,
      "yer": 3074,
      "ze": 3075,
      "Ã¢": 3076,
      "Ġille": 3077,
      "Ġult": 3078,
      "Ġonto": 3079,
      "Ġident": 3080,
      "Ġici": 3081,
      "Ġuber": 3082,
      "Ġsel": 3083,
      "Ġsad": 3084,
      "Ġsend": 3085,
      "Ġsick": 3086,
      "Ġpic": 3087,
      "Ġpant": 3088,
      "Ġpain": 3089,
      "Ġpays": 3090,
      "Ġpied": 3091,
      "Ġpuis": 3092,
      "Ġcab": 3093,
      "ony": 3094,
      "eration": 3095,
      "ened": 3096,
      "Ġage": 3097,
      "Ġaverage": 3098,
      "Ġtun": 3099,
      "Ġtant": 3100,
      "esome": 3101,
      "Ġlad": 3102,
      "Ġlunch": 3103,
      "ounc": 3104,
      "Ġmur": 3105,
      "Ġmand": 3106,
      "Ġmine": 3107,
      "Ġmins": 3108,
      "Ġmich": 3109,
      "Ġded": 3110,
      "Ġdet": 3111,
      "Ġdiv": 3112,
      "Ġdated": 3113,
      "Ġdame": 3114,
      "Ġdern": 3115,
      "Ġdark": 3116,
      "Ġdata": 3117,
      "inger": 3118,
      "itive": 3119,
      "isation": 3120,
      "Ġfal": 3121,
      "Ġfab": 3122,
      "Ġfully": 3123,
      "Ġfinger": 3124,
      "aris": 3125,
      "arily": 3126,
      "aling": 3127,
      "Ġby": 3128,
      "Ġber": 3129,
      "Ġbir": 3130,
      "Ġband": 3131,
      "Ġbread": 3132,
      "Ġbunch": 3133,
      "Ġbody": 3134,
      "atis": 3135,
      "Ġwed": 3136,
      "Ġwall": 3137,
      "ories": 3138,
      "edule": 3139,
      "Ġgaz": 3140,
      "Ġgames": 3141,
      "Ġni": 3142,
      "Ġnav": 3143,
      "Ã©li": 3144,
      "Ġhi": 3145,
      "Ġhy": 3146,
      "Ġhere": 3147,
      "Ġhind": 3148,
      "Ġhos": 3149,
      "Ġhost": 3150,
      "icule": 3151,
      "Ġren": 3152,
      "Ġrele": 3153,
      "Ġrese": 3154,
      "Ġrepe": 3155,
      "omm": 3156,
      "Ġeiff": 3157,
      "ilot": 3158,
      "road": 3159,
      "usting": 3160,
      "acity": 3161,
      "Ġvert": 3162,
      "Ġvia": 3163,
      "Ġste": 3164,
      "Ġstruct": 3165,
      "Ġrate": 3166,
      "ĠrÃ¨": 3167,
      "Ġrace": 3168,
      "Ġround": 3169,
      "Ġride": 3170,
      "Ġrub": 3171,
      "Ġrange": 3172,
      "Ġroute": 3173,
      "ider": 3174,
      "iding": 3175,
      "imier": 3176,
      "emble": 3177,
      "unk": 3178,
      "unt": 3179,
      "Ġthinking": 3180,
      "estion": 3181,
      "onton": 3182,
      "Ġtrip": 3183,
      "ower": 3184,
      "Ġchur": 3185,
      "Ġchos": 3186,
      "Ġchances": 3187,
      "Ġchicken": 3188,
      "Ġcomfort": 3189,
      "Ġplac": 3190,
      "Ġplans": 3191,
      "verty": 3192,
      "Ġparle": 3193,
      "Ġpropos": 3194,
      "Ġseul": 3195,
      "Ġseine": 3196,
      "illor": 3197,
      "ands": 3198,
      "Ġdoz": 3199,
      "Ġcondit": 3200,
      "Ġsucc": 3201,
      "Ġitem": 3202,
      "ief": 3203,
      "Ġdeath": 3204,
      "Ġdehors": 3205,
      "ode": 3206,
      "Ġ23": 3207,
      "rib": 3208,
      "Ã¨ne": 3209,
      "Ġarbres": 3210,
      "Ġoil": 3211,
      "Ġobs": 3212,
      "Ġobl": 3213,
      "Ġknew": 3214,
      "aud": 3215,
      "Ġuns": 3216,
      "Ġunit": 3217,
      "Ġunion": 3218,
      "Ġunique": 3219,
      "Ġunlike": 3220,
      "Ġpoverty": 3221,
      "Ġpract": 3222,
      "Ġenergy": 3223,
      "Ġleaving": 3224,
      "astic": 3225,
      "areil": 3226,
      "Ġtaken": 3227,
      "elling": 3228,
      "abite": 3229,
      "Ġbugs": 3230,
      "ording": 3231,
      "Ġapply": 3232,
      "Ġclothes": 3233,
      "Ġbecome": 3234,
      "olding": 3235,
      "Ġcontr": 3236,
      "action": 3237,
      "ĠdÃ©s": 3238,
      "inton": 3239,
      "Ġpartir": 3240,
      "Ġsport": 3241,
      "Ġspaces": 3242,
      "Ġspending": 3243,
      "Ġperiod": 3244,
      "Ġheating": 3245,
      "Ġseeing": 3246,
      "Ġworkers": 3247,
      "Ġroyal": 3248,
      "Ġneeded": 3249,
      "ished": 3250,
      "ife": 3251,
      "ifs": 3252,
      "ify": 3253,
      "Ġspeed": 3254,
      "Ġwho": 3255,
      "Ġcra": 3256,
      "Ġbring": 3257,
      "Ġnews": 3258,
      "Ġautour": 3259,
      "Ġtoile": 3260,
      "Ġagre": 3261,
      "Ġtoute": 3262,
      "fficient": 3263,
      "Ġblue": 3264,
      "ption": 3265,
      "Ġlongue": 3266,
      "elled": 3267,
      "ancy": 3268,
      "Ġaccount": 3269,
      "Ġaccording": 3270,
      "what": 3271,
      "Ġapolog": 3272,
      "Ġchanges": 3273,
      "glinton": 3274,
      "Ġemot": 3275,
      "Ġtouristes": 3276,
      "Ġveut": 3277,
      "Ġprovide": 3278,
      "Ġpoints": 3279,
      "Ġteach": 3280,
      "Ġgenuine": 3281,
      "Ġsmart": 3282,
      "Ġassum": 3283,
      "Ġtravers": 3284,
      "Ġarrive": 3285,
      "Ġdespite": 3286,
      "Ġproperties": 3287,
      "Ġconcert": 3288,
      "Ġindep": 3289,
      "Ġlocated": 3290,
      "Ġmonday": 3291,
      "Ġcolle": 3292,
      "Ġsecret": 3293,
      "Ġposts": 3294,
      "duce": 3295,
      "Ġsupposed": 3296,
      "Ġcash": 3297,
      "Ġcasque": 3298,
      "Ġreform": 3299,
      "Ġrefuse": 3300,
      "Ġdemonstr": 3301,
      "ials": 3302,
      "Ġsignific": 3303,
      "Ġterrible": 3304,
      "Ġviens": 3305,
      "Ġmedical": 3306,
      "Ġnearly": 3307,
      "Ġesp": 3308,
      "Ġprivacy": 3309,
      "Ġadvantage": 3310,
      "Ġgrow": 3311,
      "Ġrelig": 3312,
      "Ġ2018": 3313,
      "Ġpermet": 3314,
      "Ġpermiss": 3315,
      "Ġpermett": 3316,
      "Ġneighbours": 3317,
      "Ġpetits": 3318,
      "Ġ80": 3319,
      "Ġslim": 3320,
      "Ġvoiture": 3321,
      "Ġdevant": 3322,
      "Ġreturn": 3323,
      "Ġvieux": 3324,
      "Ġtransports": 3325,
      "ĠsystÃ¨me": 3326,
      "phone": 3327,
      "phones": 3328,
      "Ġeduc": 3329,
      "Ġcreate": 3330,
      "Ġnumbers": 3331,
      "Ġannoy": 3332,
      "ĠannÃ©es": 3333,
      "Ġcyclable": 3334,
      "Ġcyclists": 3335,
      "Ġbroken": 3336,
      "Ġrecommand": 3337,
      "Ġbank": 3338,
      "Ġchoice": 3339,
      "Ġincreases": 3340,
      "Ġcommentaires": 3341,
      "Ġbuddh": 3342,
      "paris": 3343,
      "Ġowner": 3344,
      "Ġgardens": 3345,
      "Ġapartments": 3346,
      "Ġincluded": 3347,
      "Ġmanaged": 3348,
      "Ġsavoir": 3349,
      "Ġbusinesses": 3350,
      "Ġinvestigation": 3351,
      "Ġofficers": 3352,
      "Ġpurch": 3353,
      "Ġformul": 3354,
      "Ġgirlfriend": 3355,
      "Ġreading": 3356,
      "Ġprojects": 3357,
      "Ġmajority": 3358,
      "Ġbehavior": 3359,
      "Ġmembers": 3360,
      "Ġparticul": 3361,
      "Ġendroits": 3362,
      "Ġaffordable": 3363,
      "Ġpalestin": 3364,
      "Ġdrugs": 3365,
      "Ġsurprised": 3366,
      "ĠÃ©tud": 3367,
      "Ġsaturday": 3368,
      "Ġtotally": 3369,
      "Ġburger": 3370,
      "Ġnoise": 3371,
      "Ġrequest": 3372,
      "Ġpremier": 3373,
      "Ġvehicles": 3374,
      "Ġemploye": 3375,
      "Ġwonder": 3376,
      "Ġgangs": 3377,
      "Ġnetwork": 3378,
      "Ġthanks": 3379,
      "Ġjudge": 3380,
      "Ġprotect": 3381,
      "Ġeffective": 3382,
      "ĠpiÃ©tons": 3383,
      "couk": 3384,
      "ield": 3385,
      "Ġsauf": 3386,
      "Ġcarte": 3387,
      "Ġcourses": 3388,
      "Ġfavour": 3389,
      "Ġcompagnie": 3390,
      "Ġgroupe": 3391,
      "Ġsympa": 3392,
      "Ġfacilities": 3393,
      "Ġbanlieue": 3394,
      "Ġsuspension": 3395,
      "Ġunfortunately": 3396,
      "Ġessentially": 3397,
      "Ġignore": 3398,
      "Ġvrai": 3399,
      "Ġromant": 3400,
      "Ġupset": 3401,
      "Ġimmediately": 3402,
      "Ġchauffage": 3403,
      "Ġbenefit": 3404,
      "Ġlorimier": 3405,
      "ĠderriÃ¨re": 3406,
      "Ġfantastic": 3407,
      "Ġgauche": 3408,
      "Ġnobody": 3409,
      "Ġjapon": 3410,
      "Ġalternative": 3411,
      "Ġbritish": 3412,
      "ograph": 3413,
      "Ġrelationship": 3414,
      "Ġneighborhood": 3415,
      "Ġbeautiful": 3416,
      "Ġbirth": 3417,
      "Ġnavig": 3418,
      "Ġhospital": 3419,
      "Ġresearch": 3420,
      "Ġeiffel": 3421,
      "Ġconditions": 3422,
      "Ġsuccess": 3423,
      "22": 3424,
      "38": 3425,
      "61": 3426,
      "62": 3427,
      "81": 3428,
      "95": 3429,
      "aj": 3430,
      "bon": 3431,
      "bour": 3432,
      "bage": 3433,
      "body": 3434,
      "cent": 3435,
      "dr": 3436,
      "dy": 3437,
      "down": 3438,
      "dibly": 3439,
      "ef": 3440,
      "eau": 3441,
      "fa": 3442,
      "face": 3443,
      "gues": 3444,
      "hc": 3445,
      "hs": 3446,
      "here": 3447,
      "iant": 3448,
      "ium": 3449,
      "ios": 3450,
      "je": 3451,
      "la": 3452,
      "ls": 3453,
      "light": 3454,
      "mond": 3455,
      "na": 3456,
      "nb": 3457,
      "ns": 3458,
      "nÃ©": 3459,
      "net": 3460,
      "ners": 3461,
      "nÃ©e": 3462,
      "nnent": 3463,
      "oe": 3464,
      "pro": 3465,
      "rs": 3466,
      "ring": 3467,
      "ris": 3468,
      "rict": 3469,
      "tr": 3470,
      "tu": 3471,
      "tor": 3472,
      "uent": 3473,
      "uly": 3474,
      "uellement": 3475,
      "wor": 3476,
      "wards": 3477,
      "xus": 3478,
      "yo": 3479,
      "yond": 3480,
      "Ġx": 3481,
      "Ġking": 3482,
      "ino": 3483,
      "ining": 3484,
      "ination": 3485,
      "inte": 3486,
      "rement": 3487,
      "Ġsn": 3488,
      "Ġsac": 3489,
      "Ġsant": 3490,
      "Ġsand": 3491,
      "Ġsave": 3492,
      "Ġslow": 3493,
      "Ġsdf": 3494,
      "Ġsleep": 3495,
      "Ġpu": 3496,
      "Ġpous": 3497,
      "Ġpage": 3498,
      "Ġpai": 3499,
      "Ġpiste": 3500,
      "Ġpilot": 3501,
      "Ġpower": 3502,
      "Ġcin": 3503,
      "Ġcatch": 3504,
      "Ġtag": 3505,
      "Ġtill": 3506,
      "Ġtard": 3507,
      "Ġtours": 3508,
      "Ġtoll": 3509,
      "ĠlÃ¨": 3510,
      "Ġlau": 3511,
      "Ġlux": 3512,
      "Ġlors": 3513,
      "Ġlanes": 3514,
      "oub": 3515,
      "Ġmad": 3516,
      "Ġdoug": 3517,
      "ises": 3518,
      "ising": 3519,
      "ision": 3520,
      "Ġfan": 3521,
      "Ġfill": 3522,
      "Ġfout": 3523,
      "Ġfive": 3524,
      "Ġfans": 3525,
      "Ġfell": 3526,
      "Ġfile": 3527,
      "Ġfoc": 3528,
      "Ġferm": 3529,
      "arter": 3530,
      "alled": 3531,
      "Ġbic": 3532,
      "Ġbell": 3533,
      "Ġboug": 3534,
      "ĠbÃ©n": 3535,
      "atique": 3536,
      "Ġways": 3537,
      "Ġwarm": 3538,
      "Ġwearing": 3539,
      "lement": 3540,
      "lebr": 3541,
      "Ġgave": 3542,
      "Ġgta": 3543,
      "Ġgym": 3544,
      "Ġnational": 3545,
      "Ã©ri": 3546,
      "Ġhar": 3547,
      "Ġhinge": 3548,
      "ette": 3549,
      "Ġrelev": 3550,
      "Ġreduce": 3551,
      "omb": 3552,
      "Ġeat": 3553,
      "ilitÃ©": 3554,
      "ional": 3555,
      "asing": 3556,
      "aching": 3557,
      "quer": 3558,
      "quelle": 3559,
      "quoi": 3560,
      "Ġvir": 3561,
      "Ġvais": 3562,
      "Ġvoy": 3563,
      "Ġvirt": 3564,
      "eline": 3565,
      "Ġstru": 3566,
      "Ġstock": 3567,
      "idence": 3568,
      "ims": 3569,
      "ivid": 3570,
      "emment": 3571,
      "empt": 3572,
      "Ġther": 3573,
      "Ġinqu": 3574,
      "chement": 3575,
      "stairs": 3576,
      "ester": 3577,
      "urity": 3578,
      "Ġtram": 3579,
      "Ġtrash": 3580,
      "uter": 3581,
      "utions": 3582,
      "agon": 3583,
      "agit": 3584,
      "agers": 3585,
      "Ġchin": 3586,
      "Ġcomb": 3587,
      "Ġplain": 3588,
      "Ġplate": 3589,
      "Ġquoi": 3590,
      "Ġalth": 3591,
      "Ġprocess": 3592,
      "Ġproof": 3593,
      "Ġseason": 3594,
      "Ġsearch": 3595,
      "Ġneg": 3596,
      "illÃ©": 3597,
      "illiers": 3598,
      "pped": 3599,
      "Ġdois": 3600,
      "Ġcond": 3601,
      "htm": 3602,
      "Ġsuite": 3603,
      "Ġsujet": 3604,
      "ires": 3605,
      "ister": 3606,
      "Ġexists": 3607,
      "Ġie": 3608,
      "Ġlos": 3609,
      "Ġlock": 3610,
      "Ġloved": 3611,
      "Ġlobl": 3612,
      "Ġloyer": 3613,
      "ieur": 3614,
      "ateg": 3615,
      "ateurs": 3616,
      "rique": 3617,
      "Ġamb": 3618,
      "Ġarch": 3619,
      "Ġshe": 3620,
      "Ġshare": 3621,
      "Ġshore": 3622,
      "Ġshock": 3623,
      "Ġ16": 3624,
      "aise": 3625,
      "Ġunp": 3626,
      "Ġunif": 3627,
      "ney": 3628,
      "Ġprot": 3629,
      "Ġlev": 3630,
      "Ġlease": 3631,
      "Ġlegal": 3632,
      "arer": 3633,
      "Ġcompet": 3634,
      "Ġcompli": 3635,
      "Ġuses": 3636,
      "Ġuseless": 3637,
      "Ġtap": 3638,
      "Ġtable": 3639,
      "Ġmair": 3640,
      "Ġtimeline": 3641,
      "Ġimme": 3642,
      "Ġcanc": 3643,
      "Ġclim": 3644,
      "Ġclich": 3645,
      "ienc": 3646,
      "Ġbecom": 3647,
      "Ġbeyond": 3648,
      "Ġprevious": 3649,
      "Ġprends": 3650,
      "Ġprennent": 3651,
      "Ġmeal": 3652,
      "ums": 3653,
      "ĠdÃ©but": 3654,
      "Ġsaw": 3655,
      "onge": 3656,
      "icks": 3657,
      "Ġgrat": 3658,
      "Ġgrav": 3659,
      "Ġparty": 3660,
      "appoint": 3661,
      "Ġoper": 3662,
      "Ġopport": 3663,
      "Ġspots": 3664,
      "Ġdrunk": 3665,
      "Ġperha": 3666,
      "Ġfrequent": 3667,
      "Ġheures": 3668,
      "Ġfriday": 3669,
      "0000": 3670,
      "Ã©tÃ©": 3671,
      "Ã©tais": 3672,
      "Ġasian": 3673,
      "Ġasyl": 3674,
      "Ġincident": 3675,
      "Ġrock": 3676,
      "ified": 3677,
      "Ġresident": 3678,
      "Ġmetal": 3679,
      "that": 3680,
      "Ġwhat": 3681,
      "Ġwhere": 3682,
      "Ġfee": 3683,
      "Ġcommon": 3684,
      "Ġcommence": 3685,
      "Ġcommenc": 3686,
      "Ġactiv": 3687,
      "ervative": 3688,
      "ervilliers": 3689,
      "Ġpharm": 3690,
      "ĠrÃ©p": 3691,
      "ĠrÃ©nov": 3692,
      "lication": 3693,
      "Ġsomewhere": 3694,
      "Ġtoutes": 3695,
      "Ġdisg": 3696,
      "Ġbuses": 3697,
      "Ġremain": 3698,
      "Ġtheatre": 3699,
      "Ġblind": 3700,
      "Ġpolite": 3701,
      "Ġmark": 3702,
      "Ġmarche": 3703,
      "Ġthinks": 3704,
      "Ġscene": 3705,
      "Ġfake": 3706,
      "Ġintro": 3707,
      "Ġinfest": 3708,
      "Ġtwitter": 3709,
      "Ġresto": 3710,
      "Ġsubject": 3711,
      "Ġpayer": 3712,
      "ache": 3713,
      "Ġaccent": 3714,
      "Ġfamili": 3715,
      "Ġgrew": 3716,
      "ĠpassÃ©": 3717,
      "Ġstarting": 3718,
      "Ġchanger": 3719,
      "Ġfinit": 3720,
      "Ġempt": 3721,
      "Ġemail": 3722,
      "Ġconservative": 3723,
      "Ġschedule": 3724,
      "Ġtourner": 3725,
      "ĠÃ©c": 3726,
      "ĠÃ©lect": 3727,
      "Ġbonjour": 3728,
      "Ġteam": 3729,
      "Ġbasics": 3730,
      "Ġinterr": 3731,
      "Ġsmell": 3732,
      "Ġinsist": 3733,
      "Ġattack": 3734,
      "Ġlandmar": 3735,
      "Ġflag": 3736,
      "Ġfunction": 3737,
      "Ġvisa": 3738,
      "ĠarrÃªt": 3739,
      "Ġincredibly": 3740,
      "Ġminimum": 3741,
      "Ġdesper": 3742,
      "Ġrecycl": 3743,
      "Ġproperly": 3744,
      "Ġindo": 3745,
      "Ġindian": 3746,
      "Ġlocations": 3747,
      "Ġcommunities": 3748,
      "Ġlake": 3749,
      "Ġlaund": 3750,
      "Ġlaunch": 3751,
      "Ġlaquelle": 3752,
      "Ġsecurity": 3753,
      "Ġputting": 3754,
      "iche": 3755,
      "Ġfeeling": 3756,
      "Ġdecent": 3757,
      "Ġdecades": 3758,
      "place": 3759,
      "Ġsigns": 3760,
      "Ġstudent": 3761,
      "Ġshopping": 3762,
      "Ġhighly": 3763,
      "Ġhonn": 3764,
      "Ġshowing": 3765,
      "Ġconvention": 3766,
      "Ġcompleted": 3767,
      "Ġ70": 3768,
      "atively": 3769,
      "autres": 3770,
      "Ġ90": 3771,
      "Ġbref": 3772,
      "Ġjusqu": 3773,
      "Ġgrands": 3774,
      "Ġstrong": 3775,
      "Ġtrajet": 3776,
      "Ġlearning": 3777,
      "Ġsortir": 3778,
      "Ã©nag": 3779,
      "Ġrevie": 3780,
      "Ġvoice": 3781,
      "Ġ2021": 3782,
      "Ġ2022": 3783,
      "Ġlangue": 3784,
      "Ġforward": 3785,
      "Ġretour": 3786,
      "Ġouvert": 3787,
      "Ġbedroom": 3788,
      "Ġsolve": 3789,
      "Ġmillions": 3790,
      "ĠannÃ©e": 3791,
      "Ġannounc": 3792,
      "Ġvisiter": 3793,
      "Ġawesome": 3794,
      "arrÃªte": 3795,
      "Ġhopefully": 3796,
      "Ġvalu": 3797,
      "ĠqualitÃ©": 3798,
      "Ġconflic": 3799,
      "Ġinternet": 3800,
      "Ġfacile": 3801,
      "Ġautomobil": 3802,
      "Ġconcerned": 3803,
      "Ġcelebr": 3804,
      "Ġfemmes": 3805,
      "Ġchoose": 3806,
      "Ġqueue": 3807,
      "Ġadded": 3808,
      "Ġcops": 3809,
      "Ġcultural": 3810,
      "Ġlucky": 3811,
      "Ġowned": 3812,
      "Ġowners": 3813,
      "Ġdoub": 3814,
      "Ġgarden": 3815,
      "Ġprofession": 3816,
      "Ġproduce": 3817,
      "Ġrespond": 3818,
      "Ġpatients": 3819,
      "Ġcamer": 3820,
      "Ġjoke": 3821,
      "Ġmanager": 3822,
      "Ġtreat": 3823,
      "Ġhotels": 3824,
      "Ġraised": 3825,
      "Ġencount": 3826,
      "Ġsalaire": 3827,
      "Ġpotent": 3828,
      "Ġdroite": 3829,
      "Ġallowed": 3830,
      "Ġoccup": 3831,
      "Ġpurpose": 3832,
      "Ġmilk": 3833,
      "Ġrendez": 3834,
      "Ġconnection": 3835,
      "Ġcouncillor": 3836,
      "Ġtechno": 3837,
      "Ġbehaviour": 3838,
      "Ġcivilian": 3839,
      "espÃ¨re": 3840,
      "Ġplaying": 3841,
      "Ġdealing": 3842,
      "Ġerror": 3843,
      "Ġvillage": 3844,
      "Ġrisk": 3845,
      "Ġseulement": 3846,
      "Ġengag": 3847,
      "Ġparticular": 3848,
      "Ġpersonality": 3849,
      "Ġpolitic": 3850,
      "Ġpolitical": 3851,
      "Ġcrossing": 3852,
      "heure": 3853,
      "ipped": 3854,
      "paign": 3855,
      "Ġmassive": 3856,
      "ivalent": 3857,
      "Ġregularly": 3858,
      "placement": 3859,
      "Ġorganization": 3860,
      "Ġensuite": 3861,
      "Ġdenis": 3862,
      "Ġbabies": 3863,
      "Ġhuman": 3864,
      "Ġposition": 3865,
      "Ġapplied": 3866,
      "Ġsociety": 3867,
      "Ġvehicle": 3868,
      "Ġattractive": 3869,
      "Ġviolence": 3870,
      "Ġafter": 3871,
      "Ã©poque": 3872,
      "Ġuniversity": 3873,
      "Ġcomprends": 3874,
      "Ġmoyen": 3875,
      "Ġmoyens": 3876,
      "Ġsweat": 3877,
      "Ġawareness": 3878,
      "Ġsentence": 3879,
      "Ġcirc": 3880,
      "Ġtracks": 3881,
      "Ġpossibly": 3882,
      "ĠdÃ©fense": 3883,
      "Ġremove": 3884,
      "Ġpolicies": 3885,
      "Ġinflation": 3886,
      "Ġfinancial": 3887,
      "Ġrecords": 3888,
      "Ġmaintenance": 3889,
      "ĠrÃ©guliÃ¨rement": 3890,
      "view": 3891,
      "Ġutilis": 3892,
      "Ġtokyo": 3893,
      "Ġbesoin": 3894,
      "Ġboring": 3895,
      "Ġradio": 3896,
      "Ġrapport": 3897,
      "Ġthreat": 3898,
      "Ġappartement": 3899,
      "Ġidiots": 3900,
      "Ġnovember": 3901,
      "ĠtÃ©lÃ©": 3902,
      "Ġdocument": 3903,
      "Ġsucks": 3904,
      "Ġoctober": 3905,
      "Ġcrisis": 3906,
      "Ġscooter": 3907,
      "Ġinstitutions": 3908,
      "ĠsÃ©curitÃ©": 3909,
      "jpg": 3910,
      "Ġmandatory": 3911,
      "Ġdetail": 3912,
      "Ġrelease": 3913,
      "Ġrepeat": 3914,
      "Ġchoses": 3915,
      "Ġpermission": 3916,
      "Ġpurchase": 3917,
      "Ġformula": 3918,
      "Ġromantic": 3919,
      "works": 3920,
      "ĠsantÃ©": 3921,
      "Ġsandwich": 3922,
      "Ġalthough": 3923,
      "Ġloblaws": 3924,
      "Ġuniform": 3925,
      "Ġopportun": 3926,
      "Ġperhaps": 3927,
      "Ġfamiliar": 3928,
      "ĠÃ©lectrique": 3929,
      "Ġlandmarks": 3930,
      "07": 3931,
      "11": 3932,
      "14": 3933,
      "29": 3934,
      "35": 3935,
      "41": 3936,
      "54": 3937,
      "73": 3938,
      "ause": 3939,
      "bor": 3940,
      "bish": 3941,
      "belt": 3942,
      "car": 3943,
      "city": 3944,
      "cool": 3945,
      "ds": 3946,
      "dain": 3947,
      "duc": 3948,
      "dep": 3949,
      "ev": 3950,
      "eed": 3951,
      "eux": 3952,
      "fm": 3953,
      "fu": 3954,
      "free": 3955,
      "fair": 3956,
      "gress": 3957,
      "hi": 3958,
      "hem": 3959,
      "hority": 3960,
      "habite": 3961,
      "ias": 3962,
      "ipe": 3963,
      "iance": 3964,
      "iety": 3965,
      "jets": 3966,
      "ky": 3967,
      "kly": 3968,
      "lies": 3969,
      "my": 3970,
      "man": 3971,
      "med": 3972,
      "nal": 3973,
      "nic": 3974,
      "night": 3975,
      "nger": 3976,
      "pÃ©r": 3977,
      "ras": 3978,
      "rir": 3979,
      "rain": 3980,
      "round": 3981,
      "rick": 3982,
      "sÃ©": 3983,
      "sight": 3984,
      "tb": 3985,
      "ten": 3986,
      "ters": 3987,
      "ui": 3988,
      "uct": 3989,
      "uble": 3990,
      "vp": 3991,
      "vere": 3992,
      "ville": 3993,
      "wear": 3994,
      "wik": 3995,
      "xe": 3996,
      "xious": 3997,
      "Ġq": 3998,
      "rete": 3999,
      "Ġson": 4000,
      "Ġsil": 4001,
      "Ġsun": 4002,
      "Ġsale": 4003,
      "Ġpin": 4004,
      "Ġpen": 4005,
      "Ġpont": 4006,
      "Ġpill": 4007,
      "ĠpÃ¨re": 4008,
      "Ġpistes": 4009,
      "Ġpush": 4010,
      "Ġpareil": 4011,
      "Ġcat": 4012,
      "Ġcow": 4013,
      "Ġcad": 4014,
      "Ġcast": 4015,
      "Ġcather": 4016,
      "Ġcycle": 4017,
      "Ġcaught": 4018,
      "Ġcateg": 4019,
      "erve": 4020,
      "Ġaub": 4021,
      "Ġauber": 4022,
      "Ġtv": 4023,
      "Ġtan": 4024,
      "Ġtit": 4025,
      "Ġtent": 4026,
      "Ġtest": 4027,
      "Ġtast": 4028,
      "Ġtarg": 4029,
      "Ġlay": 4030,
      "Ġlol": 4031,
      "Ġlists": 4032,
      "Ġlately": 4033,
      "oul": 4034,
      "ano": 4035,
      "any": 4036,
      "anish": 4037,
      "annel": 4038,
      "Ġmi": 4039,
      "Ġmor": 4040,
      "Ġmach": 4041,
      "Ġmath": 4042,
      "Ġdin": 4043,
      "Ġdut": 4044,
      "Ġdir": 4045,
      "Ġdish": 4046,
      "Ġdrop": 4047,
      "Ġdoute": 4048,
      "Ġdude": 4049,
      "ites": 4050,
      "iting": 4051,
      "itness": 4052,
      "isf": 4053,
      "Ġfi": 4054,
      "Ġfest": 4055,
      "Ġfield": 4056,
      "Ġfiche": 4057,
      "arante": 4058,
      "arrow": 4059,
      "Ġbour": 4060,
      "Ġbak": 4061,
      "Ġbaiss": 4062,
      "Ġbott": 4063,
      "atic": 4064,
      "Ġwel": 4065,
      "Ġwish": 4066,
      "Ġwild": 4067,
      "Ġwik": 4068,
      "Ġwife": 4069,
      "Ġwitness": 4070,
      "edia": 4071,
      "Ġge": 4072,
      "Ġgh": 4073,
      "Ġgent": 4074,
      "Ġgun": 4075,
      "Ġgold": 4076,
      "Ġgagn": 4077,
      "Ġgerm": 4078,
      "Ġgestion": 4079,
      "Ġnat": 4080,
      "Ġnow": 4081,
      "Ġnone": 4082,
      "Ġnature": 4083,
      "Ġnuit": 4084,
      "Ġnarrow": 4085,
      "entry": 4086,
      "Ã©m": 4087,
      "Ã©qu": 4088,
      "Ã©ment": 4089,
      "Ġhol": 4090,
      "Ġhad": 4091,
      "Ġhub": 4092,
      "Ġhole": 4093,
      "ication": 4094,
      "icul": 4095,
      "eth": 4096,
      "eting": 4097,
      "oti": 4098,
      "othing": 4099,
      "Ġress": 4100,
      "Ġreli": 4101,
      "Ġey": 4102,
      "Ġelection": 4103,
      "Ġearth": 4104,
      "Ġeglinton": 4105,
      "iles": 4106,
      "ilies": 4107,
      "rob": 4108,
      "roy": 4109,
      "uses": 4110,
      "using": 4111,
      "acc": 4112,
      "acle": 4113,
      "acitÃ©": 4114,
      "Ġvol": 4115,
      "Ġvite": 4116,
      "Ġvue": 4117,
      "Ġvote": 4118,
      "Ġviennent": 4119,
      "Ġstere": 4120,
      "Ġstate": 4121,
      "Ġstick": 4122,
      "Ġstates": 4123,
      "Ġstores": 4124,
      "Ġrou": 4125,
      "Ġrain": 4126,
      "Ġrice": 4127,
      "Ġrough": 4128,
      "Ġrach": 4129,
      "imag": 4130,
      "ives": 4131,
      "iger": 4132,
      "igible": 4133,
      "ols": 4134,
      "olÃ©": 4135,
      "eme": 4136,
      "unes": 4137,
      "unic": 4138,
      "Ġthrow": 4139,
      "Ġinit": 4140,
      "ster": 4141,
      "ests": 4142,
      "urt": 4143,
      "Ġtri": 4144,
      "Ġtrig": 4145,
      "Ġtrust": 4146,
      "Ġtruck": 4147,
      "Ġtrouv": 4148,
      "ado": 4149,
      "Ġjul": 4150,
      "Ġjum": 4151,
      "Ġjaz": 4152,
      "Ġjump": 4153,
      "Ġchap": 4154,
      "Ġchains": 4155,
      "Ġplant": 4156,
      "Ġquelle": 4157,
      "Ġquatre": 4158,
      "amp": 4159,
      "ams": 4160,
      "amas": 4161,
      "Ġpeak": 4162,
      "Ġalle": 4163,
      "Ġalot": 4164,
      "Ġalber": 4165,
      "Ġalright": 4166,
      "Ġyonge": 4167,
      "Ġparks": 4168,
      "Ġproc": 4169,
      "Ġprojet": 4170,
      "Ġsept": 4171,
      "Ġsevere": 4172,
      "endu": 4173,
      "avait": 4174,
      "pping": 4175,
      "ulo": 4176,
      "ulent": 4177,
      "ulting": 4178,
      "ourage": 4179,
      "ffet": 4180,
      "Ġconcl": 4181,
      "Ġcondition": 4182,
      "Ġcondo": 4183,
      "Ġlif": 4184,
      "Ġliked": 4185,
      "istr": 4186,
      "istry": 4187,
      "Ġexcl": 4188,
      "Ġexhib": 4189,
      "Ġital": 4190,
      "Ġlost": 4191,
      "Ġlose": 4192,
      "ieu": 4193,
      "iez": 4194,
      "ateur": 4195,
      "ategy": 4196,
      "peau": 4197,
      "Ġ22": 4198,
      "rix": 4199,
      "riquÃ©": 4200,
      "Ġamong": 4201,
      "Ġargue": 4202,
      "ondiss": 4203,
      "resp": 4204,
      "resent": 4205,
      "resse": 4206,
      "Ġore": 4207,
      "Ġangl": 4208,
      "Ġkill": 4209,
      "Ġkitch": 4210,
      "ously": 4211,
      "loc": 4212,
      "load": 4213,
      "cience": 4214,
      "Ġpool": 4215,
      "Ġpointe": 4216,
      "Ġleurs": 4217,
      "Ġlexus": 4218,
      "Ġcomparis": 4219,
      "Ġusual": 4220,
      "ured": 4221,
      "Ġmoss": 4222,
      "ĠÃ¢": 4223,
      "abl": 4224,
      "apers": 4225,
      "Ġimple": 4226,
      "ttu": 4227,
      "ttes": 4228,
      "order": 4229,
      "Ġappear": 4230,
      "Ġclar": 4231,
      "Ġclothing": 4232,
      "Ġbeef": 4233,
      "Ġweight": 4234,
      "Ġcontam": 4235,
      "Ġcontrib": 4236,
      "alles": 4237,
      "Ġmeas": 4238,
      "Ġmeals": 4239,
      "perature": 4240,
      "umed": 4241,
      "ĠdÃ©b": 4242,
      "ĠdÃ©cl": 4243,
      "Ġcook": 4244,
      "Ġcoverage": 4245,
      "Ġeveryday": 4246,
      "ongs": 4247,
      "Ġparties": 4248,
      "appelle": 4249,
      "Ġoppos": 4250,
      "Ġspa": 4251,
      "Ġspare": 4252,
      "Ġdrinking": 4253,
      "igned": 4254,
      "Ġyounger": 4255,
      "cca": 4256,
      "ored": 4257,
      "Ġaside": 4258,
      "Ġknows": 4259,
      "Ġknowing": 4260,
      "Ġincor": 4261,
      "Ġrose": 4262,
      "ĠsiÃ¨": 4263,
      "Ġsize": 4264,
      "Ġresult": 4265,
      "Ġmett": 4266,
      "Ġmeter": 4267,
      "Ġavis": 4268,
      "Ġavenue": 4269,
      "Ġwhene": 4270,
      "Ġwilling": 4271,
      "Ġcru": 4272,
      "Ġcrime": 4273,
      "Ġcoup": 4274,
      "Ġbran": 4275,
      "Ġphd": 4276,
      "Ġends": 4277,
      "Ġauto": 4278,
      "Ġauthority": 4279,
      "Ġtoy": 4280,
      "ĠrÃ©f": 4281,
      "ultural": 4282,
      "Ġsomehow": 4283,
      "ĠagrÃ©": 4284,
      "Ġdisp": 4285,
      "Ġremar": 4286,
      "Ġtoronton": 4287,
      "iblement": 4288,
      "Ġdiapers": 4289,
      "Ġrentre": 4290,
      "Ġrenting": 4291,
      "Ġrented": 4292,
      "Ġrenters": 4293,
      "Ġrentrer": 4294,
      "Ġpubli": 4295,
      "Ġguarante": 4296,
      "Ġregul": 4297,
      "Ġweekend": 4298,
      "Ġentert": 4299,
      "Ġeth": 4300,
      "Ġtransform": 4301,
      "Ġtransfer": 4302,
      "Ãªter": 4303,
      "Ġtwice": 4304,
      "inson": 4305,
      "Ġrestos": 4306,
      "ancÃ©": 4307,
      "Ġboat": 4308,
      "Ġboard": 4309,
      "Ġboost": 4310,
      "Ġboots": 4311,
      "Ġgotten": 4312,
      "acheter": 4313,
      "clin": 4314,
      "ipedia": 4315,
      "Ġaccomm": 4316,
      "Ġfamille": 4317,
      "Ã©ric": 4318,
      "Ġcentury": 4319,
      "Ġpassed": 4320,
      "Ġpassion": 4321,
      "Ġpassport": 4322,
      "Ġemm": 4323,
      "Ġems": 4324,
      "Ġtourist": 4325,
      "Ġinstalled": 4326,
      "Ġprovided": 4327,
      "ĠÃ©ch": 4328,
      "Ġfaites": 4329,
      "ressed": 4330,
      "Ġlitt": 4331,
      "Ġbuyers": 4332,
      "Ġtee": 4333,
      "Ġtext": 4334,
      "Ġbasic": 4335,
      "Ġsmoke": 4336,
      "Ġwwwinst": 4337,
      "Ġwwwgo": 4338,
      "Ġflux": 4339,
      "Ġfluent": 4340,
      "Ġarrondiss": 4341,
      "Ġminute": 4342,
      "Ġconcrete": 4343,
      "Ġartist": 4344,
      "Ġindivid": 4345,
      "izing": 4346,
      "Ġupstairs": 4347,
      "Ġeastern": 4348,
      "Ġsurround": 4349,
      "Ġeligible": 4350,
      "Ġsupply": 4351,
      "ibility": 4352,
      "xton": 4353,
      "Ġpleas": 4354,
      "Ġpopular": 4355,
      "Ġacad": 4356,
      "ouvrir": 4357,
      "Ġbloqu": 4358,
      "Ġrealise": 4359,
      "Ġrealised": 4360,
      "Ġdecide": 4361,
      "Ġkept": 4362,
      "Ġcafe": 4363,
      "Ġcaused": 4364,
      "Ġfolk": 4365,
      "Ġfolks": 4366,
      "Ġvient": 4367,
      "Ġvibe": 4368,
      "Ġjeunes": 4369,
      "Ġletting": 4370,
      "Ġmatin": 4371,
      "Ġhomeown": 4372,
      "Ġlesson": 4373,
      "Ġnearby": 4374,
      "Ġcomplet": 4375,
      "Ġcorner": 4376,
      "Ġmentions": 4377,
      "Ġtrouble": 4378,
      "Ġregardant": 4379,
      "Ġtemperature": 4380,
      "Ġdelay": 4381,
      "Ġdelight": 4382,
      "Ġrelated": 4383,
      "Ġrelatively": 4384,
      "Ġgrande": 4385,
      "Ġgrandes": 4386,
      "Ġperman": 4387,
      "Ġcalme": 4388,
      "Ġcapacity": 4389,
      "Ġmenu": 4390,
      "Ġstrategy": 4391,
      "Ġexpecting": 4392,
      "Ġopening": 4393,
      "Ġdifference": 4394,
      "Ġvoit": 4395,
      "Ġvoie": 4396,
      "Ġdevait": 4397,
      "Ġsidewalk": 4398,
      "Ġforce": 4399,
      "Ġretail": 4400,
      "Ġviews": 4401,
      "Ġaffect": 4402,
      "Ġgiving": 4403,
      "Ġparked": 4404,
      "Ġchecked": 4405,
      "Ġinterested": 4406,
      "Ã§you": 4407,
      "Ġcreep": 4408,
      "Ġvisited": 4409,
      "Ġseconds": 4410,
      "ĠdifferentÃ©": 4411,
      "aime": 4412,
      "Ġmainly": 4413,
      "arrÃªt": 4414,
      "Ġconfort": 4415,
      "Ġdiscuss": 4416,
      "Ġdiscover": 4417,
      "Ġdemander": 4418,
      "Ġseries": 4419,
      "Ġsettle": 4420,
      "Ġcycling": 4421,
      "Ġbroad": 4422,
      "Ġshortage": 4423,
      "Ãªtement": 4424,
      "Ġmalheure": 4425,
      "Ġwinner": 4426,
      "Ġreddit": 4427,
      "Ġadding": 4428,
      "Ġincreasing": 4429,
      "nesday": 4430,
      "Ġaband": 4431,
      "Ġfucked": 4432,
      "Ġstaying": 4433,
      "Ġbills": 4434,
      "Ġbillions": 4435,
      "Ġwritt": 4436,
      "Ġgarde": 4437,
      "Ġphotos": 4438,
      "Ġpatient": 4439,
      "Ġcampaign": 4440,
      "Ġactions": 4441,
      "Ġmanagement": 4442,
      "Ġfranchement": 4443,
      "Ġfrankly": 4444,
      "Ġresidence": 4445,
      "ĠproblÃ¨mes": 4446,
      "Ġarrived": 4447,
      "ĠarrivÃ©": 4448,
      "Ġestim": 4449,
      "Ġestate": 4450,
      "Ġsavings": 4451,
      "Ġdogs": 4452,
      "Ġabsolument": 4453,
      "Ġpourrait": 4454,
      "Ġpourquoi": 4455,
      "Ġboul": 4456,
      "attered": 4457,
      "Ġleadership": 4458,
      "Ġfriendly": 4459,
      "Ġsuggestions": 4460,
      "Ġideal": 4461,
      "Ġtalked": 4462,
      "Ġformer": 4463,
      "ottes": 4464,
      "Ġrendu": 4465,
      "Ġelectrical": 4466,
      "Ġstandard": 4467,
      "Ġclaims": 4468,
      "Ġorigin": 4469,
      "Ġsoudain": 4470,
      "Ġpacked": 4471,
      "Ġpackage": 4472,
      "Ġairb": 4473,
      "Ġmonop": 4474,
      "Ġverre": 4475,
      "Ġallait": 4476,
      "Ġdoctors": 4477,
      "Ġenvie": 4478,
      "Ġenviron": 4479,
      "Ġaccessible": 4480,
      "Ġskill": 4481,
      "Ġpaths": 4482,
      "Ġmission": 4483,
      "Ġgarage": 4484,
      "Ġgarbage": 4485,
      "Ġstatus": 4486,
      "Ġracist": 4487,
      "Ġracism": 4488,
      "Ġengage": 4489,
      "Ġentirely": 4490,
      "oglecom": 4491,
      "Ġclearly": 4492,
      "Ġurban": 4493,
      "Ġpressure": 4494,
      "Ġhorrible": 4495,
      "Ġholding": 4496,
      "Ġquickly": 4497,
      "Ġinstaller": 4498,
      "expli": 4499,
      "market": 4500,
      "Ġcustomer": 4501,
      "Ġburgers": 4502,
      "Ġbaby": 4503,
      "Ġwindows": 4504,
      "Ġnoisy": 4505,
      "Ġpropri": 4506,
      "Ġokay": 4507,
      "Ġcontractor": 4508,
      "Ġscrew": 4509,
      "Ġscreen": 4510,
      "Ġgreenbelt": 4511,
      "Ġcollectifs": 4512,
      "Ġpetites": 4513,
      "Ġemploy": 4514,
      "Ġpedestrian": 4515,
      "ĠsoirÃ©es": 4516,
      "Ġpouvoir": 4517,
      "Ġcitiz": 4518,
      "Ġfootball": 4519,
      "Ġnombre": 4520,
      "Ġreceived": 4521,
      "Ġequivalent": 4522,
      "Ġthank": 4523,
      "Ġdevelopment": 4524,
      "ĠdÃ©test": 4525,
      "ĠsÃ»rement": 4526,
      "Ġpapier": 4527,
      "Ġtarget": 4528,
      "Ġtowards": 4529,
      "Ġlatin": 4530,
      "Ġvoted": 4531,
      "Ġvictor": 4532,
      "Ġconnais": 4533,
      "Ġrobinson": 4534,
      "ĠrÃ©cup": 4535,
      "Ġassociation": 4536,
      "Ġtypically": 4537,
      "Ġtypical": 4538,
      "Ġresponsible": 4539,
      "Ġelectricity": 4540,
      "Ġmaintenant": 4541,
      "Ġsquat": 4542,
      "Ġsquare": 4543,
      "Ġlicense": 4544,
      "Ġfilm": 4545,
      "Ġwalmart": 4546,
      "Ġplatform": 4547,
      "Ġparlent": 4548,
      "Ġnecessarily": 4549,
      "Ġloads": 4550,
      "ĠprÃ©v": 4551,
      "Ġevicted": 4552,
      "Ġimprove": 4553,
      "Ġconvenience": 4554,
      "Ġconvenient": 4555,
      "aughter": 4556,
      "Ġreduced": 4557,
      "Ġpiece": 4558,
      "Ġtube": 4559,
      "Ġbillet": 4560,
      "Ã©roport": 4561,
      "Ġvouloir": 4562,
      "Ġvideo": 4563,
      "Ġrarely": 4564,
      "impression": 4565,
      "Ġseparate": 4566,
      "Ġdegree": 4567,
      "Ġarmen": 4568,
      "ĠdÃ©mÃ©nag": 4569,
      "Ġseekers": 4570,
      "Ġphysical": 4571,
      "ĠcafÃ©": 4572,
      "Ġcapitalism": 4573,
      "Ġcleaning": 4574,
      "Ġpanneau": 4575,
      "Ġglobal": 4576,
      "Ġpsych": 4577,
      "agramcom": 4578,
      "Ġillegal": 4579,
      "Ġsadly": 4580,
      "Ġpantin": 4581,
      "Ġtunnels": 4582,
      "Ġmichel": 4583,
      "Ġdedans": 4584,
      "Ġfalse": 4585,
      "ĠfabriquÃ©": 4586,
      "Ġberlin": 4587,
      "Ġwednesday": 4588,
      "Ġstructures": 4589,
      "ĠrÃ¨g": 4590,
      "Ġdozen": 4591,
      "Ġitems": 4592,
      "Ġagreement": 4593,
      "Ġassuming": 4594,
      "Ġindependent": 4595,
      "Ġsignificant": 4596,
      "Ġreligious": 4597,
      "Ġannoying": 4598,
      "Ġpalestinian": 4599,
      "Ġemployees": 4600,
      "Ġnavigo": 4601,
      "bonjour": 4602,
      "bourg": 4603,
      "toronto": 4604,
      "Ġcinem": 4605,
      "ĠlÃ¨ve": 4606,
      "Ġlaurent": 4607,
      "Ġbicycle": 4608,
      "ĠbÃ©nÃ©": 4609,
      "Ġvirage": 4610,
      "Ġvoyage": 4611,
      "Ġtherap": 4612,
      "Ġchinois": 4613,
      "html": 4614,
      "Ġlosing": 4615,
      "Ġtapered": 4616,
      "Ġmairie": 4617,
      "Ġimmeuble": 4618,
      "Ġgratuit": 4619,
      "Ġasylum": 4620,
      "Ġpharmacy": 4621,
      "ĠrÃ©novation": 4622,
      "Ġdisgusting": 4623,
      "Ġempty": 4624,
      "Ġinterrac": 4625,
      "Ġfunctional": 4626,
      "Ġdesperate": 4627,
      "Ġindoor": 4628,
      "Ġlaundry": 4629,
      "ĠhonnÃªtement": 4630,
      "Ġreviews": 4631,
      "Ġvalued": 4632,
      "Ġconflict": 4633,
      "Ġautomobilistes": 4634,
      "Ġdoubt": 4635,
      "Ġcameras": 4636,
      "Ġpotential": 4637,
      "ĠtÃ©lÃ©phone": 4638,
      "wikipedia": 4639,
      "Ġcatherine": 4640,
      "Ġaubervilliers": 4641,
      "Ġtargets": 4642,
      "Ġduty": 4643,
      "Ġfestival": 4644,
      "Ġbaisser": 4645,
      "Ġwiki": 4646,
      "entryttu": 4647,
      "Ġrachel": 4648,
      "imagine": 4649,
      "Ġseptember": 4650,
      "Ġimplement": 4651,
      "Ġwhenever": 4652,
      "ĠagrÃ©able": 4653,
      "Ġtorontonians": 4654,
      "Ġaccommod": 4655,
      "Ġwwwinstagramcom": 4656,
      "Ġwwwgooglecom": 4657,
      "Ġindividual": 4658,
      "Ġmalheureusement": 4659,
      "Ġwritten": 4660,
      "wikipediaorg": 4661,
      "17": 4662,
      "100": 4663,
      "180": 4664,
      "230": 4665,
      "40": 4666,
      "47": 4667,
      "53": 4668,
      "713": 4669,
      "83": 4670,
      "880": 4671,
      "895": 4672,
      "aa": 4673,
      "ax": 4674,
      "ake": 4675,
      "ares": 4676,
      "aide": 4677,
      "aque": 4678,
      "ault": 4679,
      "ailleurs": 4680,
      "aÃ©roport": 4681,
      "bug": 4682,
      "bonne": 4683,
      "cis": 4684,
      "cal": 4685,
      "ced": 4686,
      "cus": 4687,
      "col": 4688,
      "cie": 4689,
      "cond": 4690,
      "care": 4691,
      "cue": 4692,
      "cule": 4693,
      "cante": 4694,
      "dv": 4695,
      "dre": 4696,
      "dem": 4697,
      "dam": 4698,
      "days": 4699,
      "eum": 4700,
      "eurs": 4701,
      "fp": 4702,
      "fs": 4703,
      "fere": 4704,
      "ford": 4705,
      "fall": 4706,
      "fore": 4707,
      "fÃ¨re": 4708,
      "gn": 4709,
      "ging": 4710,
      "gent": 4711,
      "got": 4712,
      "gment": 4713,
      "gie": 4714,
      "hÃ©": 4715,
      "hist": 4716,
      "hous": 4717,
      "have": 4718,
      "house": 4719,
      "head": 4720,
      "holding": 4721,
      "ii": 4722,
      "iants": 4723,
      "iative": 4724,
      "iÃ¨res": 4725,
      "iji": 4726,
      "kel": 4727,
      "lit": 4728,
      "lim": 4729,
      "lad": 4730,
      "lav": 4731,
      "mo": 4732,
      "mp": 4733,
      "ms": 4734,
      "mon": 4735,
      "mac": 4736,
      "mont": 4737,
      "matis": 4738,
      "nom": 4739,
      "norm": 4740,
      "nelle": 4741,
      "nipe": 4742,
      "oes": 4743,
      "oos": 4744,
      "pre": 4745,
      "pes": 4746,
      "pir": 4747,
      "path": 4748,
      "pagne": 4749,
      "rot": 4750,
      "rav": 4751,
      "rist": 4752,
      "racy": 4753,
      "sor": 4754,
      "sst": 4755,
      "ship": 4756,
      "tf": 4757,
      "tement": 4758,
      "uie": 4759,
      "uous": 4760,
      "uve": 4761,
      "uelle": 4762,
      "ugg": 4763,
      "uÃ©s": 4764,
      "vm": 4765,
      "vre": 4766,
      "val": 4767,
      "vide": 4768,
      "verse": 4769,
      "wd": 4770,
      "well": 4771,
      "water": 4772,
      "xj": 4773,
      "xic": 4774,
      "xim": 4775,
      "yn": 4776,
      "yers": 4777,
      "yst": 4778,
      "year": 4779,
      "zz": 4780,
      "Ã®": 4781,
      "Ġic": 4782,
      "Ġut": 4783,
      "Ġice": 4784,
      "Ġum": 4785,
      "ĠâĢ¦": 4786,
      "Ġiron": 4787,
      "inct": 4788,
      "inary": 4789,
      "rends": 4790,
      "Ġsain": 4791,
      "Ġsne": 4792,
      "Ġsli": 4793,
      "Ġsach": 4794,
      "Ġsending": 4795,
      "Ġsession": 4796,
      "Ġsongs": 4797,
      "Ġpa": 4798,
      "Ġpis": 4799,
      "Ġpom": 4800,
      "Ġpod": 4801,
      "Ġpip": 4802,
      "Ġpots": 4803,
      "Ġpull": 4804,
      "Ġpisse": 4805,
      "Ġpoub": 4806,
      "Ġpulo": 4807,
      "Ġcd": 4808,
      "Ġcv": 4809,
      "Ġcig": 4810,
      "Ġcest": 4811,
      "Ġcand": 4812,
      "ĠcitÃ©": 4813,
      "ĠcÃ´": 4814,
      "Ġcards": 4815,
      "oned": 4816,
      "onse": 4817,
      "era": 4818,
      "erg": 4819,
      "eries": 4820,
      "eng": 4821,
      "enir": 4822,
      "enci": 4823,
      "enry": 4824,
      "enials": 4825,
      "Ġat": 4826,
      "Ġaim": 4827,
      "Ġave": 4828,
      "Ġaud": 4829,
      "Ġaup": 4830,
      "Ġaug": 4831,
      "Ġtes": 4832,
      "Ġtel": 4833,
      "Ġtone": 4834,
      "Ġtind": 4835,
      "Ġtough": 4836,
      "Ġtends": 4837,
      "Ġtph": 4838,
      "ĠtÃªte": 4839,
      "Ġlis": 4840,
      "Ġlac": 4841,
      "Ġlum": 4842,
      "Ġluc": 4843,
      "ĠlÃ©g": 4844,
      "Ġlma": 4845,
      "Ġlining": 4846,
      "Ġltb": 4847,
      "oue": 4848,
      "ouve": 4849,
      "Ġmp": 4850,
      "Ġmut": 4851,
      "Ġmort": 4852,
      "Ġmour": 4853,
      "Ġmau": 4854,
      "Ġmum": 4855,
      "Ġmild": 4856,
      "Ġmigr": 4857,
      "Ġmike": 4858,
      "Ġmunic": 4859,
      "Ġmyst": 4860,
      "Ġdj": 4861,
      "Ġdu": 4862,
      "Ġdor": 4863,
      "Ġdim": 4864,
      "Ġdig": 4865,
      "Ġdur": 4866,
      "Ġdad": 4867,
      "Ġdam": 4868,
      "Ġdure": 4869,
      "Ġdirt": 4870,
      "ĠdÃ»": 4871,
      "Ġdoll": 4872,
      "Ġdestin": 4873,
      "Ġdalle": 4874,
      "Ġdaughter": 4875,
      "ited": 4876,
      "itage": 4877,
      "isl": 4878,
      "isme": 4879,
      "isions": 4880,
      "Ġfly": 4881,
      "Ġfig": 4882,
      "Ġfond": 4883,
      "Ġfish": 4884,
      "Ġfasse": 4885,
      "Ġfils": 4886,
      "Ġfuel": 4887,
      "aries": 4888,
      "alist": 4889,
      "Ġben": 4890,
      "Ġbid": 4891,
      "Ġbri": 4892,
      "Ġbous": 4893,
      "Ġbure": 4894,
      "Ġbase": 4895,
      "Ġbelle": 4896,
      "Ġbath": 4897,
      "Ġbars": 4898,
      "Ġbelles": 4899,
      "Ġbiling": 4900,
      "atoire": 4901,
      "Ġwow": 4902,
      "Ġwire": 4903,
      "Ġwage": 4904,
      "Ġwine": 4905,
      "Ġwise": 4906,
      "Ġwarr": 4907,
      "Ġwagon": 4908,
      "Ġwtf": 4909,
      "leg": 4910,
      "oring": 4911,
      "orÃ©": 4912,
      "orite": 4913,
      "oristes": 4914,
      "Ġgal": 4915,
      "Ġgay": 4916,
      "Ġgut": 4917,
      "Ġgif": 4918,
      "Ġnan": 4919,
      "Ġnic": 4920,
      "Ġnim": 4921,
      "Ġnick": 4922,
      "ĠnÃ©c": 4923,
      "ĠnÃ©g": 4924,
      "Ġnames": 4925,
      "Ġnouve": 4926,
      "entre": 4927,
      "Ã©ra": 4928,
      "Ġhop": 4929,
      "Ġhid": 4930,
      "Ġhem": 4931,
      "Ġhun": 4932,
      "Ġhill": 4933,
      "Ġhaut": 4934,
      "Ġhah": 4935,
      "Ġhund": 4936,
      "Ġhamas": 4937,
      "Ġhenry": 4938,
      "iced": 4939,
      "icious": 4940,
      "etc": 4941,
      "oty": 4942,
      "otic": 4943,
      "otid": 4944,
      "Ġreck": 4945,
      "Ġrenc": 4946,
      "Ġrendre": 4947,
      "Ġreplac": 4948,
      "Ġrecher": 4949,
      "Ġrenov": 4950,
      "Ġrebu": 4951,
      "omme": 4952,
      "Ġeld": 4953,
      "Ġeffic": 4954,
      "ilien": 4955,
      "ilos": 4956,
      "rov": 4957,
      "rooke": 4958,
      "rovers": 4959,
      "asons": 4960,
      "quel": 4961,
      "Ġvs": 4962,
      "Ġvin": 4963,
      "Ġvale": 4964,
      "ĠvÃ©c": 4965,
      "eler": 4966,
      "Ġstri": 4967,
      "Ġstood": 4968,
      "Ġstep": 4969,
      "Ġstability": 4970,
      "Ġstamp": 4971,
      "Ġron": 4972,
      "Ġran": 4973,
      "Ġrout": 4974,
      "Ġrome": 4975,
      "Ġrass": 4976,
      "ĠrÃª": 4977,
      "Ġrues": 4978,
      "Ġrise": 4979,
      "iders": 4980,
      "idement": 4981,
      "imm": 4982,
      "import": 4983,
      "imately": 4984,
      "iving": 4985,
      "ivent": 4986,
      "ivement": 4987,
      "olf": 4988,
      "oler": 4989,
      "olit": 4990,
      "olis": 4991,
      "ersion": 4992,
      "emb": 4993,
      "emy": 4994,
      "cture": 4995,
      "Ġthr": 4996,
      "Ġthem": 4997,
      "Ġtherm": 4998,
      "ching": 4999,
      "chers": 5000,
      "Ġisol": 5001,
      "onte": 5002,
      "urg": 5003,
      "uring": 5004,
      "Ġtrau": 5005,
      "Ġtrott": 5006,
      "Ġtruly": 5007,
      "anted": 5008,
      "Ġnotice": 5009,
      "Ġnoticed": 5010,
      "uts": 5011,
      "adr": 5012,
      "agir": 5013,
      "agger": 5014,
      "Ġjol": 5015,
      "Ġjack": 5016,
      "Ġjok": 5017,
      "Ġchers": 5018,
      "Ġchem": 5019,
      "Ġchien": 5020,
      "Ġchiens": 5021,
      "Ġchannel": 5022,
      "ĠcomitÃ©": 5023,
      "Ġquitt": 5024,
      "Ġquitter": 5025,
      "Ġquarter": 5026,
      "Ġquotid": 5027,
      "amb": 5028,
      "aming": 5029,
      "amment": 5030,
      "Ġalb": 5031,
      "verted": 5032,
      "Ġyell": 5033,
      "Ġparli": 5034,
      "Ġparler": 5035,
      "Ġprohib": 5036,
      "Ġprogress": 5037,
      "Ġprojets": 5038,
      "Ġproxim": 5039,
      "Ġsect": 5040,
      "Ġselection": 5041,
      "Ġneuro": 5042,
      "ender": 5043,
      "avant": 5044,
      "illes": 5045,
      "ulte": 5046,
      "ource": 5047,
      "ffe": 5048,
      "Ġdos": 5049,
      "Ġconcept": 5050,
      "Ġliber": 5051,
      "Ġlikes": 5052,
      "Ġsud": 5053,
      "Ġsuisse": 5054,
      "Ġsufficient": 5055,
      "Ġloop": 5056,
      "Ġloving": 5057,
      "ieves": 5058,
      "ieusement": 5059,
      "Ġdeb": 5060,
      "Ġdeck": 5061,
      "odeur": 5062,
      "Ġ2880": 5063,
      "rif": 5064,
      "rific": 5065,
      "Ã¨te": 5066,
      "ĠamÃ©li": 5067,
      "Ġamster": 5068,
      "ĠamÃ©ric": 5069,
      "Ġarre": 5070,
      "Ġarab": 5071,
      "Ġshar": 5072,
      "Ġshot": 5073,
      "Ġshut": 5074,
      "Ġshown": 5075,
      "Ġshits": 5076,
      "Ġshoot": 5077,
      "Ġshared": 5078,
      "Ġsherb": 5079,
      "ondre": 5080,
      "Ġovern": 5081,
      "Ġoverse": 5082,
      "Ġanne": 5083,
      "Ġanec": 5084,
      "Ġanxious": 5085,
      "Ġkm": 5086,
      "Ġkar": 5087,
      "Ġkim": 5088,
      "Ġkick": 5089,
      "Ġkilled": 5090,
      "Ġkiji": 5091,
      "Ġ150": 5092,
      "aison": 5093,
      "aisse": 5094,
      "ensation": 5095,
      "ensity": 5096,
      "termin": 5097,
      "Ġunre": 5098,
      "Ġunable": 5099,
      "Ġuncle": 5100,
      "Ġpose": 5101,
      "Ġprin": 5102,
      "Ġprim": 5103,
      "ĠprÃ©s": 5104,
      "Ġenwikipediaorg": 5105,
      "Ġleak": 5106,
      "arture": 5107,
      "Ġword": 5108,
      "Ġworry": 5109,
      "Ġcomport": 5110,
      "Ġcompare": 5111,
      "Ġcompte": 5112,
      "Ġcomplic": 5113,
      "ĠcomplÃ¨": 5114,
      "Ġcompensation": 5115,
      "Ġtao": 5116,
      "Ġtape": 5117,
      "Ġmap": 5118,
      "Ġmax": 5119,
      "ellig": 5120,
      "indre": 5121,
      "sses": 5122,
      "tez": 5123,
      "apt": 5124,
      "vey": 5125,
      "vecouk": 5126,
      "Ġcanal": 5127,
      "ordable": 5128,
      "Ġmontant": 5129,
      "Ġappe": 5130,
      "Ġapplication": 5131,
      "Ġclick": 5132,
      "Ġclign": 5133,
      "Ġclients": 5134,
      "Ġclause": 5135,
      "assurer": 5136,
      "iences": 5137,
      "Ġbeer": 5138,
      "Ġwealth": 5139,
      "Ġweather": 5140,
      "Ġprep": 5141,
      "Ġprev": 5142,
      "Ġprend": 5143,
      "Ġcontent": 5144,
      "Ġcontem": 5145,
      "Ġcontain": 5146,
      "Ġcontrovers": 5147,
      "Ġmeille": 5148,
      "Ġmeilleurs": 5149,
      "acturer": 5150,
      "Ġmanage": 5151,
      "Ġmanuf": 5152,
      "ĠdÃ©r": 5153,
      "ĠdÃ©termin": 5154,
      "Ġ300": 5155,
      "Ġ350": 5156,
      "Ġcos": 5157,
      "Ġcoin": 5158,
      "Ġparisiens": 5159,
      "Ġeverybody": 5160,
      "Ġsaund": 5161,
      "ickets": 5162,
      "Ġgraph": 5163,
      "intersection": 5164,
      "Ġpartners": 5165,
      "apping": 5166,
      "apprÃ©": 5167,
      "Ġopens": 5168,
      "ĠspÃ©": 5169,
      "Ġspanish": 5170,
      "Ġdry": 5171,
      "Ġfrequ": 5172,
      "Ġhey": 5173,
      "uded": 5174,
      "Ġfrais": 5175,
      "Ġfrapp": 5176,
      "Ġfrustr": 5177,
      "ignes": 5178,
      "Ġashe": 5179,
      "Ġworker": 5180,
      "Ġincome": 5181,
      "Ġincroy": 5182,
      "Ġrole": 5183,
      "Ġroof": 5184,
      "oirs": 5185,
      "Ġadm": 5186,
      "Ġadmin": 5187,
      "Ġanyways": 5188,
      "ifi": 5189,
      "ifier": 5190,
      "Ġspect": 5191,
      "Ġwhats": 5192,
      "Ġfewer": 5193,
      "Ġcommer": 5194,
      "Ġcommute": 5195,
      "ĠcrÃ©": 5196,
      "Ġcrack": 5197,
      "Ġcruel": 5198,
      "Ġcrottes": 5199,
      "Ġcoupe": 5200,
      "Ġbrig": 5201,
      "Ġbrain": 5202,
      "Ġbrits": 5203,
      "aky": 5204,
      "akes": 5205,
      "aked": 5206,
      "comhttps": 5207,
      "Ġactive": 5208,
      "liers": 5209,
      "Ġnewbor": 5210,
      "Ġphilos": 5211,
      "Ġtools": 5212,
      "ĠrÃ©ussi": 5213,
      "Ġstret": 5214,
      "Ġsomewhat": 5215,
      "Ġagent": 5216,
      "Ġdispl": 5217,
      "Ġdisappoint": 5218,
      "Ġdisorder": 5219,
      "Ġremote": 5220,
      "Ġrempli": 5221,
      "Ġcarry": 5222,
      "ĠcarrÃ©s": 5223,
      "2023": 5224,
      "Ġtheft": 5225,
      "Ġsoy": 5226,
      "Ġsole": 5227,
      "Ġblan": 5228,
      "Ġblast": 5229,
      "Ġmarg": 5230,
      "Ġmars": 5231,
      "Ġmarlow": 5232,
      "Ġrents": 5233,
      "Ġrentals": 5234,
      "ruit": 5235,
      "Ġstreetcar": 5236,
      "Ġscen": 5237,
      "Ġscary": 5238,
      "Ġscared": 5239,
      "ĠscÃ¨ne": 5240,
      "Ġscattered": 5241,
      "Ġfault": 5242,
      "Ġfaute": 5243,
      "Ġentit": 5244,
      "Ġtherefore": 5245,
      "Ġtransp": 5246,
      "Ġ500": 5247,
      "Ġfinds": 5248,
      "Ġrester": 5249,
      "Ġrestrict": 5250,
      "ipal": 5251,
      "Ġaccused": 5252,
      "Ġfamilies": 5253,
      "Ã©rÃ©": 5254,
      "Ã©ralement": 5255,
      "Ġgreeting": 5256,
      "pects": 5257,
      "while": 5258,
      "icts": 5259,
      "Ġstarts": 5260,
      "Ġserved": 5261,
      "Ġfines": 5262,
      "Ġemerg": 5263,
      "Ġconsent": 5264,
      "Ġconsult": 5265,
      "Ġconsumed": 5266,
      "Ġinstru": 5267,
      "Ġinstagram": 5268,
      "Ġproviding": 5269,
      "Ġproviders": 5270,
      "resser": 5271,
      "Ġbonus": 5272,
      "Ġteen": 5273,
      "Ġgeneration": 5274,
      "Ġinteract": 5275,
      "Ġexpl": 5276,
      "Ġexpress": 5277,
      "Ġassist": 5278,
      "Ġassess": 5279,
      "Ġassurance": 5280,
      "Ġdonne": 5281,
      "Ġtravaux": 5282,
      "Ġwwwright": 5283,
      "Ġattendre": 5284,
      "Ġlands": 5285,
      "Ġvisiblement": 5286,
      "Ġtraining": 5287,
      "Ġtrained": 5288,
      "ĠarrÃªter": 5289,
      "Ġminist": 5290,
      "Ġminority": 5291,
      "Ġconcur": 5292,
      "Ġarts": 5293,
      "Ġartistes": 5294,
      "Ġmontrer": 5295,
      "Ġmontreuil": 5296,
      "rents": 5297,
      "Ġindeed": 5298,
      "Ġoffering": 5299,
      "Ġupon": 5300,
      "ainted": 5301,
      "Ġdepend": 5302,
      "Ġcommunal": 5303,
      "ĠcollÃ¨": 5304,
      "Ġcollection": 5305,
      "Ġlaws": 5306,
      "Ġstops": 5307,
      "Ġsurv": 5308,
      "Ġcurios": 5309,
      "Ġsuppose": 5310,
      "ibilitÃ©": 5311,
      "Ġzon": 5312,
      "Ġzoo": 5313,
      "Ġcrosst": 5314,
      "Ġwalked": 5315,
      "Ġrefr": 5316,
      "Ġrefused": 5317,
      "Ġconstant": 5318,
      "Ġconstantly": 5319,
      "Ġcertainly": 5320,
      "Ġpleine": 5321,
      "Ġacqu": 5322,
      "Ġreality": 5323,
      "Ġdecided": 5324,
      "Ġdecision": 5325,
      "Ġug": 5326,
      "Ġsignale": 5327,
      "Ġcares": 5328,
      "Ġcareful": 5329,
      "Ġterr": 5330,
      "Ġterme": 5331,
      "Ġstudies": 5332,
      "Ġjean": 5333,
      "Ġjeux": 5334,
      "Ġjews": 5335,
      "Ġjeune": 5336,
      "Ġorange": 5337,
      "Ġoutdo": 5338,
      "Ġoutright": 5339,
      "Ġmatches": 5340,
      "Ġhighway": 5341,
      "Ġhighlight": 5342,
      "Ġoptim": 5343,
      "Ġmontrealers": 5344,
      "Ġswap": 5345,
      "Ġmedication": 5346,
      "Ġbigger": 5347,
      "Ġplanned": 5348,
      "Ġshows": 5349,
      "Ġengland": 5350,
      "Ġuseful": 5351,
      "Ġbehead": 5352,
      "Ġescal": 5353,
      "Ġconvoy": 5354,
      "Ġcomplex": 5355,
      "Ġcorps": 5356,
      "Ġcorpor": 5357,
      "Ġcorresp": 5358,
      "Ġmentally": 5359,
      "Ġmusical": 5360,
      "Ġmuseum": 5361,
      "Ġadvise": 5362,
      "Ġregarder": 5363,
      "Ġregardless": 5364,
      "Ġhelped": 5365,
      "Ġunderstood": 5366,
      "redi": 5367,
      "reds": 5368,
      "ĠtempÃ©r": 5369,
      "Ġbreath": 5370,
      "Ġimmobil": 5371,
      "Ġ2010": 5372,
      "Ġ2014": 5373,
      "Ġ2015": 5374,
      "Ġpermit": 5375,
      "Ġpermis": 5376,
      "Ġpetite": 5377,
      "Ġporter": 5378,
      "Ġcapable": 5379,
      "Ġdownvot": 5380,
      "Ġrepresent": 5381,
      "Ġversion": 5382,
      "Ġversions": 5383,
      "Ġstrat": 5384,
      "Ġstrict": 5385,
      "Ġstrangers": 5386,
      "Ġexperiences": 5387,
      "Ġbikes": 5388,
      "Ã©cole": 5389,
      "Ġrevol": 5390,
      "Ġreverse": 5391,
      "Ġrevenue": 5392,
      "Ġvoices": 5393,
      "Ġvoici": 5394,
      "Ġdevoir": 5395,
      "Ġtaxi": 5396,
      "Ġforgot": 5397,
      "Ġretr": 5398,
      "Ġchildhood": 5399,
      "Ġclassic": 5400,
      "Ġclassique": 5401,
      "Ġspeaks": 5402,
      "Ġaffili": 5403,
      "Ġbeds": 5404,
      "Ġbedbug": 5405,
      "Ġcontinues": 5406,
      "Ġcheckhttps": 5407,
      "Ġsemaines": 5408,
      "Ġcredit": 5409,
      "Ġtopic": 5410,
      "Ġmidnight": 5411,
      "Ġmillenials": 5412,
      "Ġlovely": 5413,
      "Ġdefending": 5414,
      "Ġcheapest": 5415,
      "arrive": 5416,
      "ropri": 5417,
      "Ġvalid": 5418,
      "Ġvalues": 5419,
      "Ġrunning": 5420,
      "Ġdiscourage": 5421,
      "Ġconstruire": 5422,
      "ĠdemandÃ©": 5423,
      "Ġserve": 5424,
      "Ġsetting": 5425,
      "Ġcyclables": 5426,
      "Ġbroke": 5427,
      "Ġreasonably": 5428,
      "Ġsupervis": 5429,
      "Ġconsidering": 5430,
      "Ġceci": 5431,
      "Ġfemale": 5432,
      "Ġwinnipe": 5433,
      "Ġjambe": 5434,
      "ĠjournÃ©e": 5435,
      "Ġchoix": 5436,
      "ĠchoquÃ©": 5437,
      "Ġenjoying": 5438,
      "Ġenjoyment": 5439,
      "Ġaddress": 5440,
      "Ġlanguages": 5441,
      "Ġcopine": 5442,
      "Ġcopper": 5443,
      "Ġcultures": 5444,
      "Ġabroad": 5445,
      "Ġturns": 5446,
      "Ġfontaine": 5447,
      "Ġfontaines": 5448,
      "Ġstayed": 5449,
      "Ġsupporter": 5450,
      "Ġorders": 5451,
      "Ġforest": 5452,
      "Ġforever": 5453,
      "Ġvillette": 5454,
      "Ġramasser": 5455,
      "Ġphotograph": 5456,
      "Ġsociale": 5457,
      "Ġclosely": 5458,
      "Ġincludes": 5459,
      "Ġpatrick": 5460,
      "Ġfactor": 5461,
      "argent": 5462,
      "Ġjoin": 5463,
      "Ġshitty": 5464,
      "Ġlouder": 5465,
      "Ġloudly": 5466,
      "ocracy": 5467,
      "Ġestimate": 5468,
      "Ġestabl": 5469,
      "rence": 5470,
      "Ġsushi": 5471,
      "Ġpicture": 5472,
      "Ġtrem": 5473,
      "Ġbags": 5474,
      "Ġvivant": 5475,
      "Ġexactement": 5476,
      "Ġheadline": 5477,
      "Ġhealthy": 5478,
      "Ġ407": 5479,
      "Ġinvestig": 5480,
      "affordable": 5481,
      "bring": 5482,
      "bridge": 5483,
      "Ġsales": 5484,
      "Ġpotentially": 5485,
      "Ġantony": 5486,
      "Ġanthem": 5487,
      "Ġmoments": 5488,
      "Ġdrove": 5489,
      "Ġallows": 5490,
      "Ġoccur": 5491,
      "Ġofficial": 5492,
      "Ġterms": 5493,
      "Ġsuggested": 5494,
      "484": 5495,
      "4886": 5496,
      "cription": 5497,
      "Ġmiles": 5498,
      "Ġmilit": 5499,
      "Ġmilieu": 5500,
      "Ġflood": 5501,
      "Ġgirls": 5502,
      "Ġready": 5503,
      "Ġstandards": 5504,
      "Ġamerica": 5505,
      "ĠmajoritÃ©": 5506,
      "Ġfundament": 5507,
      "Ġbehaviors": 5508,
      "Ġrecommended": 5509,
      "Ġ08": 5510,
      "Ġ09": 5511,
      "Ġpackages": 5512,
      "Ġminds": 5513,
      "Ġverd": 5514,
      "ophy": 5515,
      "ophone": 5516,
      "ophones": 5517,
      "Ġriding": 5518,
      "Ġridicule": 5519,
      "Ġridicul": 5520,
      "Ġtrucs": 5521,
      "Ġcovered": 5522,
      "Ġclosing": 5523,
      "Ġclosed": 5524,
      "Ġclosest": 5525,
      "Ġskin": 5526,
      "Ġlisten": 5527,
      "Ġlights": 5528,
      "Ġvilles": 5529,
      "Ġstatement": 5530,
      "Ġrisque": 5531,
      "ĠrÃ©gion": 5532,
      "Ġpolitics": 5533,
      "board": 5534,
      "book": 5535,
      "Ġpalais": 5536,
      "Ġtendance": 5537,
      "Ġglass": 5538,
      "Ġholders": 5539,
      "ettes": 5540,
      "Ġvariety": 5541,
      "Ġyeux": 5542,
      "Ġobject": 5543,
      "Ġapproaching": 5544,
      "ĠdÃ©couvrir": 5545,
      "Ġsurprise": 5546,
      "exp": 5547,
      "Ġsatisf": 5548,
      "Ġpicked": 5549,
      "Ġaucun": 5550,
      "itching": 5551,
      "Ġfeds": 5552,
      "Ġfederal": 5553,
      "ativement": 5554,
      "Ġwestern": 5555,
      "Ã©der": 5556,
      "Ġcherche": 5557,
      "Ġpropre": 5558,
      "Ġpositive": 5559,
      "Ġclinics": 5560,
      "ĠpremiÃ¨re": 5561,
      "Ġsafest": 5562,
      "Ġspecialist": 5563,
      "Ġblocks": 5564,
      "Ġmentality": 5565,
      "Ġquebecois": 5566,
      "Ġpouvaient": 5567,
      "Ġahead": 5568,
      "ĠbondÃ©": 5569,
      "ĠbondÃ©e": 5570,
      "Ġwondering": 5571,
      "Ġhabitants": 5572,
      "Ġreceive": 5573,
      "Ġequity": 5574,
      "Ġvendre": 5575,
      "Ġruelles": 5576,
      "Ġruined": 5577,
      "Ġcharles": 5578,
      "Ġexception": 5579,
      "Ġlogement": 5580,
      "Ġlogique": 5581,
      "Ġlogements": 5582,
      "Ġdevelopments": 5583,
      "Ġ1880": 5584,
      "Ġcomprendre": 5585,
      "Ġpretend": 5586,
      "Ġprovinces": 5587,
      "Ġsweet": 5588,
      "ĠprioritÃ©": 5589,
      "Ġseriously": 5590,
      "ĠpiÃ©ton": 5591,
      "ĠgÃ©nÃ©ral": 5592,
      "ĠgÃ©nÃ©rale": 5593,
      "1638": 5594,
      "shit": 5595,
      "ĠsÃ»r": 5596,
      "Ġpunks": 5597,
      "Ġpissed": 5598,
      "Ġcircle": 5599,
      "Ġlatter": 5600,
      "Ġlaisser": 5601,
      "Ġfavorite": 5602,
      "Ġvenir": 5603,
      "Ġvacant": 5604,
      "Ġvictims": 5605,
      "Ġconnaiss": 5606,
      "Ġshirts": 5607,
      "Ġanimaux": 5608,
      "Ġprison": 5609,
      "Ġgroups": 5610,
      "ĠrÃ©cemment": 5611,
      "Ġremoved": 5612,
      "Ġpolicy": 5613,
      "Ġfinanci": 5614,
      "Ġassociated": 5615,
      "Ġunderground": 5616,
      "Ġresponsibility": 5617,
      "Ġunfortunate": 5618,
      "Ġfilming": 5619,
      "Ġfurnace": 5620,
      "Ġfurniture": 5621,
      "Ġwarned": 5622,
      "Ġhoard": 5623,
      "Ġhurt": 5624,
      "Ġhanging": 5625,
      "Ġeconomy": 5626,
      "Ġeconomic": 5627,
      "Ġrapide": 5628,
      "Ġrapidement": 5629,
      "Ġcharged": 5630,
      "Ġnecessity": 5631,
      "Ġconsequ": 5632,
      "Ġshoulders": 5633,
      "Ġimportant": 5634,
      "Ġeviction": 5635,
      "ĠdÃ©pend": 5636,
      "Ġheureux": 5637,
      "Ġheureusement": 5638,
      "Ġrolls": 5639,
      "Ġadditional": 5640,
      "Ġfairly": 5641,
      "Ġdesigned": 5642,
      "Ġimmigrant": 5643,
      "Ġimmigration": 5644,
      "Ġforcing": 5645,
      "ĠforcÃ©ment": 5646,
      "Ġcontinued": 5647,
      "Ġidiot": 5648,
      "Ġlaughed": 5649,
      "Ġlaughable": 5650,
      "habitude": 5651,
      "Ġodds": 5652,
      "Ġpieces": 5653,
      "Ġlinks": 5654,
      "Ġlinked": 5655,
      "Ġmaisons": 5656,
      "Ġbillets": 5657,
      "Ġhaute": 5658,
      "Ġstaring": 5659,
      "Ġrails": 5660,
      "Ġrailroad": 5661,
      "Ġjustement": 5662,
      "Ġchamps": 5663,
      "Ġsuivre": 5664,
      "Ġsuivant": 5665,
      "Ġanglo": 5666,
      "intÃ©rim": 5667,
      "intÃ©rieur": 5668,
      "Ġdramatically": 5669,
      "Ġcritic": 5670,
      "Ġdescend": 5671,
      "Ġcommunications": 5672,
      "Ġpanneaux": 5673,
      "Ġglobalement": 5674,
      "occup": 5675,
      "Ġultimately": 5676,
      "Ġpieds": 5677,
      "Ġladder": 5678,
      "Ġdernier": 5679,
      "Ġhindsight": 5680,
      "Ġrubbish": 5681,
      "Ġchurch": 5682,
      "Ġchurches": 5683,
      "Ġcomfortable": 5684,
      "Ġobserv": 5685,
      "Ġoblig": 5686,
      "Ġunlikely": 5687,
      "Ġsports": 5688,
      "Ġcraign": 5689,
      "Ġtoilettes": 5690,
      "Ġlongueuil": 5691,
      "Ġemotional": 5692,
      "Ġgenuinely": 5693,
      "Ġconcerts": 5694,
      "Ġgrowing": 5695,
      "Ġeducation": 5696,
      "Ġrecommande": 5697,
      "Ġbuddhist": 5698,
      "ĠÃ©tudes": 5699,
      "Ġbirthday": 5700,
      "8192": 5701,
      "Ġlorsqu": 5702,
      "Ġfocused": 5703,
      "ĠfermÃ©": 5704,
      "Ġbouge": 5705,
      "Ġrelevant": 5706,
      "ombie": 5707,
      "Ġcombien": 5708,
      "Ġplaindre": 5709,
      "Ġcondos": 5710,
      "Ġlockdown": 5711,
      "ĠprotÃ©g": 5712,
      "ĠcompliquÃ©": 5713,
      "Ġclimbing": 5714,
      "iency": 5715,
      "Ġbecoming": 5716,
      "Ġgravy": 5717,
      "Ġfrequently": 5718,
      "Ġwherever": 5719,
      "Ġactivity": 5720,
      "Ġmarkham": 5721,
      "Ġinfestation": 5722,
      "Ġattacks": 5723,
      "Ġannouncement": 5724,
      "Ġresponded": 5725,
      "Ġparticularly": 5726,
      "Ġpoliticians": 5727,
      "Ġafterwards": 5728,
      "Ġdetails": 5729,
      "Ġsilly": 5730,
      "Ġtank": 5731,
      "Ġmachine": 5732,
      "Ġdinner": 5733,
      "Ġdishes": 5734,
      "Ġbakery": 5735,
      "Ġbottom": 5736,
      "Ġghost": 5737,
      "Ġnowhere": 5738,
      "Ġhubs": 5739,
      "Ġeyes": 5740,
      "Ġtrucks": 5741,
      "Ġjulia": 5742,
      "Ġjumping": 5743,
      "Ġalberta": 5744,
      "Ġconcluded": 5745,
      "Ġkitchen": 5746,
      "Ġcomparison": 5747,
      "Ġcontamination": 5748,
      "Ġtoyot": 5749,
      "Ġdispon": 5750,
      "Ġpubliques": 5751,
      "ĠlittÃ©ralement": 5752,
      "Ġarrondissement": 5753,
      "Ġsurrounding": 5754,
      "Ġhomeowners": 5755,
      "Ġairbnb": 5756,
      "Ġenvironment": 5757,
      "ĠpropriÃ©t": 5758,
      "ĠrÃ©cupÃ©rer": 5759,
      "ĠbÃ©nÃ©fic": 5760,
      "heads": 5761,
      "movecouk": 5762,
      "Ġsachant": 5763,
      "Ġpoubelle": 5764,
      "encies": 5765,
      "Ġtinder": 5766,
      "Ġlucy": 5767,
      "Ġlmao": 5768,
      "Ġmunicipal": 5769,
      "Ġmystery": 5770,
      "Ġdimanche": 5771,
      "Ġdigital": 5772,
      "Ġbrixton": 5773,
      "Ġbilingual": 5774,
      "ĠnÃ©cess": 5775,
      "Ġhundreds": 5776,
      "Ġrencont": 5777,
      "ĠvÃ©cu": 5778,
      "importe": 5779,
      "Ġtraumatis": 5780,
      "Ġjokes": 5781,
      "Ġquotidien": 5782,
      "Ġparliament": 5783,
      "Ġamsterdam": 5784,
      "Ġsherbrooke": 5785,
      "Ġovernight": 5786,
      "Ġoverseas": 5787,
      "Ġanecd": 5788,
      "Ġkijiji": 5789,
      "Ġclignot": 5790,
      "Ġcontroversial": 5791,
      "Ġmanufacturer": 5792,
      "Ġsaunders": 5793,
      "Ġincroyable": 5794,
      "Ġadministr": 5795,
      "Ġwhatsapp": 5796,
      "Ġphilosophy": 5797,
      "Ġwwwrightmovecouk": 5798,
      "ĠcollÃ¨gues": 5799,
      "Ġcrosstown": 5800,
      "Ġoutdoor": 5801,
      "Ġbeheaded": 5802,
      "Ġescaliers": 5803,
      "Ġaffiliated": 5804,
      "Ġwinnipeg": 5805,
      "163848": 5806,
      "'d": 5807,
      "'t": 5808,
      "099": 5809,
      "150": 5810,
      "36": 5811,
      "44": 5812,
      "400": 5813,
      "450": 5814,
      "550": 5815,
      "583": 5816,
      "65": 5817,
      "68": 5818,
      "659": 5819,
      "686": 5820,
      "88": 5821,
      "823": 5822,
      "97": 5823,
      "980": 5824,
      "aw": 5825,
      "aill": 5826,
      "ape": 5827,
      "aign": 5828,
      "away": 5829,
      "aorg": 5830,
      "bd": 5831,
      "bm": 5832,
      "bz": 5833,
      "bar": 5834,
      "bot": 5835,
      "bus": 5836,
      "bel": 5837,
      "band": 5838,
      "bans": 5839,
      "back": 5840,
      "bli": 5841,
      "bours": 5842,
      "bru": 5843,
      "bys": 5844,
      "brow": 5845,
      "bury": 5846,
      "cu": 5847,
      "cce": 5848,
      "cour": 5849,
      "cking": 5850,
      "clo": 5851,
      "cast": 5852,
      "cure": 5853,
      "cap": 5854,
      "core": 5855,
      "cise": 5856,
      "cycle": 5857,
      "culent": 5858,
      "des": 5859,
      "ding": 5860,
      "date": 5861,
      "dale": 5862,
      "dgy": 5863,
      "datory": 5864,
      "eh": 5865,
      "ees": 5866,
      "eps": 5867,
      "euu": 5868,
      "eglinton": 5869,
      "effet": 5870,
      "fh": 5871,
      "fal": 5872,
      "for": 5873,
      "fant": 5874,
      "four": 5875,
      "fire": 5876,
      "fight": 5877,
      "fact": 5878,
      "fois": 5879,
      "fog": 5880,
      "fits": 5881,
      "gb": 5882,
      "gement": 5883,
      "gÃ©e": 5884,
      "gouv": 5885,
      "guis": 5886,
      "gestion": 5887,
      "gium": 5888,
      "hf": 5889,
      "ho": 5890,
      "his": 5891,
      "hor": 5892,
      "hot": 5893,
      "hel": 5894,
      "hod": 5895,
      "hait": 5896,
      "hare": 5897,
      "hai": 5898,
      "however": 5899,
      "hips": 5900,
      "hicule": 5901,
      "hhc": 5902,
      "homme": 5903,
      "hbz": 5904,
      "iat": 5905,
      "ius": 5906,
      "iop": 5907,
      "iest": 5908,
      "iation": 5909,
      "iend": 5910,
      "iaire": 5911,
      "ipt": 5912,
      "ielle": 5913,
      "ihood": 5914,
      "jo": 5915,
      "js": 5916,
      "jan": 5917,
      "jly": 5918,
      "lle": 5919,
      "lor": 5920,
      "lent": 5921,
      "lait": 5922,
      "lace": 5923,
      "lab": 5924,
      "lines": 5925,
      "mc": 5926,
      "mal": 5927,
      "mas": 5928,
      "mid": 5929,
      "mant": 5930,
      "mill": 5931,
      "mment": 5932,
      "mens": 5933,
      "mement": 5934,
      "march": 5935,
      "milled": 5936,
      "monton": 5937,
      "mbm": 5938,
      "nf": 5939,
      "np": 5940,
      "nis": 5941,
      "nant": 5942,
      "nait": 5943,
      "nier": 5944,
      "nings": 5945,
      "nÃ©es": 5946,
      "nasse": 5947,
      "nike": 5948,
      "oh": 5949,
      "ov": 5950,
      "oing": 5951,
      "oqu": 5952,
      "oct": 5953,
      "oine": 5954,
      "ooth": 5955,
      "pent": 5956,
      "pet": 5957,
      "pay": 5958,
      "pill": 5959,
      "pub": 5960,
      "post": 5961,
      "palement": 5962,
      "pcu": 5963,
      "qlo": 5964,
      "qcca": 5965,
      "rt": 5966,
      "ron": 5967,
      "rat": 5968,
      "ril": 5969,
      "rid": 5970,
      "ront": 5971,
      "rant": 5972,
      "rage": 5973,
      "rue": 5974,
      "rup": 5975,
      "rated": 5976,
      "rough": 5977,
      "rÃª": 5978,
      "roup": 5979,
      "rwh": 5980,
      "raint": 5981,
      "rich": 5982,
      "rances": 5983,
      "rÃªt": 5984,
      "raient": 5985,
      "rangers": 5986,
      "rgb": 5987,
      "sl": 5988,
      "ser": 5989,
      "ses": 5990,
      "sed": 5991,
      "sol": 5992,
      "sse": 5993,
      "some": 5994,
      "self": 5995,
      "sxj": 5996,
      "tl": 5997,
      "tem": 5998,
      "tres": 5999,
      "uing": 6000,
      "uate": 6001,
      "upe": 6002,
      "ups": 6003,
      "uated": 6004,
      "uence": 6005,
      "uary": 6006,
      "uils": 6007,
      "uves": 6008,
      "uvre": 6009,
      "vaires": 6010,
      "vements": 6011,
      "vaise": 6012,
      "wl": 6013,
      "wers": 6014,
      "west": 6015,
      "worth": 6016,
      "xp": 6017,
      "xit": 6018,
      "xoph": 6019,
      "yx": 6020,
      "yfriend": 6021,
      "ygues": 6022,
      "zaine": 6023,
      "zerb": 6024,
      "Ġ<": 6025,
      "Ġiv": 6026,
      "Ġol": 6027,
      "Ġir": 6028,
      "Ġong": 6029,
      "Ġ00": 6030,
      "ina": 6031,
      "iny": 6032,
      "init": 6033,
      "inet": 6034,
      "inating": 6035,
      "inced": 6036,
      "reg": 6037,
      "rez": 6038,
      "rees": 6039,
      "ream": 6040,
      "relect": 6041,
      "renc": 6042,
      "recycle": 6043,
      "refour": 6044,
      "relle": 6045,
      "Ġsen": 6046,
      "ĠsÃ©": 6047,
      "Ġsers": 6048,
      "Ġsour": 6049,
      "Ġsie": 6050,
      "Ġsait": 6051,
      "Ġsink": 6052,
      "ĠsÃ©r": 6053,
      "Ġsits": 6054,
      "Ġsains": 6055,
      "Ġsided": 6056,
      "ĠsÃ©p": 6057,
      "Ġsides": 6058,
      "Ġsvp": 6059,
      "Ġscience": 6060,
      "Ġsalles": 6061,
      "Ġpit": 6062,
      "ĠpÃ©": 6063,
      "Ġpig": 6064,
      "Ġpound": 6065,
      "Ġpum": 6066,
      "Ġpote": 6067,
      "ĠpÃ©n": 6068,
      "ĠpÃ©d": 6069,
      "ĠpÃ©ri": 6070,
      "Ġcb": 6071,
      "Ġci": 6072,
      "Ġct": 6073,
      "Ġcu": 6074,
      "Ġcer": 6075,
      "Ġcote": 6076,
      "Ġcath": 6077,
      "Ġcuis": 6078,
      "Ġcts": 6079,
      "Ġcoute": 6080,
      "Ġciel": 6081,
      "onic": 6082,
      "onom": 6083,
      "onel": 6084,
      "onate": 6085,
      "oniste": 6086,
      "err": 6087,
      "erre": 6088,
      "erly": 6089,
      "erie": 6090,
      "erait": 6091,
      "erous": 6092,
      "erne": 6093,
      "erable": 6094,
      "erations": 6095,
      "eria": 6096,
      "ercise": 6097,
      "env": 6098,
      "enfant": 6099,
      "Ġais": 6100,
      "Ġale": 6101,
      "Ġaide": 6102,
      "Ġaux": 6103,
      "Ġaffic": 6104,
      "Ġains": 6105,
      "Ġaiment": 6106,
      "Ġandre": 6107,
      "Ġafr": 6108,
      "Ġaustr": 6109,
      "Ġaider": 6110,
      "Ġazerb": 6111,
      "Ġtd": 6112,
      "Ġtal": 6113,
      "Ġtom": 6114,
      "Ġtro": 6115,
      "Ġtld": 6116,
      "Ġtire": 6117,
      "Ġtear": 6118,
      "Ġtens": 6119,
      "Ġtight": 6120,
      "Ġtall": 6121,
      "Ġtown": 6122,
      "Ġtues": 6123,
      "Ġtrent": 6124,
      "Ġtree": 6125,
      "Ġtrol": 6126,
      "Ġtatt": 6127,
      "Ġtik": 6128,
      "Ġtonne": 6129,
      "Ġtips": 6130,
      "Ġtma": 6131,
      "Ġtony": 6132,
      "Ġtiles": 6133,
      "Ġtoler": 6134,
      "Ġtiny": 6135,
      "esures": 6136,
      "escience": 6137,
      "Ġlc": 6138,
      "Ġlone": 6139,
      "Ġlav": 6140,
      "Ġlab": 6141,
      "Ġlarg": 6142,
      "Ġlane": 6143,
      "Ġlying": 6144,
      "Ġlany": 6145,
      "Ġleng": 6146,
      "Ġlaisse": 6147,
      "Ġlignes": 6148,
      "Ġlrt": 6149,
      "ouver": 6150,
      "ouvern": 6151,
      "ouns": 6152,
      "anqu": 6153,
      "anical": 6154,
      "annÃ©es": 6155,
      "anuary": 6156,
      "Ġmou": 6157,
      "Ġmic": 6158,
      "Ġmas": 6159,
      "Ġmel": 6160,
      "Ġmpp": 6161,
      "Ġmie": 6162,
      "ĠmÃ¨": 6163,
      "Ġmast": 6164,
      "Ġmart": 6165,
      "Ġmater": 6166,
      "Ġmale": 6167,
      "Ġmount": 6168,
      "Ġmember": 6169,
      "ĠmÃ©d": 6170,
      "Ġmanger": 6171,
      "Ġmtl": 6172,
      "Ġmesures": 6173,
      "Ġda": 6174,
      "Ġdan": 6175,
      "Ġding": 6176,
      "Ġdal": 6177,
      "Ġdom": 6178,
      "Ġdest": 6179,
      "Ġdav": 6180,
      "Ġdie": 6181,
      "Ġdang": 6182,
      "Ġdub": 6183,
      "Ġdents": 6184,
      "ĠdÃ¨s": 6185,
      "Ġdict": 6186,
      "Ġdual": 6187,
      "Ġdund": 6188,
      "Ġdeter": 6189,
      "Ġdanger": 6190,
      "Ġdump": 6191,
      "Ġdensity": 6192,
      "ington": 6193,
      "itr": 6194,
      "iter": 6195,
      "itent": 6196,
      "itation": 6197,
      "itable": 6198,
      "itaire": 6199,
      "itions": 6200,
      "itieux": 6201,
      "isir": 6202,
      "ishing": 6203,
      "isque": 6204,
      "Ġfer": 6205,
      "Ġfou": 6206,
      "Ġfas": 6207,
      "Ġfau": 6208,
      "Ġfass": 6209,
      "Ġfier": 6210,
      "Ġfli": 6211,
      "Ġflow": 6212,
      "Ġfarm": 6213,
      "Ġfpr": 6214,
      "Ġfelt": 6215,
      "Ġfilled": 6216,
      "Ġfaster": 6217,
      "Ġfaud": 6218,
      "Ġfancy": 6219,
      "arc": 6220,
      "arl": 6221,
      "arat": 6222,
      "arity": 6223,
      "ario": 6224,
      "aroute": 6225,
      "ald": 6226,
      "aly": 6227,
      "aler": 6228,
      "aled": 6229,
      "alog": 6230,
      "alys": 6231,
      "alties": 6232,
      "alisation": 6233,
      "Ġbs": 6234,
      "Ġbin": 6235,
      "ĠbÃ©": 6236,
      "Ġbom": 6237,
      "Ġbun": 6238,
      "Ġbow": 6239,
      "Ġbend": 6240,
      "Ġbul": 6241,
      "Ġbang": 6242,
      "Ġball": 6243,
      "ĠbÃ©t": 6244,
      "Ġbois": 6245,
      "Ġbins": 6246,
      "Ġbull": 6247,
      "Ġbats": 6248,
      "Ġbatt": 6249,
      "Ġbird": 6250,
      "Ġbored": 6251,
      "aters": 6252,
      "atures": 6253,
      "atiquement": 6254,
      "Ġwim": 6255,
      "Ġwere": 6256,
      "Ġwear": 6257,
      "Ġward": 6258,
      "Ġwave": 6259,
      "Ġwages": 6260,
      "Ġwaking": 6261,
      "Ġwash": 6262,
      "Ġwives": 6263,
      "Ġwfh": 6264,
      "orce": 6265,
      "oration": 6266,
      "orse": 6267,
      "orance": 6268,
      "orge": 6269,
      "orial": 6270,
      "orolog": 6271,
      "oritÃ©s": 6272,
      "eded": 6273,
      "edom": 6274,
      "Ġgne": 6275,
      "Ġgue": 6276,
      "ĠgÃ¨re": 6277,
      "ĠgÃ©rer": 6278,
      "Ġgolf": 6279,
      "Ġgender": 6280,
      "Ġgouvern": 6281,
      "Ġnu": 6282,
      "Ġner": 6283,
      "Ġnut": 6284,
      "Ġnation": 6285,
      "Ġnap": 6286,
      "Ġnose": 6287,
      "Ġnaz": 6288,
      "Ġnouv": 6289,
      "Ġnative": 6290,
      "Ġnope": 6291,
      "Ġnah": 6292,
      "Ġnye": 6293,
      "Ġnike": 6294,
      "Ġnaj": 6295,
      "entions": 6296,
      "entrer": 6297,
      "Ã©ch": 6298,
      "Ã©ress": 6299,
      "Ã©quent": 6300,
      "Ġhat": 6301,
      "Ġhow": 6302,
      "Ġhack": 6303,
      "Ġhide": 6304,
      "Ġhood": 6305,
      "Ġhash": 6306,
      "Ġhipp": 6307,
      "Ġhired": 6308,
      "Ġhabite": 6309,
      "Ġhonte": 6310,
      "Ġhouns": 6311,
      "ica": 6312,
      "icking": 6313,
      "ician": 6314,
      "icultural": 6315,
      "icnike": 6316,
      "etre": 6317,
      "etait": 6318,
      "otesp": 6319,
      "otaroute": 6320,
      "Ġrely": 6321,
      "Ġreci": 6322,
      "Ġreaching": 6323,
      "Ġreloc": 6324,
      "ĠreÃ§you": 6325,
      "Ġreasons": 6326,
      "oma": 6327,
      "omers": 6328,
      "lys": 6329,
      "lymp": 6330,
      "Ġec": 6331,
      "Ġep": 6332,
      "Ġelic": 6333,
      "Ġelev": 6334,
      "Ġefficient": 6335,
      "Ġelement": 6336,
      "Ġezz": 6337,
      "ilant": 6338,
      "ilca": 6339,
      "ionally": 6340,
      "roit": 6341,
      "ask": 6342,
      "asin": 6343,
      "asis": 6344,
      "ased": 6345,
      "asury": 6346,
      "user": 6347,
      "usal": 6348,
      "usage": 6349,
      "aced": 6350,
      "acter": 6351,
      "acher": 6352,
      "accept": 6353,
      "acerb": 6354,
      "acuated": 6355,
      "Ġvid": 6356,
      "Ġvig": 6357,
      "Ġvag": 6358,
      "Ġvice": 6359,
      "Ġvint": 6360,
      "ĠvÃ©r": 6361,
      "ĠvÃªt": 6362,
      "Ġvroom": 6363,
      "Ġvlad": 6364,
      "eles": 6365,
      "elas": 6366,
      "elming": 6367,
      "Ġstad": 6368,
      "Ġstain": 6369,
      "Ġstack": 6370,
      "Ġstated": 6371,
      "Ġstra": 6372,
      "Ġstuck": 6373,
      "Ġstale": 6374,
      "Ġstade": 6375,
      "Ġstories": 6376,
      "Ġsticking": 6377,
      "opare": 6378,
      "opcom": 6379,
      "opÃ©r": 6380,
      "opular": 6381,
      "oppos": 6382,
      "oplie": 6383,
      "opÃ©ra": 6384,
      "aying": 6385,
      "Ġrire": 6386,
      "Ġroug": 6387,
      "Ġrays": 6388,
      "Ġruss": 6389,
      "Ġrule": 6390,
      "Ġraid": 6391,
      "Ġrug": 6392,
      "Ġravi": 6393,
      "Ġrush": 6394,
      "Ġrangers": 6395,
      "ĠrÃ¢": 6396,
      "Ġraj": 6397,
      "Ġripped": 6398,
      "Ġrdv": 6399,
      "Ġrfp": 6400,
      "Ġryers": 6401,
      "ids": 6402,
      "idst": 6403,
      "idents": 6404,
      "idarity": 6405,
      "ivered": 6406,
      "olu": 6407,
      "olic": 6408,
      "olition": 6409,
      "olution": 6410,
      "olaorg": 6411,
      "ersive": 6412,
      "emp": 6413,
      "emote": 6414,
      "emade": 6415,
      "emotesp": 6416,
      "Ġthin": 6417,
      "Ġthird": 6418,
      "Ġthames": 6419,
      "Ġthieves": 6420,
      "Ġinte": 6421,
      "chy": 6422,
      "chand": 6423,
      "chool": 6424,
      "change": 6425,
      "stit": 6426,
      "sters": 6427,
      "stances": 6428,
      "Ġisof": 6429,
      "estal": 6430,
      "estine": 6431,
      "estyle": 6432,
      "urant": 6433,
      "urally": 6434,
      "urry": 6435,
      "urilca": 6436,
      "Ġtrim": 6437,
      "Ġtrips": 6438,
      "Ġtranqu": 6439,
      "antes": 6440,
      "Ġnote": 6441,
      "Ġnotification": 6442,
      "Ġnotamment": 6443,
      "utal": 6444,
      "adv": 6445,
      "ading": 6446,
      "aded": 6447,
      "adel": 6448,
      "adore": 6449,
      "aged": 6450,
      "agog": 6451,
      "agues": 6452,
      "agree": 6453,
      "Ġja": 6454,
      "Ġjer": 6455,
      "Ġjou": 6456,
      "Ġjet": 6457,
      "Ġjur": 6458,
      "Ġjays": 6459,
      "Ġjones": 6460,
      "Ġjoint": 6461,
      "Ġjeter": 6462,
      "Ġjane": 6463,
      "Ġjuly": 6464,
      "Ġjanuary": 6465,
      "Ġchop": 6466,
      "Ġchant": 6467,
      "Ġchill": 6468,
      "Ġchain": 6469,
      "Ġchine": 6470,
      "Ġchier": 6471,
      "Ġchase": 6472,
      "Ġchief": 6473,
      "Ġchiant": 6474,
      "Ġchasing": 6475,
      "Ġchrist": 6476,
      "ĠcomitÃ©s": 6477,
      "Ġplays": 6478,
      "Ġplup": 6479,
      "Ġpluie": 6480,
      "Ġplotaroute": 6481,
      "iry": 6482,
      "iring": 6483,
      "irait": 6484,
      "irmed": 6485,
      "Ġquas": 6486,
      "Ġquid": 6487,
      "Ġquadr": 6488,
      "amis": 6489,
      "amic": 6490,
      "ammy": 6491,
      "ammed": 6492,
      "amoring": 6493,
      "Ġpears": 6494,
      "Ġalter": 6495,
      "Ġalert": 6496,
      "Ġalcool": 6497,
      "very": 6498,
      "Ġya": 6499,
      "Ġyog": 6500,
      "Ġyelled": 6501,
      "Ġyester": 6502,
      "Ġparm": 6503,
      "Ġpardon": 6504,
      "Ġparano": 6505,
      "Ġgosse": 6506,
      "Ġpros": 6507,
      "Ġproch": 6508,
      "seau": 6509,
      "Ġsears": 6510,
      "Ġseats": 6511,
      "Ġseoul": 6512,
      "Ġsegment": 6513,
      "Ġsealed": 6514,
      "enders": 6515,
      "endroit": 6516,
      "avenue": 6517,
      "avoue": 6518,
      "bleau": 6519,
      "bledon": 6520,
      "pper": 6521,
      "ppery": 6522,
      "andal": 6523,
      "ulter": 6524,
      "ulaire": 6525,
      "ourful": 6526,
      "Ġdodgy": 6527,
      "Ġcones": 6528,
      "Ġconverted": 6529,
      "Ġconvey": 6530,
      "Ġcongestion": 6531,
      "menter": 6532,
      "mentaire": 6533,
      "Ġliz": 6534,
      "Ġlift": 6535,
      "ĠliÃ©es": 6536,
      "Ġlibre": 6537,
      "Ġlibr": 6538,
      "Ġliban": 6539,
      "Ġlikel": 6540,
      "Ġliaison": 6541,
      "Ġsupre": 6542,
      "Ġsucce": 6543,
      "istent": 6544,
      "istine": 6545,
      "istics": 6546,
      "Ġexorc": 6547,
      "Ġexotic": 6548,
      "Ġexagger": 6549,
      "Ġexercise": 6550,
      "Ġexacerb": 6551,
      "Ġexchange": 6552,
      "ereux": 6553,
      "erers": 6554,
      "essed": 6555,
      "Ġloss": 6556,
      "Ġlooph": 6557,
      "Ġloisir": 6558,
      "iev": 6559,
      "iece": 6560,
      "Ġdea": 6561,
      "Ġdeals": 6562,
      "Ġdeaf": 6563,
      "peparis": 6564,
      "outs": 6565,
      "outer": 6566,
      "outing": 6567,
      "outub": 6568,
      "Ġ250": 6569,
      "rip": 6570,
      "rial": 6571,
      "ried": 6572,
      "Ã¨ce": 6573,
      "Ã¨che": 6574,
      "Ġamis": 6575,
      "Ġample": 6576,
      "ĠarriÃ¨re": 6577,
      "Ġshat": 6578,
      "Ġshel": 6579,
      "Ġshad": 6580,
      "Ġsham": 6581,
      "Ġshru": 6582,
      "Ġshelf": 6583,
      "Ġshelt": 6584,
      "Ġshape": 6585,
      "Ġshouting": 6586,
      "resbu": 6587,
      "Ġos": 6588,
      "Ġoak": 6589,
      "Ġolymp": 6590,
      "Ġanci": 6591,
      "Ġkil": 6592,
      "Ġ120": 6593,
      "Ġ199": 6594,
      "aises": 6595,
      "aule": 6596,
      "aude": 6597,
      "enses": 6598,
      "ensemble": 6599,
      "look": 6600,
      "tering": 6601,
      "terly": 6602,
      "Ġunused": 6603,
      "Ġunfair": 6604,
      "Ġunaffordable": 6605,
      "Ġunoccup": 6606,
      "neux": 6607,
      "news": 6608,
      "cier": 6609,
      "cient": 6610,
      "cipalement": 6611,
      "Ġpoly": 6612,
      "Ġpoche": 6613,
      "Ġpogn": 6614,
      "Ġpric": 6615,
      "Ġprint": 6616,
      "ĠprÃ¨s": 6617,
      "Ġprise": 6618,
      "ĠprÃ©c": 6619,
      "Ġpratique": 6620,
      "Ġpraying": 6621,
      "Ġpristine": 6622,
      "Ġleather": 6623,
      "Ġlequel": 6624,
      "asters": 6625,
      "aret": 6626,
      "arenc": 6627,
      "arette": 6628,
      "Ġcompt": 6629,
      "Ġcompat": 6630,
      "Ġcomply": 6631,
      "Ġcompost": 6632,
      "Ġcompatis": 6633,
      "Ġusage": 6634,
      "Ġusagers": 6635,
      "Ġtaille": 6636,
      "Ġmak": 6637,
      "Ġmail": 6638,
      "Ġmaire": 6639,
      "Ġmaurilca": 6640,
      "urement": 6641,
      "ounds": 6642,
      "Ġmood": 6643,
      "Ġmovie": 6644,
      "ssard": 6645,
      "ssrgb": 6646,
      "abs": 6647,
      "abak": 6648,
      "tee": 6649,
      "text": 6650,
      "itecture": 6651,
      "Ġbug": 6652,
      "Ġbugg": 6653,
      "aprÃ¨s": 6654,
      "cket": 6655,
      "ueille": 6656,
      "Ġcanli": 6657,
      "Ġevid": 6658,
      "Ġevidence": 6659,
      "Ġevacuated": 6660,
      "Ġmontpar": 6661,
      "Ġmontmart": 6662,
      "Ġappearing": 6663,
      "Ġappareil": 6664,
      "Ġapplies": 6665,
      "Ġappropri": 6666,
      "Ġclou": 6667,
      "Ġclaph": 6668,
      "Ġclamoring": 6669,
      "assed": 6670,
      "ienne": 6671,
      "Ġbeat": 6672,
      "Ġbeans": 6673,
      "Ġprepar": 6674,
      "Ġprevent": 6675,
      "Ġprefere": 6676,
      "Ġpredatory": 6677,
      "Ġcontempt": 6678,
      "aioti": 6679,
      "aijan": 6680,
      "Ġmeg": 6681,
      "Ġmech": 6682,
      "Ġmeant": 6683,
      "Ġmeats": 6684,
      "Ġ2038": 6685,
      "umb": 6686,
      "umes": 6687,
      "acters": 6688,
      "ĠmaniÃ¨re": 6689,
      "ĠdÃ©l": 6690,
      "ĠdÃ©plac": 6691,
      "ĠdÃ©mar": 6692,
      "ĠdÃ©Ã§you": 6693,
      "ĠdÃ©guis": 6694,
      "Ġ34": 6695,
      "Ġ39": 6696,
      "Ġcore": 6697,
      "Ġcoal": 6698,
      "Ġcoat": 6699,
      "Ġcover": 6700,
      "Ġcooking": 6701,
      "ĠcoÃ»": 6702,
      "Ġparisian": 6703,
      "Ġeverytime": 6704,
      "Ġsaxoph": 6705,
      "Ġsausage": 6706,
      "Ġgrad": 6707,
      "Ġgrace": 6708,
      "Ġgrab": 6709,
      "Ġgranted": 6710,
      "Ġparts": 6711,
      "Ġpartant": 6712,
      "apped": 6713,
      "Ġopus": 6714,
      "ĠopÃ©r": 6715,
      "Ġspent": 6716,
      "Ġspoke": 6717,
      "Ġspark": 6718,
      "Ġspring": 6719,
      "Ġsplit": 6720,
      "Ġdrag": 6721,
      "Ġhein": 6722,
      "oken": 6723,
      "udi": 6724,
      "ĠfrÃ©quent": 6725,
      "Ġfraude": 6726,
      "igny": 6727,
      "ignon": 6728,
      "ignons": 6729,
      "Ġseeking": 6730,
      "Ġevening": 6731,
      "orer": 6732,
      "Ġash": 6733,
      "Ġasleep": 6734,
      "Ġknown": 6735,
      "Ġworkplace": 6736,
      "Ġincom": 6737,
      "Ġinconn": 6738,
      "Ġrobe": 6739,
      "Ġado": 6740,
      "Ġadvert": 6741,
      "Ġadresse": 6742,
      "Ġadapt": 6743,
      "Ġanytime": 6744,
      "Ġanybody": 6745,
      "ishments": 6746,
      "ift": 6747,
      "ifying": 6748,
      "osing": 6749,
      "upmond": 6750,
      "Ġresell": 6751,
      "Ġreside": 6752,
      "Ġreserv": 6753,
      "Ġresulting": 6754,
      "Ġrescue": 6755,
      "Ġresource": 6756,
      "ierre": 6757,
      "illette": 6758,
      "Ġmetrop": 6759,
      "Ġmetals": 6760,
      "there": 6761,
      "through": 6762,
      "Ġavion": 6763,
      "Ġwhipped": 6764,
      "Ġfees": 6765,
      "Ġfeature": 6766,
      "Ġfebru": 6767,
      "Ġcron": 6768,
      "Ġcrap": 6769,
      "Ġcraint": 6770,
      "Ġcrasse": 6771,
      "Ġcrimes": 6772,
      "Ġcouver": 6773,
      "Ġcouler": 6774,
      "Ġbrand": 6775,
      "Ġbrother": 6776,
      "Ġbrings": 6777,
      "Ġbrothers": 6778,
      "ĠbrÃ»": 6779,
      "Ġbruit": 6780,
      "Ġbrands": 6781,
      "Ġbrutal": 6782,
      "compl": 6783,
      "Ġacting": 6784,
      "Ġactuellement": 6785,
      "lied": 6786,
      "erves": 6787,
      "ervice": 6788,
      "ervÃ©s": 6789,
      "Ġplacee": 6790,
      "berry": 6791,
      "Ġending": 6792,
      "Ġtoo": 6793,
      "Ġtoss": 6794,
      "Ġtooth": 6795,
      "Ġtoby": 6796,
      "Ġtofu": 6797,
      "Ġtoxic": 6798,
      "Ġwanting": 6799,
      "ĠrÃ©el": 6800,
      "ĠrÃ©ch": 6801,
      "ĠrÃ©gl": 6802,
      "ĠrÃ©du": 6803,
      "ĠrÃ©fr": 6804,
      "ĠrÃ©alist": 6805,
      "ĠrÃ©agir": 6806,
      "ĠrÃ©seau": 6807,
      "Ġstream": 6808,
      "ultes": 6809,
      "lications": 6810,
      "Ġagend": 6811,
      "Ġagents": 6812,
      "Ġagric": 6813,
      "Ġagency": 6814,
      "Ġdisons": 6815,
      "Ġdispos": 6816,
      "Ġdisaster": 6817,
      "Ġdismant": 6818,
      "Ġdisagree": 6819,
      "Ġremplac": 6820,
      "Ġrememb": 6821,
      "Ġrembours": 6822,
      "Ġcaring": 6823,
      "ĠcarrÃ©": 6824,
      "Ġcarnet": 6825,
      "Ġcarrefour": 6826,
      "Ġtorn": 6827,
      "Ġtories": 6828,
      "2024": 6829,
      "20895": 6830,
      "Ġtheater": 6831,
      "Ġtheory": 6832,
      "uche": 6833,
      "Ġsoi": 6834,
      "Ġsooo": 6835,
      "Ġdix": 6836,
      "Ġdied": 6837,
      "Ġblanche": 6838,
      "Ġchefs": 6839,
      "Ġchecking": 6840,
      "ptions": 6841,
      "Ġpoll": 6842,
      "Ġpolls": 6843,
      "Ġlongtem": 6844,
      "Ġmarin": 6845,
      "Ġmarque": 6846,
      "Ġmarques": 6847,
      "Ġbacked": 6848,
      "Ġbackup": 6849,
      "Ġbackground": 6850,
      "oise": 6851,
      "Ġscar": 6852,
      "Ġscale": 6853,
      "Ġscaff": 6854,
      "Ġscares": 6855,
      "Ġscandal": 6856,
      "Ġpubs": 6857,
      "Ġfail": 6858,
      "Ġfailing": 6859,
      "Ġguests": 6860,
      "Ġregents": 6861,
      "Ġregret": 6862,
      "Ġregistry": 6863,
      "Ġintention": 6864,
      "Ġintellig": 6865,
      "Ġintonate": 6866,
      "Ġweekends": 6867,
      "Ġweekday": 6868,
      "Ġenter": 6869,
      "Ġentendre": 6870,
      "Ġentendu": 6871,
      "Ġentrances": 6872,
      "Ġeta": 6873,
      "Ġinfant": 6874,
      "Ġinfract": 6875,
      "Ġinfinite": 6876,
      "Ġtransf": 6877,
      "Ġtransaction": 6878,
      "Ġ54": 6879,
      "Ġ50000": 6880,
      "Ġtwenty": 6881,
      "raid": 6882,
      "iously": 6883,
      "ogno": 6884,
      "Ġ42": 6885,
      "Ġ43": 6886,
      "Ġ45": 6887,
      "Ġ400": 6888,
      "Ġpayment": 6889,
      "ancing": 6890,
      "anced": 6891,
      "Ġfried": 6892,
      "Ġboire": 6893,
      "Ġboley": 6894,
      "Ġboyfriend": 6895,
      "Ġboomers": 6896,
      "Ġgoths": 6897,
      "ached": 6898,
      "achÃ©": 6899,
      "climit": 6900,
      "iph": 6901,
      "Ġaccom": 6902,
      "Ġaccueille": 6903,
      "Ġfamous": 6904,
      "Ġfamilles": 6905,
      "Ã©ral": 6906,
      "Ã©rant": 6907,
      "Ġcentres": 6908,
      "Ġgreater": 6909,
      "Ġgrenelle": 6910,
      "whelming": 6911,
      "Ġapril": 6912,
      "Ġcanadiens": 6913,
      "Ġoldreddit": 6914,
      "Ġpassent": 6915,
      "ĠpassÃ©e": 6916,
      "Ġlivrer": 6917,
      "Ġchanging": 6918,
      "Ġchangement": 6919,
      "gles": 6920,
      "Ġserving": 6921,
      "Ġservent": 6922,
      "Ġfinance": 6923,
      "Ġfinish": 6924,
      "Ġfinished": 6925,
      "Ġemph": 6926,
      "ĠconsÃ©qu": 6927,
      "Ġconscient": 6928,
      "Ġtourne": 6929,
      "Ġtouriste": 6930,
      "Ġwwii": 6931,
      "ussures": 6932,
      "Ġveget": 6933,
      "Ġveulent": 6934,
      "Ġinsta": 6935,
      "Ġinstinct": 6936,
      "ĠÃ©lev": 6937,
      "Ġfaith": 6938,
      "ressive": 6939,
      "Ġpointed": 6940,
      "Ġpointless": 6941,
      "oyer": 6942,
      "oyens": 6943,
      "Ġliteral": 6944,
      "Ġlittering": 6945,
      "velty": 6946,
      "Ġgenerations": 6947,
      "Ġnons": 6948,
      "Ġnoneth": 6949,
      "Ġinterdit": 6950,
      "Ġexpand": 6951,
      "Ġexpli": 6952,
      "Ġexpression": 6953,
      "Ġexpired": 6954,
      "Ġexpiry": 6955,
      "nerie": 6956,
      "Ġsms": 6957,
      "Ġsmic": 6958,
      "Ġsmooth": 6959,
      "Ġassets": 6960,
      "Ġmayfair": 6961,
      "ĠdonnÃ©": 6962,
      "issant": 6963,
      "issaug": 6964,
      "Ġinsulting": 6965,
      "Ġinspir": 6966,
      "Ġinsulter": 6967,
      "Ġtravelling": 6968,
      "Ġbuilds": 6969,
      "Ġwwwl": 6970,
      "Ġwwwth": 6971,
      "Ġwwwface": 6972,
      "Ġwwwtr": 6973,
      "Ġwwwtoronto": 6974,
      "Ġwwwmac": 6975,
      "Ġwwwleg": 6976,
      "Ġwwwrecycle": 6977,
      "Ġwwwolaorg": 6978,
      "Ġattended": 6979,
      "Ġattempt": 6980,
      "Ġflav": 6981,
      "Ġflight": 6982,
      "Ġflats": 6983,
      "Ġfirms": 6984,
      "Ġhello": 6985,
      "Ġvisual": 6986,
      "Ġtrainer": 6987,
      "Ġarriver": 6988,
      "Ġcertific": 6989,
      "Ġmini": 6990,
      "Ġminus": 6991,
      "Ġdesire": 6992,
      "Ġdeserves": 6993,
      "Ġdirections": 6994,
      "Ġrecover": 6995,
      "Ġrecruit": 6996,
      "Ġconcr": 6997,
      "Ġarticles": 6998,
      "Ġratio": 6999,
      "Ġindia": 7000,
      "Ġindiqu": 7001,
      "ĠindÃ©p": 7002,
      "Ġoffered": 7003,
      "Ġoffense": 7004,
      "Ġoffenders": 7005,
      "âĢ¦\"": 7006,
      "izz": 7007,
      "Ġupgr": 7008,
      "Ġupload": 7009,
      "Ġupbring": 7010,
      "Ġmondays": 7011,
      "Ġwithholding": 7012,
      "Ġcommuniqu": 7013,
      "Ġcolor": 7014,
      "Ġcolours": 7015,
      "Ġcolourful": 7016,
      "Ġsecured": 7017,
      "Ġposting": 7018,
      "Ġimplies": 7019,
      "Ġimpressive": 7020,
      "Ġsurge": 7021,
      "Ġputney": 7022,
      "Ġcurry": 7023,
      "Ġcurious": 7024,
      "Ġelling": 7025,
      "ĠsupplÃ©": 7026,
      "ibil": 7027,
      "Ġzones": 7028,
      "Ġzoos": 7029,
      "Ġzombie": 7030,
      "Ġcroy": 7031,
      "Ġcrown": 7032,
      "Ġcrowd": 7033,
      "Ġrefer": 7034,
      "Ġrefres": 7035,
      "Ġrefaire": 7036,
      "Ġreflect": 7037,
      "Ġrefund": 7038,
      "vernment": 7039,
      "Ġconstit": 7040,
      "Ġconstance": 7041,
      "Ġhappening": 7042,
      "Ġcertaine": 7043,
      "Ġsites": 7044,
      "Ġpopping": 7045,
      "Ġdemocracy": 7046,
      "Ġdemolition": 7047,
      "Ġblog": 7048,
      "Ġblood": 7049,
      "Ġbloquent": 7050,
      "Ġblogs": 7051,
      "Ġrealistic": 7052,
      "Ġdecre": 7053,
      "Ġdecisions": 7054,
      "plus": 7055,
      "Ġuo": 7056,
      "Ġuelles": 7057,
      "Ġuvm": 7058,
      "Ġupper": 7059,
      "Ġkeys": 7060,
      "Ġsigned": 7061,
      "Ġsignalisation": 7062,
      "Ġcausing": 7063,
      "Ġterre": 7064,
      "Ġterror": 7065,
      "Ġviagog": 7066,
      "Ġstudy": 7067,
      "Ġstudio": 7068,
      "Ġstudied": 7069,
      "Ġjeudi": 7070,
      "Ġouter": 7071,
      "Ġoutrage": 7072,
      "Ġmature": 7073,
      "Ġmatters": 7074,
      "Ġmatelas": 7075,
      "Ġoptimum": 7076,
      "ggle": 7077,
      "Ġswim": 7078,
      "Ġswarm": 7079,
      "Ġmedian": 7080,
      "Ġmedec": 7081,
      "Ġbigot": 7082,
      "Ġwaiter": 7083,
      "Ġbehave": 7084,
      "aurais": 7085,
      "Ġ614": 7086,
      "Ġlowl": 7087,
      "Ġconvain": 7088,
      "Ġconvinced": 7089,
      "Ġ72": 7090,
      "Ġ78": 7091,
      "Ġcorners": 7092,
      "Ġlearnt": 7093,
      "ĠmusÃ©e": 7094,
      "Ġmusique": 7095,
      "Ġmuslim": 7096,
      "Ġadvis": 7097,
      "Ġcounter": 7098,
      "Ġregards": 7099,
      "Ġregarding": 7100,
      "ĠregardÃ©": 7101,
      "Ġhelping": 7102,
      "autom": 7103,
      "Ġ900": 7104,
      "Ġ973": 7105,
      "Ġdelicious": 7106,
      "Ġdelivered": 7107,
      "Ġbreaking": 7108,
      "Ġbrexit": 7109,
      "Ġgrosses": 7110,
      "Ġrelativement": 7111,
      "asonable": 7112,
      "ĠimmÃ©d": 7113,
      "Ġimmersion": 7114,
      "Ġ2017": 7115,
      "Ġ2019": 7116,
      "Ġdriven": 7117,
      "Ġpeter": 7118,
      "Ġpetty": 7119,
      "Ġportes": 7120,
      "Ġportant": 7121,
      "Ġportable": 7122,
      "Ġcalm": 7123,
      "Ġcalend": 7124,
      "Ġcourir": 7125,
      "ĠcapacitÃ©": 7126,
      "Ġcapuche": 7127,
      "Ġmenace": 7128,
      "Ġdownload": 7129,
      "Ġrepre": 7130,
      "Ġreply": 7131,
      "Ġreprim": 7132,
      "Ġreplied": 7133,
      "Ġstrange": 7134,
      "Ġstranger": 7135,
      "ception": 7136,
      "Ġexpert": 7137,
      "Ġexperienc": 7138,
      "Ġ88": 7139,
      "Ġsorte": 7140,
      "Ġtyrwh": 7141,
      "Ġbiking": 7142,
      "Ġbiais": 7143,
      "Ġbiens": 7144,
      "Ġreviens": 7145,
      "Ġreviend": 7146,
      "Ġdeven": 7147,
      "Ġdevrait": 7148,
      "Ġdevraient": 7149,
      "Ġtaxed": 7150,
      "Ġtaxpay": 7151,
      "Ġ2026": 7152,
      "Ġcalling": 7153,
      "encing": 7154,
      "Ġforum": 7155,
      "Ġforget": 7156,
      "Ġnormale": 7157,
      "Ġretard": 7158,
      "Ġchildcare": 7159,
      "Ġspeaker": 7160,
      "Ġspeakers": 7161,
      "ahah": 7162,
      "Ġouch": 7163,
      "Ġoubl": 7164,
      "Ġoubli": 7165,
      "Ġedmonton": 7166,
      "Ġaffaire": 7167,
      "Ġworthless": 7168,
      "Ġeffet": 7169,
      "Ġcontinual": 7170,
      "Ġinterests": 7171,
      "Ġontariop": 7172,
      "aider": 7173,
      "aidfm": 7174,
      "Ã§ons": 7175,
      "Ġsolidarity": 7176,
      "Ġsemelles": 7177,
      "Ġsembl": 7178,
      "Ġcreates": 7179,
      "Ġtouche": 7180,
      "Ġtops": 7181,
      "Ġmidi": 7182,
      "Ġmilliers": 7183,
      "Ġmessages": 7184,
      "Ġnumerous": 7185,
      "Ġharder": 7186,
      "Ġdefic": 7187,
      "Ġdefense": 7188,
      "Ġdefault": 7189,
      "Ġmeetupmond": 7190,
      "Ġvisiting": 7191,
      "Ġsecondes": 7192,
      "Ġkeeping": 7193,
      "Ġjusteat": 7194,
      "ĠmÃ©tros": 7195,
      "ugle": 7196,
      "Ġaward": 7197,
      "Ġawful": 7198,
      "Ġmains": 7199,
      "arrival": 7200,
      "Ġheart": 7201,
      "Ġhearing": 7202,
      "Ġvalable": 7203,
      "Ġvalises": 7204,
      "Ġqualify": 7205,
      "Ġconfident": 7206,
      "Ġconfidence": 7207,
      "Ġconfiance": 7208,
      "Ġconfirmed": 7209,
      "Ġdiscount": 7210,
      "Ġdiscret": 7211,
      "Ġdiscrim": 7212,
      "Ġdiscuter": 7213,
      "Ġconstruit": 7214,
      "grity": 7215,
      "Ġserrer": 7216,
      "Ġsett": 7217,
      "Ġcyclistes": 7218,
      "Ġbrown": 7219,
      "Ġbrocante": 7220,
      "Ġbrossard": 7221,
      "Ġhomme": 7222,
      "Ġhomeless": 7223,
      "Ġhomemade": 7224,
      "Ġsupermarket": 7225,
      "Ġautomation": 7226,
      "Ġautomatiquement": 7227,
      "Ġfautoc": 7228,
      "Ġfemin": 7229,
      "Ġwinning": 7230,
      "Ġjamie": 7231,
      "Ġjourne": 7232,
      "Ġjourney": 7233,
      "Ġjournal": 7234,
      "Ġchocol": 7235,
      "Ġqueens": 7236,
      "Ġenjoys": 7237,
      "Ġaddicts": 7238,
      "becgouv": 7239,
      "ĠnormalitÃ©": 7240,
      "prises": 7241,
      "uffer": 7242,
      "Ġpresident": 7243,
      "Ġprescri": 7244,
      "Ġpresences": 7245,
      "Ġabri": 7246,
      "Ġturning": 7247,
      "Ġturnover": 7248,
      "Ġdistur": 7249,
      "Ġdistances": 7250,
      "Ġdistrict": 7251,
      "Ġfuckery": 7252,
      "architecture": 7253,
      "Ġhistoire": 7254,
      "ĠvÃ©hicule": 7255,
      "Ġenfant": 7256,
      "Ġenforc": 7257,
      "Ġimagined": 7258,
      "Ġimaginer": 7259,
      "Ġmeaning": 7260,
      "Ġdirector": 7261,
      "Ġdirecteur": 7262,
      "Ġordinary": 7263,
      "Ġownership": 7264,
      "Ġpaname": 7265,
      "Ġpanique": 7266,
      "Ġpanoplie": 7267,
      "Ġpanaioti": 7268,
      "Ġtelling": 7269,
      "Ġwrite": 7270,
      "Ġgardiner": 7271,
      "Ġramen": 7272,
      "ologie": 7273,
      "ologique": 7274,
      "ologues": 7275,
      "underst": 7276,
      "Ġprofile": 7277,
      "Ġpossiblement": 7278,
      "Ġrespite": 7279,
      "Ġentreprises": 7280,
      "Ġinclude": 7281,
      "Ġonca": 7282,
      "Ġcamden": 7283,
      "Ġcampagne": 7284,
      "Ġcambridge": 7285,
      "atched": 7286,
      "Ġjobs": 7287,
      "Ġextend": 7288,
      "ĠextÃ©r": 7289,
      "Ġextended": 7290,
      "ĠextrÃª": 7291,
      "Ġwebsites": 7292,
      "Ġmanagers": 7293,
      "Ġarrivant": 7294,
      "ĠarrivÃ©e": 7295,
      "break": 7296,
      "brell": 7297,
      "front": 7298,
      "ficial": 7299,
      "Ġestates": 7300,
      "Ġsuspects": 7301,
      "Ġsavent": 7302,
      "Ġsavais": 7303,
      "Ġsavescience": 7304,
      "Ġtrend": 7305,
      "Ġtreated": 7306,
      "Ġtreasury": 7307,
      "Ġbagged": 7308,
      "Ġbagneux": 7309,
      "Ġearl": 7310,
      "Ġraise": 7311,
      "Ġraises": 7312,
      "Ġheading": 7313,
      "Ġheadphones": 7314,
      "ifications": 7315,
      "Ġinvestment": 7316,
      "Ġinvestors": 7317,
      "Ġidol": 7318,
      "Ġidfm": 7319,
      "Ġsalut": 7320,
      "Ġpotat": 7321,
      "Ġpotable": 7322,
      "Ġpourrais": 7323,
      "Ġmerde": 7324,
      "Ġmerchand": 7325,
      "Ġdroit": 7326,
      "Ġdrops": 7327,
      "Ġbouill": 7328,
      "Ġboulev": 7329,
      "Ġbouffe": 7330,
      "Ġbelief": 7331,
      "Ġbelgium": 7332,
      "attente": 7333,
      "Ġallowing": 7334,
      "Ġofficer": 7335,
      "Ġofficially": 7336,
      "Ġleading": 7337,
      "Ġappointments": 7338,
      "Ġcontrolled": 7339,
      "Ġmecs": 7340,
      "ĠdÃ©je": 7341,
      "Ġsuggesting": 7342,
      "Ġsuggestion": 7343,
      "301": 7344,
      "Ġideas": 7345,
      "Ġfloors": 7346,
      "Ġrendus": 7347,
      "Ġelected": 7348,
      "Ġallerg": 7349,
      "Ġallergy": 7350,
      "Ġconnections": 7351,
      "Ġamericans": 7352,
      "Ġ125": 7353,
      "Ġ12180": 7354,
      "Ġ170": 7355,
      "Ġrespectable": 7356,
      "Ġguessing": 7357,
      "Ġfunds": 7358,
      "Ġlawn": 7359,
      "Ġrecommendations": 7360,
      "ricul": 7361,
      "Ġ06": 7362,
      "inalised": 7363,
      "Ġsoucis": 7364,
      "Ġsouhait": 7365,
      "Ġsensation": 7366,
      "Ġsensible": 7367,
      "Ġsensitive": 7368,
      "Ġairport": 7369,
      "espace": 7370,
      "Ġmonarch": 7371,
      "Ġmonstr": 7372,
      "Ġmeme": 7373,
      "Ġmemory": 7374,
      "Ġmembre": 7375,
      "Ġmemories": 7376,
      "Ġmindful": 7377,
      "Ġfallu": 7378,
      "Ġfallait": 7379,
      "Ġfulltime": 7380,
      "rowdy": 7381,
      "Ġriders": 7382,
      "Ġchapeau": 7383,
      "Ġchaussures": 7384,
      "Ġplayed": 7385,
      "Ġallen": 7386,
      "ĠallÃ©e": 7387,
      "Ġparcequ": 7388,
      "Ġsexe": 7389,
      "Ġsexually": 7390,
      "Ġsexuelle": 7391,
      "Ġ15484": 7392,
      "Ġenvo": 7393,
      "Ġenvis": 7394,
      "Ġsmaller": 7395,
      "Ġukrain": 7396,
      "Ġcloser": 7397,
      "Ġbreaks": 7398,
      "Ġbreakdown": 7399,
      "merci": 7400,
      "oflow": 7401,
      "Ġeras": 7402,
      "Ġski": 7403,
      "Ġskip": 7404,
      "Ġsinging": 7405,
      "Ġlistings": 7406,
      "Ġmiserable": 7407,
      "Ġmisunderst": 7408,
      "Ġmode": 7409,
      "Ġmodern": 7410,
      "Ġmissing": 7411,
      "Ġmissed": 7412,
      "Ġmississaug": 7413,
      "Ġmaintain": 7414,
      "Ġbarking": 7415,
      "Ġwashing": 7416,
      "Ġgarant": 7417,
      "Ġnovelty": 7418,
      "Ġvilliers": 7419,
      "Ġstaticnike": 7420,
      "Ġrisques": 7421,
      "Ġsafely": 7422,
      "Ġparticip": 7423,
      "Ġsimplement": 7424,
      "Ġcrossed": 7425,
      "box": 7426,
      "boards": 7427,
      "cooking": 7428,
      "guk": 7429,
      "ipping": 7430,
      "ippet": 7431,
      "yourelect": 7432,
      "Ġurge": 7433,
      "Ġpalestine": 7434,
      "Ġpression": 7435,
      "Ġpressur": 7436,
      "Ġmassy": 7437,
      "Ġmassage": 7438,
      "Ġwasted": 7439,
      "Ġglad": 7440,
      "Ġgloves": 7441,
      "Ã©giques": 7442,
      "Ġhorse": 7443,
      "Ġhorror": 7444,
      "rooms": 7445,
      "Ġoverall": 7446,
      "ĠmobilitÃ©": 7447,
      "Ġimagesmilled": 7448,
      "ĠdÃ©cent": 7449,
      "Ġheaven": 7450,
      "Ġheavily": 7451,
      "Ġsooner": 7452,
      "Ġinformed": 7453,
      "Ġinstallation": 7454,
      "velopment": 7455,
      "Ġsurprising": 7456,
      "Ġorganis": 7457,
      "Ġorganized": 7458,
      "Ġorganizing": 7459,
      "Ġgrosse": 7460,
      "Ġseller": 7461,
      "Ġselling": 7462,
      "Ġsolde": 7463,
      "Ġpickering": 7464,
      "Ġtotal": 7465,
      "Ġdenied": 7466,
      "Ġflea": 7467,
      "Ġflex": 7468,
      "Ġboutique": 7469,
      "Ġwindow": 7470,
      "Ġwindsh": 7471,
      "Ġwindmill": 7472,
      "Ġrequiring": 7473,
      "Ġcherch": 7474,
      "Ġchatting": 7475,
      "Ġchatted": 7476,
      "Ġsubscription": 7477,
      "Ġ2500": 7478,
      "angerie": 7479,
      "Ġappliance": 7480,
      "Ġappliances": 7481,
      "Ġcontracts": 7482,
      "Ġsociaux": 7483,
      "Ġscreens": 7484,
      "Ġgreenwich": 7485,
      "Ġattraction": 7486,
      "Ġcollecte": 7487,
      "Ġviolent": 7488,
      "Ġviolation": 7489,
      "Ġforeigner": 7490,
      "Ġforeigners": 7491,
      "99686": 7492,
      "after": 7493,
      "afety": 7494,
      "ĠsoirÃ©e": 7495,
      "Ġpouvait": 7496,
      "Ġcitadel": 7497,
      "Ġcelui": 7498,
      "onnÃ©": 7499,
      "onnement": 7500,
      "Ġafraid": 7501,
      "Ġlaughing": 7502,
      "Ġdessous": 7503,
      "Ġfaisait": 7504,
      "Ġfaisable": 7505,
      "Ġwatched": 7506,
      "orced": 7507,
      "orcycl": 7508,
      "Ġnetworks": 7509,
      "Ġnomad": 7510,
      "Ġhuh": 7511,
      "Ġhabitu": 7512,
      "Ġhabitent": 7513,
      "Ġreceipt": 7514,
      "Ġego": 7515,
      "Ġvendu": 7516,
      "Ġvendeur": 7517,
      "Ġvendredi": 7518,
      "Ġruine": 7519,
      "Ġcharity": 7520,
      "Ġcharger": 7521,
      "Ġcharacters": 7522,
      "Ġexceptions": 7523,
      "Ġuniversal": 7524,
      "Ġuniversitaire": 7525,
      "Ġprotection": 7526,
      "Ġpretenses": 7527,
      "Ġperformances": 7528,
      "Ġintersections": 7529,
      "Ġpriorit": 7530,
      "Ġpriority": 7531,
      "Ġhistoric": 7532,
      "Ġhistorically": 7533,
      "Ġhistorique": 7534,
      "Ġhistorical": 7535,
      "ĠgÃ©nÃ©ralement": 7536,
      "103": 7537,
      "165": 7538,
      "2822": 7539,
      "installe": 7540,
      "Ġpunaises": 7541,
      "Ġpunishments": 7542,
      "Ġpaper": 7543,
      "Ġpisser": 7544,
      "Ġpissent": 7545,
      "Ġcarton": 7546,
      "Ġtarif": 7547,
      "Ġtower": 7548,
      "Ġlatest": 7549,
      "Ġlaisses": 7550,
      "ĠlaissÃ©": 7551,
      "ĠbutÃ©e": 7552,
      "Ġbutts": 7553,
      "Ġbutchers": 7554,
      "Ġgaspill": 7555,
      "Ġhitting": 7556,
      "Ġvenice": 7557,
      "Ġvoter": 7558,
      "Ġvacc": 7559,
      "Ġvacation": 7560,
      "Ġpeaceful": 7561,
      "Ġ242": 7562,
      "Ġanimals": 7563,
      "ĠpossibilitÃ©": 7564,
      "Ġpromote": 7565,
      "Ġcompagnon": 7566,
      "Ġeventually": 7567,
      "Ġcoffees": 7568,
      "Ġopinions": 7569,
      "Ġfranco": 7570,
      "Ġfrancis": 7571,
      "Ġfrancophone": 7572,
      "Ġcommittee": 7573,
      "likely": 7574,
      "ĠrÃ©cent": 7575,
      "ĠrÃ©sident": 7576,
      "ĠmarchÃ©": 7577,
      "Ġmarchait": 7578,
      "Ġmarchands": 7579,
      "Ġbooks": 7580,
      "Ġunderwhelming": 7581,
      "Ġconversations": 7582,
      "Ġcorrectly": 7583,
      "Ġgroceries": 7584,
      "Ġbanlieues": 7585,
      "Ġresponses": 7586,
      "Ġsuspended": 7587,
      "Ġtechnically": 7588,
      "Ġtechnolog": 7589,
      "Ġtechnician": 7590,
      "2454": 7591,
      "justice": 7592,
      "porary": 7593,
      "Ġessay": 7594,
      "Ġutiliser": 7595,
      "ĠpensÃ©": 7596,
      "Ġpensais": 7597,
      "Ġtokens": 7598,
      "Ġlicence": 7599,
      "Ġlicences": 7600,
      "Ġmixed": 7601,
      "Ġmixte": 7602,
      "Ġborne": 7603,
      "Ġwarning": 7604,
      "Ġwallet": 7605,
      "Ġthrew": 7606,
      "Ġcharges": 7607,
      "Ġcharging": 7608,
      "Ġplatte": 7609,
      "Ġparlant": 7610,
      "Ġprograms": 7611,
      "Ġprogramming": 7612,
      "Ġconseiller": 7613,
      "Ġexcell": 7614,
      "Ġexcited": 7615,
      "ĠprÃ©fÃ¨re": 7616,
      "Ġlegit": 7617,
      "Ġlegisl": 7618,
      "Ġimportante": 7619,
      "asserole": 7620,
      "ĠdÃ©part": 7621,
      "Ġgrounded": 7622,
      "Ġadditionally": 7623,
      "Ġdescribe": 7624,
      "Ġdescribed": 7625,
      "Ġdescription": 7626,
      "Ġimmigrants": 7627,
      "Ġimmediate": 7628,
      "Ġforced": 7629,
      "Ġreduces": 7630,
      "Ġreducing": 7631,
      "Ġprofiter": 7632,
      "Ġconnecting": 7633,
      "Ġconnected": 7634,
      "Ġbenefits": 7635,
      "593": 7636,
      "59823": 7637,
      "927": 7638,
      "donald": 7639,
      "government": 7640,
      "Ġselfies": 7641,
      "ĠtÃ©l": 7642,
      "Ġtubes": 7643,
      "Ġmcdonald": 7644,
      "Ġmotiv": 7645,
      "Ġmotorcycl": 7646,
      "Ġmagical": 7647,
      "Ġmaggie": 7648,
      "Ġmagasin": 7649,
      "Ġmaison": 7650,
      "Ġfonctionner": 7651,
      "Ġbalance": 7652,
      "Ġbatter": 7653,
      "Ġborder": 7654,
      "Ġwidely": 7655,
      "Ġhateful": 7656,
      "Ġvideos": 7657,
      "Ġrichmond": 7658,
      "Ġjustice": 7659,
      "Ġparcs": 7660,
      "Ġsuffit": 7661,
      "Ġsuffering": 7662,
      "Ġdegrees": 7663,
      "Ġdeadline": 7664,
      "Ġarmy": 7665,
      "Ġargument": 7666,
      "Ġarguably": 7667,
      "Ġarguments": 7668,
      "Ġohpeparis": 7669,
      "Ġ1970": 7670,
      "Ġuniqlo": 7671,
      "Ġclubs": 7672,
      "Ġ2005": 7673,
      "Ġdraft": 7674,
      "Ġdrapeau": 7675,
      "Ġdrama": 7676,
      "Ġdramatic": 7677,
      "Ġphysique": 7678,
      "ĠÃ©vite": 7679,
      "ĠÃ©voqu": 7680,
      "ĠÃ©viter": 7681,
      "Ġexplos": 7682,
      "Ġexplore": 7683,
      "Ġtravaille": 7684,
      "Ġtravailleurs": 7685,
      "Ġtravailler": 7686,
      "Ġcommunicate": 7687,
      "Ġoccasionally": 7688,
      "Ġoccasionjpg": 7689,
      "Ġcomplaints": 7690,
      "Ġsubsidies": 7691,
      "Ġsubsidised": 7692,
      "Ġsubsidize": 7693,
      "Ġconducteur": 7694,
      "Ġconducteurs": 7695,
      "Ġbeginner": 7696,
      "129": 7697,
      "1200": 7698,
      "1536": 7699,
      "crit": 7700,
      "denly": 7701,
      "iÃ©tez": 7702,
      "offre": 7703,
      "ricalsor": 7704,
      "Ġilleg": 7705,
      "Ġultra": 7706,
      "Ġidentity": 7707,
      "Ġidentifi": 7708,
      "Ġselon": 7709,
      "Ġpicking": 7710,
      "Ġpicnic": 7711,
      "Ġtunnel": 7712,
      "Ġlunches": 7713,
      "Ġmurder": 7714,
      "Ġmurky": 7715,
      "Ġderniers": 7716,
      "Ġfalloir": 7717,
      "Ġbande": 7718,
      "Ġbandaid": 7719,
      "Ġwalls": 7720,
      "Ġgaza": 7721,
      "Ġhyp": 7722,
      "Ġhyper": 7723,
      "Ġhydr": 7724,
      "Ġherehttps": 7725,
      "Ġhindu": 7726,
      "Ġrenou": 7727,
      "ĠrÃ¨gles": 7728,
      "untary": 7729,
      "Ġplacer": 7730,
      "Ġproposal": 7731,
      "Ġproposed": 7732,
      "Ġdozens": 7733,
      "Ġobligation": 7734,
      "Ġunsure": 7735,
      "Ġpractice": 7736,
      "Ġpractically": 7737,
      "Ġpractices": 7738,
      "Ġcontrairement": 7739,
      "ĠdÃ©solÃ©": 7740,
      "Ġcrawl": 7741,
      "Ġbringing": 7742,
      "Ġapologised": 7743,
      "Ġemotions": 7744,
      "Ġteachers": 7745,
      "Ġtraverser": 7746,
      "Ġcolleges": 7747,
      "Ġcolleagues": 7748,
      "Ġreforms": 7749,
      "Ġreformed": 7750,
      "Ġdemonstrations": 7751,
      "Ġdemonstrators": 7752,
      "Ġespace": 7753,
      "Ġgrowth": 7754,
      "Ġreligion": 7755,
      "Ġpermettent": 7756,
      "Ġpermettant": 7757,
      "Ġeducational": 7758,
      "Ġannoyed": 7759,
      "Ġbuddhism": 7760,
      "Ġmembership": 7761,
      "Ġparticulier": 7762,
      "ĠparticuliÃ¨rement": 7763,
      "Ġpalestinians": 7764,
      "ĠÃ©tudiants": 7765,
      "Ġrequested": 7766,
      "Ġprotected": 7767,
      "Ġeffectively": 7768,
      "Ġfavourite": 7769,
      "Ġjaponais": 7770,
      "62593": 7771,
      "centre": 7772,
      "naques": 7773,
      "oeuvre": 7774,
      "Ġsnarl": 7775,
      "Ġslowly": 7776,
      "Ġsleeping": 7777,
      "Ġpousse": 7778,
      "ĠpoussÃ©": 7779,
      "Ġpaihhc": 7780,
      "Ġcatching": 7781,
      "Ġtolls": 7782,
      "Ġluxe": 7783,
      "Ġdougie": 7784,
      "Ġfellow": 7785,
      "Ġbouger": 7786,
      "Ġvirtually": 7787,
      "Ġstruck": 7788,
      "Ġstruggle": 7789,
      "Ġstockwell": 7790,
      "Ġinquest": 7791,
      "ĠinquiÃ©tez": 7792,
      "Ġplateau": 7793,
      "Ġplateform": 7794,
      "Ġprocessing": 7795,
      "Ġnegative": 7796,
      "Ġambiance": 7797,
      "Ġambitieux": 7798,
      "Ġshocked": 7799,
      "Ġunpopular": 7800,
      "ĠlevÃ©e": 7801,
      "Ġcompetition": 7802,
      "Ġcompliance": 7803,
      "Ġcancelled": 7804,
      "Ġclichy": 7805,
      "ĠclichÃ©": 7806,
      "Ġbecomes": 7807,
      "Ġoperate": 7808,
      "Ġoperating": 7809,
      "Ġresidential": 7810,
      "Ġwhereas": 7811,
      "Ġcommencer": 7812,
      "ĠcommencÃ©": 7813,
      "Ġactivities": 7814,
      "ĠrÃ©parer": 7815,
      "Ġpolitely": 7816,
      "Ġintrovert": 7817,
      "Ġintroduc": 7818,
      "Ġinfested": 7819,
      "ĠÃ©couter": 7820,
      "Ġsmells": 7821,
      "ĠarrÃªtent": 7822,
      "Ġrecycling": 7823,
      "Ġrecyclables": 7824,
      "Ġindiana": 7825,
      "Ġlakeview": 7826,
      "Ġlaunched": 7827,
      "Ġstronger": 7828,
      "Ġstrongly": 7829,
      "Ġouvertes": 7830,
      "Ġannounced": 7831,
      "Ġfacilement": 7832,
      "Ġcelebrated": 7833,
      "Ġprofessionnel": 7834,
      "Ġtreatment": 7835,
      "Ġencounter": 7836,
      "Ġencountered": 7837,
      "Ġoccupancy": 7838,
      "Ġengagement": 7839,
      "Ġpoliticiens": 7840,
      "Ġmoyenne": 7841,
      "Ġcircul": 7842,
      "Ġthreatened": 7843,
      "Ġsandwiches": 7844,
      "Ġopportunity": 7845,
      "Ġopportunities": 7846,
      "29713": 7847,
      "352822": 7848,
      "depopcom": 7849,
      "freeemotesp": 7850,
      "wearcom": 7851,
      "Ġpenalties": 7852,
      "Ġponts": 7853,
      "Ġpillars": 7854,
      "Ġpushes": 7855,
      "Ġcategory": 7856,
      "Ġcategories": 7857,
      "Ġtitre": 7858,
      "Ġtentent": 7859,
      "Ġtastings": 7860,
      "Ġmoral": 7861,
      "Ġmaths": 7862,
      "Ġdirty": 7863,
      "ĠfiancÃ©": 7864,
      "Ġwelp": 7865,
      "Ġwelcome": 7866,
      "Ġwitnessed": 7867,
      "Ġgeared": 7868,
      "Ġgentrific": 7869,
      "Ġgagnant": 7870,
      "Ġgerman": 7871,
      "Ġnatural": 7872,
      "Ã©mor": 7873,
      "Ġholiday": 7874,
      "Ġressemble": 7875,
      "Ġreliable": 7876,
      "Ġstereo": 7877,
      "Ġstereoty": 7878,
      "Ġroughly": 7879,
      "Ġthrowing": 7880,
      "Ġinitially": 7881,
      "Ġinitiative": 7882,
      "Ġtrigger": 7883,
      "ĠtrouvÃ©": 7884,
      "Ġtrouvait": 7885,
      "Ġjazz": 7886,
      "Ġchapter": 7887,
      "Ġchapelle": 7888,
      "Ġlifestyle": 7889,
      "Ġexhibits": 7890,
      "Ġitalian": 7891,
      "Ġanglophones": 7892,
      "Ġkilling": 7893,
      "ĠÃ¢gÃ©e": 7894,
      "Ġcontribute": 7895,
      "Ġmeasures": 7896,
      "ĠdÃ©clarat": 7897,
      "Ġopposite": 7898,
      "Ġincorrect": 7899,
      "Ġincorpor": 7900,
      "ĠsiÃ¨cle": 7901,
      "ĠsiÃ¨ges": 7902,
      "Ġresults": 7903,
      "Ġmettent": 7904,
      "Ġbranch": 7905,
      "Ġguarantee": 7906,
      "Ġregulars": 7907,
      "Ġentertain": 7908,
      "Ġentertaining": 7909,
      "Ġethical": 7910,
      "Ġethnic": 7911,
      "ĠtransformÃ©": 7912,
      "clinic": 7913,
      "clinique": 7914,
      "Ġemsb": 7915,
      "Ġfluently": 7916,
      "Ġpleasant": 7917,
      "Ġacademy": 7918,
      "Ġbloquant": 7919,
      "ĠbloquÃ©e": 7920,
      "Ġdelighted": 7921,
      "Ġpermanent": 7922,
      "Ġpermanente": 7923,
      "Ġaffected": 7924,
      "ĠdifferentÃ©rents": 7925,
      "Ġconfortable": 7926,
      "Ġdiscussing": 7927,
      "Ġdiscussion": 7928,
      "Ġbroadway": 7929,
      "Ġabandoned": 7930,
      "Ġphotosdepopcom": 7931,
      "Ġestimation": 7932,
      "Ġestimated": 7933,
      "Ġboulot": 7934,
      "Ġboulangerie": 7935,
      "Ġelectricals": 7936,
      "Ġoriginally": 7937,
      "Ġsoudainement": 7938,
      "Ġmonoprix": 7939,
      "Ġskills": 7940,
      "expliquer": 7941,
      "Ġscrewed": 7942,
      "Ġemployment": 7943,
      "Ġpedestrianize": 7944,
      "Ġcitizen": 7945,
      "Ġcitizens": 7946,
      "ĠdÃ©teste": 7947,
      "Ġtargeted": 7948,
      "Ġvictoria": 7949,
      "Ġvictorian": 7950,
      "ĠprÃ©vu": 7951,
      "Ġarmenia": 7952,
      "ĠdÃ©mÃ©nager": 7953,
      "ĠrÃ¨gle": 7954,
      "Ġcinema": 7955,
      "Ġcinemas": 7956,
      "Ġtherapy": 7957,
      "Ġtherapists": 7958,
      "Ġtaperedmens": 7959,
      "Ġinterracial": 7960,
      "Ġinterracially": 7961,
      "Ġimplementing": 7962,
      "Ġaccommodations": 7963,
      "histoire": 7964,
      "lavones": 7965,
      "normal": 7966,
      "rotrends": 7967,
      "ravail": 7968,
      "videoflow": 7969,
      "Ġiconic": 7970,
      "Ġutterly": 7971,
      "Ġumbrell": 7972,
      "Ġsainte": 7973,
      "Ġpulling": 7974,
      "Ġcigarette": 7975,
      "Ġcandid": 7976,
      "ĠcÃ´ne": 7977,
      "Ġatop": 7978,
      "Ġaveugle": 7979,
      "Ġaudience": 7980,
      "ĠauprÃ¨s": 7981,
      "Ġtesco": 7982,
      "Ġlacasse": 7983,
      "ĠlumiÃ¨re": 7984,
      "Ġmutual": 7985,
      "Ġmourrial": 7986,
      "Ġmauvaise": 7987,
      "Ġduo": 7988,
      "Ġdollar": 7989,
      "Ġdestination": 7990,
      "Ġflyers": 7991,
      "Ġfondu": 7992,
      "Ġbousculent": 7993,
      "Ġbureau": 7994,
      "Ġwarrant": 7995,
      "ĠgalÃ¨re": 7996,
      "Ġgutted": 7997,
      "Ġgifemote": 7998,
      "Ġnicer": 7999,
      "Ġnimbys": 8000,
      "Ġnouveaux": 8001,
      "Ġhoping": 8002,
      "Ġhidden": 8003,
      "Ġhung": 8004,
      "Ġhaha": 8005,
      "Ġreckless": 8006,
      "Ġreplaced": 8007,
      "Ġrechercher": 8008,
      "Ġrenovate": 8009,
      "Ġrebuild": 8010,
      "Ġelderly": 8011,
      "Ġefficiency": 8012,
      "Ġvincent": 8013,
      "Ġstrike": 8014,
      "Ġrassurant": 8015,
      "ĠrÃªve": 8016,
      "olitan": 8017,
      "Ġisolating": 8018,
      "Ġtrottoirs": 8019,
      "Ġjolie": 8020,
      "Ġjacket": 8021,
      "Ġchemins": 8022,
      "Ġchannelresbu": 8023,
      "ĠquittÃ©": 8024,
      "Ġyellow": 8025,
      "Ġprohibit": 8026,
      "ĠproximitÃ©": 8027,
      "Ġsecteur": 8028,
      "Ġconceptual": 8029,
      "Ġsuddenly": 8030,
      "ĠamÃ©ricain": 8031,
      "Ġarrest": 8032,
      "Ġshitshow": 8033,
      "Ġkarabak": 8034,
      "Ġunreasonable": 8035,
      "Ġunclear": 8036,
      "Ġprincipalement": 8037,
      "Ġprimary": 8038,
      "Ġcomplicated": 8039,
      "ĠcomplÃ¨tement": 8040,
      "Ġappealing": 8041,
      "Ġwealthy": 8042,
      "Ġprevention": 8043,
      "Ġcontemporary": 8044,
      "Ġmeilleure": 8045,
      "ĠdÃ©terminer": 8046,
      "apprÃ©cie": 8047,
      "ĠspÃ©cial": 8048,
      "Ġfrequency": 8049,
      "Ġspectacle": 8050,
      "Ġbrigading": 8051,
      "Ġnewborns": 8052,
      "Ġstretches": 8053,
      "Ġdisplay": 8054,
      "Ġdisappointed": 8055,
      "Ġmarginalised": 8056,
      "Ġscenario": 8057,
      "Ġentitlement": 8058,
      "Ġtransparenc": 8059,
      "Ġemergency": 8060,
      "Ġconsultations": 8061,
      "Ġinstructions": 8062,
      "Ġteenagers": 8063,
      "Ġexplaining": 8064,
      "Ġassessment": 8065,
      "Ġconcurrent": 8066,
      "Ġsurvived": 8067,
      "Ġzonage": 8068,
      "Ġrefriger": 8069,
      "Ġugly": 8070,
      "Ġcorporations": 8071,
      "Ġcorrespondre": 8072,
      "ĠtempÃ©rature": 8073,
      "Ġdownvoted": 8074,
      "Ġrepresentatives": 8075,
      "ĠstratÃ©giques": 8076,
      "Ġbedbugs": 8077,
      "Ġsupervisor": 8078,
      "Ġfontainebleau": 8079,
      "Ġphotographed": 8080,
      "Ġestablish": 8081,
      "Ġtrembl": 8082,
      "Ġinvestigate": 8083,
      "4886352822": 8084,
      "Ġmilitary": 8085,
      "Ġflooded": 8086,
      "Ġfundamental": 8087,
      "Ġverdure": 8088,
      "Ġridiculously": 8089,
      "Ġlistening": 8090,
      "bookcom": 8091,
      "ĠfinanciÃ¨res": 8092,
      "Ġhoarding": 8093,
      "Ġconsequences": 8094,
      "Ġhauteur": 8095,
      "Ġcraignos": 8096,
      "Ġtoyota": 8097,
      "ĠpropriÃ©taires": 8098,
      "ĠbÃ©nÃ©ficier": 8099,
      "ĠnÃ©cessairement": 8100,
      "Ġrencontrent": 8101,
      "Ġtraumatisme": 8102,
      "Ġanecdot": 8103,
      "Ġclignotant": 8104,
      "Ġmanufacturers": 8105,
      "Ġadministrateurs": 8106,
      "6591": 8107,
      "9803": 8108,
      "design": 8109,
      "euuuu": 8110,
      "forall": 8111,
      "fighting": 8112,
      "horiz": 8113,
      "hbztu": 8114,
      "iatement": 8115,
      "jlyogno": 8116,
      "laceforall": 8117,
      "marchÃ©": 8118,
      "mbmhc": 8119,
      "npng": 8120,
      "public": 8121,
      "rupt": 8122,
      "sxjtu": 8123,
      "worthy": 8124,
      "Ġivry": 8125,
      "Ġongoing": 8126,
      "Ġ004": 8127,
      "Ġseni": 8128,
      "ĠsÃ©rieusement": 8129,
      "Ġsainsbury": 8130,
      "Ġpumps": 8131,
      "Ġcercle": 8132,
      "Ġcatholic": 8133,
      "Ġcouteau": 8134,
      "Ġalex": 8135,
      "Ġauxili": 8136,
      "ĠaffichÃ©": 8137,
      "Ġainsi": 8138,
      "Ġandrews": 8139,
      "Ġaustral": 8140,
      "Ġazerbaijan": 8141,
      "Ġtldr": 8142,
      "Ġtears": 8143,
      "Ġtattoo": 8144,
      "Ġtmax": 8145,
      "Ġtolerance": 8146,
      "Ġlonely": 8147,
      "Ġlaval": 8148,
      "Ġlargement": 8149,
      "Ġlanyard": 8150,
      "Ġlength": 8151,
      "Ġmicro": 8152,
      "Ġmastur": 8153,
      "Ġmaterials": 8154,
      "Ġdangereux": 8155,
      "Ġdubious": 8156,
      "Ġdundas": 8157,
      "Ġdangerous": 8158,
      "isquebecgouv": 8159,
      "Ġfaubourg": 8160,
      "Ġfassent": 8161,
      "Ġfprhbztu": 8162,
      "Ġfaudrait": 8163,
      "alogue": 8164,
      "alysis": 8165,
      "Ġbullshit": 8166,
      "Ġbirds": 8167,
      "Ġwimbledon": 8168,
      "Ġwarden": 8169,
      "Ġgneee": 8170,
      "Ġgueule": 8171,
      "Ġgouvernement": 8172,
      "Ġnosey": 8173,
      "Ġnazi": 8174,
      "Ġnajc": 8175,
      "Ġhippies": 8176,
      "Ġhounslow": 8177,
      "Ġrecipro": 8178,
      "Ġelevator": 8179,
      "Ġelementary": 8180,
      "Ġezzo": 8181,
      "acceptable": 8182,
      "Ġvigilant": 8183,
      "Ġvintage": 8184,
      "ĠvÃªtements": 8185,
      "Ġstadium": 8186,
      "Ġstraight": 8187,
      "oparea": 8188,
      "opposÃ©": 8189,
      "Ġrouge": 8190,
      "Ġraviolis": 8191,
      "Ġrajout": 8192,
      "Ġryerson": 8193,
      "idstoparea": 8194,
      "Ġintegrity": 8195,
      "Ġisoflavones": 8196,
      "Ġtranquille": 8197,
      "Ġchristmas": 8198,
      "Ġplupart": 8199,
      "ĠquadrillÃ©": 8200,
      "Ġpearson": 8201,
      "ĠalcoolisÃ©": 8202,
      "Ġyesterday": 8203,
      "Ġlifted": 8204,
      "Ġlibanais": 8205,
      "Ġlikelihood": 8206,
      "Ġexorcist": 8207,
      "Ġexacerbated": 8208,
      "Ġloophole": 8209,
      "outube": 8210,
      "Ġshelters": 8211,
      "Ġoakville": 8212,
      "Ġ12059823": 8213,
      "Ġunoccupied": 8214,
      "newsca": 8215,
      "ĠpognÃ©s": 8216,
      "Ġbuggers": 8217,
      "Ġcanlii": 8218,
      "Ġmontparnasse": 8219,
      "Ġmontmartre": 8220,
      "Ġclapham": 8221,
      "Ġ20384": 8222,
      "ĠdÃ©placer": 8223,
      "ĠdÃ©marre": 8224,
      "Ġsaxophoniste": 8225,
      "Ġinconnus": 8226,
      "Ġmetropolitan": 8227,
      "Ġfebruary": 8228,
      "ĠbrÃ»ler": 8229,
      "ĠrÃ©gler": 8230,
      "ĠrÃ©frig": 8231,
      "ĠrÃ©alistiquement": 8232,
      "Ġagricultural": 8233,
      "Ġremembered": 8234,
      "Ġlongtemps": 8235,
      "Ġscaffolding": 8236,
      "Ġinfraction": 8237,
      "Ġboleyn": 8238,
      "Ġoldredditcom": 8239,
      "Ġemphasis": 8240,
      "ĠconsÃ©quence": 8241,
      "Ġnonetheless": 8242,
      "Ġwwwfacebookcom": 8243,
      "Ġwwwtrans": 8244,
      "Ġwwwtorontoca": 8245,
      "Ġwwwmacrotrends": 8246,
      "Ġwwwlegisquebecgouv": 8247,
      "Ġwwwrecycleyourelect": 8248,
      "Ġcertificate": 8249,
      "ĠindiquÃ©": 8250,
      "Ġupbringing": 8251,
      "ĠsupplÃ©mentaire": 8252,
      "Ġzooshare": 8253,
      "Ġuvmxp": 8254,
      "Ġviagogo": 8255,
      "Ġswarming": 8256,
      "Ġmedecins": 8257,
      "Ġ97362593": 8258,
      "ĠimmÃ©diatement": 8259,
      "Ġreprimand": 8260,
      "Ġtyrwhitt": 8261,
      "Ġtaxpayers": 8262,
      "ĠoubliÃ©": 8263,
      "Ġontarioplaceforall": 8264,
      "Ġsemblent": 8265,
      "Ġmeetupmondays": 8266,
      "Ġdiscretion": 8267,
      "Ġfautocssrgb": 8268,
      "Ġchocolate": 8269,
      "ĠextrÃªmement": 8270,
      "Ġsavesciencecentre": 8271,
      "Ġboulevard": 8272,
      "Ġ1218020895": 8273,
      "Ġmonstrue": 8274,
      "Ġ15484129": 8275,
      "Ġukrainian": 8276,
      "Ġmississauga": 8277,
      "Ġstaticnikecom": 8278,
      "Ġimagesmilledcom": 8279,
      "Ġwindshield": 8280,
      "Ġreceipts": 8281,
      "Ġlegislative": 8282,
      "ricalsorguk": 8283,
      "Ġidentifiable": 8284,
      "Ġhydrant": 8285,
      "Ġpaihhcjlyogno": 8286,
      "29713583": 8287,
      "freeemotespack": 8288,
      "Ġgentrification": 8289,
      "ĠdÃ©claratif": 8290,
      "Ġtaperedmenswearcom": 8291,
      "Ġumbrella": 8292,
      "Ġgifemotefreeemotespack": 8293,
      "Ġchannelresbuy": 8294,
      "Ġkarabakh": 8295,
      "Ġtransparency": 8296,
      "488635282229713583": 8297,
      "Ġ120598232": 8298,
      "Ġwwwmacrotrendsnet": 8299,
      "Ġwwwlegisquebecgouvqcca": 8300,
      "Ġwwwrecycleyourelectricalsorguk": 8301,
      "$$": 8302,
      "'\"": 8303,
      "''": 8304,
      "'m": 8305,
      "05": 8306,
      "061": 8307,
      "19": 8308,
      "116": 8309,
      "128": 8310,
      "170": 8311,
      "1103": 8312,
      "26": 8313,
      "27": 8314,
      "200": 8315,
      "220": 8316,
      "250": 8317,
      "270": 8318,
      "20000": 8319,
      "350": 8320,
      "328": 8321,
      "324": 8322,
      "340": 8323,
      "3128": 8324,
      "45": 8325,
      "448": 8326,
      "454": 8327,
      "51": 8328,
      "52": 8329,
      "57": 8330,
      "548": 8331,
      "599": 8332,
      "513": 8333,
      "515": 8334,
      "575": 8335,
      "517": 8336,
      "60": 8337,
      "64": 8338,
      "67": 8339,
      "69": 8340,
      "628": 8341,
      "681": 8342,
      "665": 8343,
      "71": 8344,
      "78": 8345,
      "79": 8346,
      "700": 8347,
      "720": 8348,
      "711": 8349,
      "82": 8350,
      "816": 8351,
      "892": 8352,
      "897": 8353,
      "94": 8354,
      "96": 8355,
      "ao": 8356,
      "aq": 8357,
      "aer": 8358,
      "aus": 8359,
      "ael": 8360,
      "aay": 8361,
      "aig": 8362,
      "aag": 8363,
      "aul": 8364,
      "aist": 8365,
      "aident": 8366,
      "aÃ§": 8367,
      "avert": 8368,
      "aero": 8369,
      "aunt": 8370,
      "aÃ®": 8371,
      "bou": 8372,
      "bat": 8373,
      "bro": 8374,
      "bac": 8375,
      "best": 8376,
      "bble": 8377,
      "bie": 8378,
      "bond": 8379,
      "bps": 8380,
      "bound": 8381,
      "bies": 8382,
      "bold": 8383,
      "boir": 8384,
      "buck": 8385,
      "boy": 8386,
      "burn": 8387,
      "bute": 8388,
      "bings": 8389,
      "bÃ©s": 8390,
      "bÃ©c": 8391,
      "bye": 8392,
      "bform": 8393,
      "bene": 8394,
      "baine": 8395,
      "bfr": 8396,
      "bike": 8397,
      "bde": 8398,
      "basser": 8399,
      "bervilliers": 8400,
      "burg": 8401,
      "baign": 8402,
      "bitr": 8403,
      "baler": 8404,
      "cf": 8405,
      "cv": 8406,
      "cx": 8407,
      "cy": 8408,
      "cre": 8409,
      "cer": 8410,
      "can": 8411,
      "cat": 8412,
      "cel": 8413,
      "cop": 8414,
      "cem": 8415,
      "cut": 8416,
      "cam": 8417,
      "cation": 8418,
      "cate": 8419,
      "cine": 8420,
      "card": 8421,
      "cement": 8422,
      "cang": 8423,
      "cab": 8424,
      "call": 8425,
      "case": 8426,
      "cry": 8427,
      "cath": 8428,
      "cost": 8429,
      "cute": 8430,
      "cade": 8431,
      "cars": 8432,
      "cident": 8433,
      "cuse": 8434,
      "cution": 8435,
      "cott": 8436,
      "ceral": 8437,
      "custom": 8438,
      "code": 8439,
      "cums": 8440,
      "cano": 8441,
      "cmp": 8442,
      "cliers": 8443,
      "credi": 8444,
      "cpcu": 8445,
      "cinating": 8446,
      "crowdy": 8447,
      "casserole": 8448,
      "dg": 8449,
      "dou": 8450,
      "dat": 8451,
      "dom": 8452,
      "div": 8453,
      "dig": 8454,
      "dir": 8455,
      "dav": 8456,
      "dans": 8457,
      "dab": 8458,
      "dies": 8459,
      "dier": 8460,
      "dge": 8461,
      "dry": 8462,
      "dra": 8463,
      "dict": 8464,
      "dates": 8465,
      "divers": 8466,
      "donne": 8467,
      "dressed": 8468,
      "derers": 8469,
      "eon": 8470,
      "ele": 8471,
      "eet": 8472,
      "equ": 8473,
      "eel": 8474,
      "eim": 8475,
      "eem": 8476,
      "ech": 8477,
      "eff": 8478,
      "eve": 8479,
      "ection": 8480,
      "effic": 8481,
      "eway": 8482,
      "ext": 8483,
      "eye": 8484,
      "eaux": 8485,
      "ealth": 8486,
      "efr": 8487,
      "euro": 8488,
      "eleg": 8489,
      "eorolog": 8490,
      "every": 8491,
      "evelopment": 8492,
      "ebuck": 8493,
      "fg": 8494,
      "fj": 8495,
      "fl": 8496,
      "fo": 8497,
      "fw": 8498,
      "fx": 8499,
      "fre": 8500,
      "fet": 8501,
      "font": 8502,
      "fam": 8503,
      "fait": 8504,
      "fice": 8505,
      "fert": 8506,
      "food": 8507,
      "fuck": 8508,
      "fique": 8509,
      "fng": 8510,
      "final": 8511,
      "forc": 8512,
      "fÃ©rer": 8513,
      "fiants": 8514,
      "fnf": 8515,
      "gar": 8516,
      "gor": 8517,
      "giv": 8518,
      "gun": 8519,
      "gest": 8520,
      "gill": 8521,
      "gres": 8522,
      "gÃ©t": 8523,
      "good": 8524,
      "ggl": 8525,
      "grÃ©": 8526,
      "gical": 8527,
      "gered": 8528,
      "gaz": 8529,
      "gary": 8530,
      "gages": 8531,
      "gars": 8532,
      "gments": 8533,
      "gared": 8534,
      "gante": 8535,
      "girl": 8536,
      "grement": 8537,
      "gister": 8538,
      "gman": 8539,
      "gcca": 8540,
      "giving": 8541,
      "gonom": 8542,
      "giph": 8543,
      "hd": 8544,
      "hn": 8545,
      "hp": 8546,
      "hv": 8547,
      "hin": 8548,
      "han": 8549,
      "hit": 8550,
      "hal": 8551,
      "has": 8552,
      "hus": 8553,
      "hop": 8554,
      "hol": 8555,
      "hag": 8556,
      "hend": 8557,
      "hill": 8558,
      "hear": 8559,
      "hart": 8560,
      "hell": 8561,
      "hab": 8562,
      "hall": 8563,
      "hub": 8564,
      "hum": 8565,
      "hier": 8566,
      "high": 8567,
      "hiver": 8568,
      "hole": 8569,
      "hark": 8570,
      "honn": 8571,
      "hitt": 8572,
      "hension": 8573,
      "hrs": 8574,
      "hurt": 8575,
      "iem": 8576,
      "iard": 8577,
      "iast": 8578,
      "iper": 8579,
      "ihttps": 8580,
      "iary": 8581,
      "iffere": 8582,
      "iots": 8583,
      "iaux": 8584,
      "iels": 8585,
      "iability": 8586,
      "iatique": 8587,
      "ioti": 8588,
      "iateur": 8589,
      "iottes": 8590,
      "jc": 8591,
      "jn": 8592,
      "jq": 8593,
      "jv": 8594,
      "jon": 8595,
      "jÃł": 8596,
      "join": 8597,
      "jduc": 8598,
      "jured": 8599,
      "ka": 8600,
      "kh": 8601,
      "km": 8602,
      "kre": 8603,
      "kle": 8604,
      "kid": 8605,
      "know": 8606,
      "kok": 8607,
      "kets": 8608,
      "kxt": 8609,
      "kng": 8610,
      "kward": 8611,
      "kley": 8612,
      "ktor": 8613,
      "kms": 8614,
      "lb": 8615,
      "lq": 8616,
      "lr": 8617,
      "lon": 8618,
      "lay": 8619,
      "lid": 8620,
      "lol": 8621,
      "live": 8622,
      "lais": 8623,
      "lau": 8624,
      "lans": 8625,
      "lap": 8626,
      "luc": 8627,
      "lÃ©e": 8628,
      "lÃª": 8629,
      "ller": 8630,
      "lasse": 8631,
      "lange": 8632,
      "limit": 8633,
      "ligation": 8634,
      "limate": 8635,
      "lims": 8636,
      "laughter": 8637,
      "lapping": 8638,
      "lhf": 8639,
      "luence": 8640,
      "lamic": 8641,
      "mm": 8642,
      "mr": 8643,
      "mu": 8644,
      "mv": 8645,
      "mw": 8646,
      "men": 8647,
      "mit": 8648,
      "mis": 8649,
      "mat": 8650,
      "met": 8651,
      "mur": 8652,
      "mble": 8653,
      "mist": 8654,
      "mie": 8655,
      "mod": 8656,
      "might": 8657,
      "mine": 8658,
      "mare": 8659,
      "mure": 8660,
      "mme": 8661,
      "mue": 8662,
      "mos": 8663,
      "mia": 8664,
      "mins": 8665,
      "mered": 8666,
      "mount": 8667,
      "mws": 8668,
      "mative": 8669,
      "mates": 8670,
      "mothers": 8671,
      "making": 8672,
      "mpar": 8673,
      "moi": 8674,
      "magne": 8675,
      "mlin": 8676,
      "mÃ¨ne": 8677,
      "matique": 8678,
      "mwikipediaorg": 8679,
      "moyens": 8680,
      "matched": 8681,
      "mfg": 8682,
      "mhp": 8683,
      "nx": 8684,
      "nam": 8685,
      "nie": 8686,
      "nement": 8687,
      "nell": 8688,
      "nold": 8689,
      "nick": 8690,
      "nge": 8691,
      "nbs": 8692,
      "nique": 8693,
      "nered": 8694,
      "nib": 8695,
      "nich": 8696,
      "nole": 8697,
      "nye": 8698,
      "nised": 8699,
      "naient": 8700,
      "nival": 8701,
      "niser": 8702,
      "njour": 8703,
      "nife": 8704,
      "nums": 8705,
      "nui": 8706,
      "nacle": 8707,
      "nuts": 8708,
      "nhf": 8709,
      "niest": 8710,
      "nervÃ©s": 8711,
      "nhv": 8712,
      "ox": 8713,
      "oon": 8714,
      "oly": 8715,
      "oop": 8716,
      "oau": 8717,
      "oss": 8718,
      "oins": 8719,
      "ocial": 8720,
      "oile": 8721,
      "oft": 8722,
      "oons": 8723,
      "oivent": 8724,
      "oignon": 8725,
      "oaag": 8726,
      "py": 8727,
      "pal": 8728,
      "pat": 8729,
      "pom": 8730,
      "pas": 8731,
      "pac": 8732,
      "pol": 8733,
      "pad": 8734,
      "pse": 8735,
      "pour": 8736,
      "pter": 8737,
      "pru": 8738,
      "pants": 8739,
      "press": 8740,
      "piss": 8741,
      "pical": 8742,
      "pings": 8743,
      "perst": 8744,
      "pistes": 8745,
      "passe": 8746,
      "point": 8747,
      "pair": 8748,
      "prop": 8749,
      "parent": 8750,
      "putes": 8751,
      "pagn": 8752,
      "pret": 8753,
      "pdf": 8754,
      "prix": 8755,
      "present": 8756,
      "pdem": 8757,
      "piece": 8758,
      "paule": 8759,
      "passed": 8760,
      "poken": 8761,
      "poons": 8762,
      "qy": 8763,
      "qfng": 8764,
      "rd": 8765,
      "rv": 8766,
      "rou": 8767,
      "ran": 8768,
      "ray": 8769,
      "run": 8770,
      "rad": 8771,
      "rand": 8772,
      "rure": 8773,
      "ride": 8774,
      "rum": 8775,
      "rays": 8776,
      "rise": 8777,
      "rices": 8778,
      "rative": 8779,
      "rasse": 8780,
      "rition": 8781,
      "raine": 8782,
      "ratch": 8783,
      "rators": 8784,
      "ranger": 8785,
      "riture": 8786,
      "rides": 8787,
      "rived": 8788,
      "rhs": 8789,
      "ruter": 8790,
      "riting": 8791,
      "ramp": 8792,
      "rqy": 8793,
      "sa": 8794,
      "sj": 8795,
      "sp": 8796,
      "su": 8797,
      "sat": 8798,
      "sem": 8799,
      "sure": 8800,
      "sli": 8801,
      "sport": 8802,
      "somet": 8803,
      "suis": 8804,
      "sfr": 8805,
      "she": 8806,
      "sdh": 8807,
      "svp": 8808,
      "sivement": 8809,
      "spent": 8810,
      "school": 8811,
      "service": 8812,
      "safety": 8813,
      "sfw": 8814,
      "snx": 8815,
      "tg": 8816,
      "tes": 8817,
      "tit": 8818,
      "tÃ©": 8819,
      "tly": 8820,
      "tous": 8821,
      "tab": 8822,
      "tick": 8823,
      "tok": 8824,
      "talk": 8825,
      "tog": 8826,
      "tically": 8827,
      "tail": 8828,
      "tues": 8829,
      "tones": 8830,
      "tiens": 8831,
      "tains": 8832,
      "tagne": 8833,
      "trob": 8834,
      "uh": 8835,
      "uk": 8836,
      "uen": 8837,
      "uant": 8838,
      "uir": 8839,
      "uity": 8840,
      "uction": 8841,
      "uge": 8842,
      "uents": 8843,
      "uets": 8844,
      "uits": 8845,
      "uise": 8846,
      "uments": 8847,
      "uger": 8848,
      "uition": 8849,
      "uels": 8850,
      "uelles": 8851,
      "ufficient": 8852,
      "uette": 8853,
      "ueries": 8854,
      "va": 8855,
      "vq": 8856,
      "vt": 8857,
      "ven": 8858,
      "van": 8859,
      "var": 8860,
      "vet": 8861,
      "vac": 8862,
      "vais": 8863,
      "vage": 8864,
      "vement": 8865,
      "vite": 8866,
      "vish": 8867,
      "vene": 8868,
      "visÃ©": 8869,
      "vhc": 8870,
      "vivid": 8871,
      "vmy": 8872,
      "valles": 8873,
      "vaison": 8874,
      "vjs": 8875,
      "volution": 8876,
      "vvq": 8877,
      "wb": 8878,
      "wf": 8879,
      "wan": 8880,
      "war": 8881,
      "wal": 8882,
      "wed": 8883,
      "went": 8884,
      "wse": 8885,
      "wul": 8886,
      "wap": 8887,
      "wave": 8888,
      "wide": 8889,
      "word": 8890,
      "wall": 8891,
      "wood": 8892,
      "wits": 8893,
      "with": 8894,
      "wings": 8895,
      "wering": 8896,
      "wds": 8897,
      "wyn": 8898,
      "writing": 8899,
      "xa": 8900,
      "xl": 8901,
      "xx": 8902,
      "xes": 8903,
      "xat": 8904,
      "xas": 8905,
      "xtt": 8906,
      "xway": 8907,
      "xiety": 8908,
      "xford": 8909,
      "xfj": 8910,
      "xnhv": 8911,
      "ynd": 8912,
      "yss": 8913,
      "yft": 8914,
      "yrs": 8915,
      "youtube": 8916,
      "yva": 8917,
      "zing": 8918,
      "zig": 8919,
      "zers": 8920,
      "zag": 8921,
      "zene": 8922,
      "zaines": 8923,
      "zisation": 8924,
      "zrov": 8925,
      "zkng": 8926,
      "zrqy": 8927,
      "¡nd": 8928,
      "£o": 8929,
      "«l": 8930,
      "®le": 8931,
      "Ã¡nd": 8932,
      "Ã£o": 8933,
      "Ã«l": 8934,
      "Ġing": 8935,
      "Ġul": 8936,
      "Ġub": 8937,
      "Ġors": 8938,
      "Ġours": 8939,
      "Ġorth": 8940,
      "Ġought": 8941,
      "Ġowe": 8942,
      "Ġired": 8943,
      "inÃ©": 8944,
      "inion": 8945,
      "inant": 8946,
      "inir": 8947,
      "inity": 8948,
      "inate": 8949,
      "inction": 8950,
      "inants": 8951,
      "inÃ©r": 8952,
      "inique": 8953,
      "inale": 8954,
      "inition": 8955,
      "inness": 8956,
      "inarily": 8957,
      "inette": 8958,
      "inoirs": 8959,
      "inettes": 8960,
      "inburg": 8961,
      "incident": 8962,
      "info": 8963,
      "invite": 8964,
      "real": 8965,
      "rely": 8966,
      "reation": 8967,
      "really": 8968,
      "rene": 8969,
      "rett": 8970,
      "reak": 8971,
      "reurs": 8972,
      "reary": 8973,
      "rets": 8974,
      "reuil": 8975,
      "revers": 8976,
      "reaction": 8977,
      "recie": 8978,
      "repair": 8979,
      "Ġsd": 8980,
      "Ġsg": 8981,
      "Ġsan": 8982,
      "Ġsle": 8983,
      "Ġsot": 8984,
      "Ġsom": 8985,
      "Ġsid": 8986,
      "Ġske": 8987,
      "Ġsir": 8988,
      "Ġsam": 8989,
      "Ġsire": 8990,
      "Ġsist": 8991,
      "Ġsci": 8992,
      "Ġsard": 8993,
      "Ġsart": 8994,
      "Ġsang": 8995,
      "Ġsap": 8996,
      "Ġsors": 8997,
      "Ġslic": 8998,
      "Ġselle": 8999,
      "Ġsust": 9000,
      "Ġsoup": 9001,
      "Ġsnc": 9002,
      "Ġsket": 9003,
      "Ġsfr": 9004,
      "Ġsample": 9005,
      "Ġsonne": 9006,
      "Ġsark": 9007,
      "Ġsjp": 9008,
      "Ġsomm": 9009,
      "Ġsiding": 9010,
      "Ġsache": 9011,
      "ĠsÃ©qu": 9012,
      "Ġsomme": 9013,
      "Ġsask": 9014,
      "Ġsjc": 9015,
      "ĠsÃ£o": 9016,
      "Ġpc": 9017,
      "Ġpou": 9018,
      "Ġpor": 9019,
      "Ġpas": 9020,
      "Ġpus": 9021,
      "Ġpim": 9022,
      "Ġpiv": 9023,
      "Ġpest": 9024,
      "Ġpist": 9025,
      "Ġpout": 9026,
      "Ġpond": 9027,
      "Ġpais": 9028,
      "Ġpau": 9029,
      "Ġpine": 9030,
      "Ġpace": 9031,
      "Ġpure": 9032,
      "Ġpck": 9033,
      "Ġpaire": 9034,
      "Ġpint": 9035,
      "ĠpÃª": 9036,
      "Ġpants": 9037,
      "Ġpanc": 9038,
      "Ġpages": 9039,
      "ĠpÃ©c": 9040,
      "Ġpix": 9041,
      "Ġpork": 9042,
      "Ġpals": 9043,
      "Ġpts": 9044,
      "Ġpitch": 9045,
      "Ġpaws": 9046,
      "Ġpump": 9047,
      "Ġpdf": 9048,
      "Ġpaj": 9049,
      "Ġpister": 9050,
      "Ġpainted": 9051,
      "Ġpaced": 9052,
      "Ġpierre": 9053,
      "Ġpizz": 9054,
      "Ġpuffer": 9055,
      "Ġpmr": 9056,
      "Ġcc": 9057,
      "Ġcp": 9058,
      "Ġcing": 9059,
      "ĠcÃ©": 9060,
      "Ġcot": 9061,
      "Ġcus": 9062,
      "Ġcun": 9063,
      "Ġcct": 9064,
      "Ġcul": 9065,
      "Ġcod": 9066,
      "Ġcout": 9067,
      "Ġcri": 9068,
      "Ġcau": 9069,
      "Ġcous": 9070,
      "Ġcell": 9071,
      "Ġcure": 9072,
      "Ġcind": 9073,
      "Ġcave": 9074,
      "Ġcass": 9075,
      "Ġcup": 9076,
      "Ġcors": 9077,
      "Ġcents": 9078,
      "Ġcep": 9079,
      "Ġcurs": 9080,
      "Ġcise": 9081,
      "Ġcater": 9082,
      "Ġcute": 9083,
      "Ġcull": 9084,
      "Ġcats": 9085,
      "Ġcels": 9086,
      "Ġcime": 9087,
      "Ġcott": 9088,
      "Ġcergy": 9089,
      "Ġcata": 9090,
      "ĠcÃ©li": 9091,
      "Ġcode": 9092,
      "Ġcache": 9093,
      "Ġculte": 9094,
      "Ġcapping": 9095,
      "Ġcpcu": 9096,
      "Ġcacher": 9097,
      "Ġcapped": 9098,
      "ĠcachÃ©": 9099,
      "Ġcasserole": 9100,
      "Ġcsj": 9101,
      "Ġcxat": 9102,
      "onment": 9103,
      "onated": 9104,
      "onents": 9105,
      "onner": 9106,
      "onial": 9107,
      "onians": 9108,
      "onnes": 9109,
      "onounc": 9110,
      "onials": 9111,
      "onÃ§ons": 9112,
      "eray": 9113,
      "erco": 9114,
      "eritage": 9115,
      "ener": 9116,
      "enan": 9117,
      "enus": 9118,
      "enac": 9119,
      "enant": 9120,
      "enag": 9121,
      "enne": 9122,
      "enaire": 9123,
      "enge": 9124,
      "enport": 9125,
      "enian": 9126,
      "enche": 9127,
      "enlÃ¨": 9128,
      "enning": 9129,
      "enfer": 9130,
      "envie": 9131,
      "engers": 9132,
      "engue": 9133,
      "enham": 9134,
      "envis": 9135,
      "enfu": 9136,
      "enancÃ©": 9137,
      "enhag": 9138,
      "Ġaus": 9139,
      "Ġast": 9140,
      "Ġand": 9141,
      "Ġack": 9142,
      "Ġath": 9143,
      "Ġauch": 9144,
      "Ġaws": 9145,
      "Ġaime": 9146,
      "Ġaches": 9147,
      "Ġaimes": 9148,
      "Ġathe": 9149,
      "Ġailleurs": 9150,
      "Ġaides": 9151,
      "Ġaeration": 9152,
      "Ġaunt": 9153,
      "Ġaims": 9154,
      "Ġaxe": 9155,
      "ĠaÃ©roport": 9156,
      "Ġaka": 9157,
      "Ġaxes": 9158,
      "Ġting": 9159,
      "Ġtay": 9160,
      "Ġtur": 9161,
      "Ġtut": 9162,
      "Ġtir": 9163,
      "Ġtie": 9164,
      "Ġtait": 9165,
      "Ġtps": 9166,
      "Ġtud": 9167,
      "Ġtore": 9168,
      "Ġtier": 9169,
      "Ġtelle": 9170,
      "Ġtuck": 9171,
      "Ġtied": 9172,
      "Ġtarm": 9173,
      "Ġtels": 9174,
      "Ġtott": 9175,
      "Ġtpa": 9176,
      "Ġtodd": 9177,
      "Ġtente": 9178,
      "Ġtearing": 9179,
      "Ġtired": 9180,
      "Ġtuf": 9181,
      "ĠtÃ¢": 9182,
      "Ġtuent": 9183,
      "Ġtomb": 9184,
      "Ġtires": 9185,
[...]
