{
  "version": "1.0",
  "truncation": null,
  "padding": null,
  "added_tokens": [
    {
      "id": 0,
      "content": "[UNK]",
      "single_word": false,
      "lstrip": false,
      "rstrip": false,
      "normalized": false,
      "special": true
    },
    {
      "id": 1,
      "content": "[CLS]",
      "single_word": false,
      "lstrip": false,
      "rstrip": false,
      "normalized": false,
      "special": true
    },
    {
      "id": 2,
      "content": "[SEP]",
      "single_word": false,
      "lstrip": false,
      "rstrip": false,
      "normalized": false,
      "special": true
    },
    {
      "id": 3,
      "content": "[PAD]",
      "single_word": false,
      "lstrip": false,
      "rstrip": false,
      "normalized": false,
      "special": true
    },
    {
      "id": 4,
      "content": "[MASK]",
      "single_word": false,
      "lstrip": false,
      "rstrip": false,
      "normalized": false,
      "special": true
    }
  ],
  "normalizer": null,
  "pre_tokenizer": {
    "type": "ByteLevel",
    "add_prefix_space": true,
    "trim_offsets": true,
    "use_regex": true
  },
  "post_processor": null,
  "decoder": null,
  "model": {
    "type": "BPE",
    "dropout": null,
    "unk_token": null,
    "continuing_subword_prefix": null,
    "end_of_word_suffix": null,
    "fuse_unk": false,
    "byte_fallback": false,
    "vocab": {
      "[UNK]": 0,
      "[CLS]": 1,
      "[SEP]": 2,
      "[PAD]": 3,
      "[MASK]": 4,
      "!": 5,
      "\"": 6,
      "#": 7,
      "$": 8,
      "%": 9,
      "&": 10,
      "'": 11,
      "(": 12,
      ")": 13,
      "*": 14,
      "+": 15,
      ",": 16,
      "-": 17,
      ".": 18,
      "/": 19,
      "0": 20,
      "1": 21,
      "2": 22,
      "3": 23,
      "4": 24,
      "5": 25,
      "6": 26,
      "7": 27,
      "8": 28,
      "9": 29,
      ":": 30,
      ";": 31,
      "<": 32,
      "=": 33,
      ">": 34,
      "?": 35,
      "@": 36,
      "A": 37,
      "B": 38,
      "C": 39,
      "D": 40,
      "E": 41,
      "F": 42,
      "G": 43,
      "H": 44,
      "I": 45,
      "J": 46,
      "K": 47,
      "L": 48,
      "M": 49,
      "N": 50,
      "O": 51,
      "P": 52,
      "Q": 53,
      "R": 54,
      "S": 55,
      "T": 56,
      "U": 57,
      "V": 58,
      "W": 59,
      "X": 60,
      "Y": 61,
      "Z": 62,
      "[": 63,
      "\\": 64,
      "]": 65,
      "^": 66,
      "_": 67,
      "`": 68,
      "a": 69,
      "b": 70,
      "c": 71,
      "d": 72,
      "e": 73,
      "f": 74,
      "g": 75,
      "h": 76,
      "i": 77,
      "j": 78,
      "k": 79,
      "l": 80,
      "m": 81,
      "n": 82,
      "o": 83,
      "p": 84,
      "q": 85,
      "r": 86,
      "s": 87,
      "t": 88,
      "u": 89,
      "v": 90,
      "w": 91,
      "x": 92,
      "y": 93,
      "z": 94,
      "{": 95,
      "|": 96,
      "}": 97,
      "~": 98,
      "¡": 99,
      "¢": 100,
      "£": 101,
      "¤": 102,
      "¥": 103,
      "¦": 104,
      "§": 105,
      "¨": 106,
      "©": 107,
      "ª": 108,
      "«": 109,
      "¬": 110,
      "®": 111,
      "¯": 112,
      "°": 113,
      "±": 114,
      "²": 115,
      "³": 116,
      "´": 117,
      "µ": 118,
      "¶": 119,
      "·": 120,
      "¸": 121,
      "¹": 122,
      "º": 123,
      "»": 124,
      "¼": 125,
      "½": 126,
      "¾": 127,
      "¿": 128,
      "À": 129,
      "Á": 130,
      "Â": 131,
      "Ã": 132,
      "Ä": 133,
      "Å": 134,
      "Æ": 135,
      "Ç": 136,
      "È": 137,
      "É": 138,
      "Ê": 139,
      "Ë": 140,
      "Ì": 141,
      "Í": 142,
      "Î": 143,
      "Ï": 144,
      "Ð": 145,
      "Ñ": 146,
      "Ò": 147,
      "Ó": 148,
      "Ô": 149,
      "Õ": 150,
      "Ö": 151,
      "×": 152,
      "Ø": 153,
      "Ù": 154,
      "Ú": 155,
      "Û": 156,
      "Ü": 157,
      "Ý": 158,
      "Þ": 159,
      "ß": 160,
      "à": 161,
      "á": 162,
      "â": 163,
      "ã": 164,
      "ä": 165,
      "å": 166,
      "æ": 167,
      "ç": 168,
      "è": 169,
      "é": 170,
      "ê": 171,
      "ë": 172,
      "ì": 173,
      "í": 174,
      "î": 175,
      "ï": 176,
      "ð": 177,
      "ñ": 178,
      "ò": 179,
      "ó": 180,
      "ô": 181,
      "õ": 182,
      "ö": 183,
      "÷": 184,
      "ø": 185,
      "ù": 186,
      "ú": 187,
      "û": 188,
      "ü": 189,
      "ý": 190,
      "þ": 191,
      "ÿ": 192,
      "Ā": 193,
      "ā": 194,
      "Ă": 195,
      "ă": 196,
      "Ą": 197,
      "ą": 198,
      "Ć": 199,
      "ć": 200,
      "Ĉ": 201,
      "ĉ": 202,
      "Ċ": 203,
      "ċ": 204,
      "Č": 205,
      "č": 206,
      "Ď": 207,
      "ď": 208,
      "Đ": 209,
      "đ": 210,
      "Ē": 211,
      "ē": 212,
      "Ĕ": 213,
      "ĕ": 214,
      "Ė": 215,
      "ė": 216,
      "Ę": 217,
      "ę": 218,
      "Ě": 219,
      "ě": 220,
      "Ĝ": 221,
      "ĝ": 222,
      "Ğ": 223,
      "ğ": 224,
      "Ġ": 225,
      "ġ": 226,
      "Ģ": 227,
      "ģ": 228,
      "Ĥ": 229,
      "ĥ": 230,
      "Ħ": 231,
      "ħ": 232,
      "Ĩ": 233,
      "ĩ": 234,
      "Ī": 235,
      "ī": 236,
      "Ĭ": 237,
      "ĭ": 238,
      "Į": 239,
      "į": 240,
      "İ": 241,
      "ı": 242,
      "Ĳ": 243,
      "ĳ": 244,
      "Ĵ": 245,
      "ĵ": 246,
      "Ķ": 247,
      "ķ": 248,
      "ĸ": 249,
      "Ĺ": 250,
      "ĺ": 251,
      "Ļ": 252,
      "ļ": 253,
      "Ľ": 254,
      "ľ": 255,
      "Ŀ": 256,
      "ŀ": 257,
      "Ł": 258,
      "ł": 259,
      "Ń": 260,
      "in": 261,
      "re": 262,
      "Ġs": 263,
      "Ġp": 264,
      "Ġc": 265,
      "on": 266,
      "er": 267,
      "en": 268,
      "Ġa": 269,
      "Ġt": 270,
      "es": 271,
      "Ġl": 272,
      "ou": 273,
      "an": 274,
      "Ġm": 275,
      "Ġd": 276,
      "ing": 277,
      "it": 278,
      "is": 279,
      "Ġf": 280,
      "ar": 281,
      "al": 282,
      "Ġb": 283,
      "at": 284,
      "Ġw": 285,
      "le": 286,
      "or": 287,
      "ed": 288,
      "Ġg": 289,
      "Ġn": 290,
      "ent": 291,
      "Ã©": 292,
      "Ġh": 293,
      "ic": 294,
      "et": 295,
      "ot": 296,
      "Ġre": 297,
      "om": 298,
      "ly": 299,
      "Ġe": 300,
      "il": 301,
      "ion": 302,
      "ro": 303,
      "as": 304,
      "us": 305,
      "ac": 306,
      "qu": 307,
      "Ġv": 308,
      "el": 309,
      "Ġst": 310,
      "op": 311,
      "ay": 312,
      "Ġr": 313,
      "id": 314,
      "im": 315,
      "iv": 316,
      "ig": 317,
      "ol": 318,
      "ers": 319,
      "em": 320,
      "un": 321,
      "ct": 322,
      "Ġth": 323,
      "Ġin": 324,
      "ch": 325,
      "ke": 326,
      "st": 327,
      "Ġis": 328,
      "est": 329,
      "ont": 330,
      "ur": 331,
      "Ġtr": 332,
      "ant": 333,
      "ow": 334,
      "one": 335,
      "Ġnot": 336,
      "ut": 337,
      "ad": 338,
      "ag": 339,
      "Ġj": 340,
      "Ġch": 341,
      "Ġcom": 342,
      "Ġpl": 343,
      "ir": 344,
      "Ġqu": 345,
      "am": 346,
      "ce": 347,
      "Ġpe": 348,
      "Ġal": 349,
      "ver": 350,
      "ld": 351,
      "Ġy": 352,
      "Ġpar": 353,
      "Ġgo": 354,
      "Ġpro": 355,
      "ation": 356,
      "se": 357,
      "Ġse": 358,
      "ally": 359,
      "Ġne": 360,
      "end": 361,
      "av": 362,
      "ble": 363,
      "ill": 364,
      "pp": 365,
      "ort": 366,
      "and": 367,
      "ul": 368,
      "our": 369,
      "ff": 370,
      "ould": 371,
      "Ġdo": 372,
      "Ġcon": 373,
      "ain": 374,
      "ment": 375,
      "Ġli": 376,
      "nt": 377,
      "ht": 378,
      "Ġsu": 379,
      "ire": 380,
      "ist": 381,
      "Ġex": 382,
      "Ġi": 383,
      "ere": 384,
      "ity": 385,
      "king": 386,
      "ople": 387,
      "Ġit": 388,
      "ess": 389,
      "Ġpeople": 390,
      "Ġlo": 391,
      "ie": 392,
      "ate": 393,
      "Ġde": 394,
      "od": 395,
      "pe": 396,
      "out": 397,
      "ear": 398,
      "Ġ2": 399,
      "ri": 400,
      "Ã¨": 401,
      "Ġam": 402,
      "nd": 403,
      "Ġar": 404,
      "Ġ\"": 405,
      "Ġsh": 406,
      "Ġget": 407,
      "ond": 408,
      "res": 409,
      "Ġo": 410,
      "Ġan": 411,
      "Ġlike": 412,
      "ive": 413,
      "Ġwould": 414,
      "Ġk": 415,
      "ait": 416,
      "Ġ1": 417,
      "ais": 418,
      "au": 419,
      "ens": 420,
      "ous": 421,
      "ice": 422,
      "lo": 423,
      "ter": 424,
      "Ġun": 425,
      "age": 426,
      "ne": 427,
      "ans": 428,
      "ci": 429,
      "Ġpo": 430,
      "Ġpr": 431,
      "ight": 432,
      "ine": 433,
      "ps": 434,
      "ard": 435,
      "Ġen": 436,
      "Ġle": 437,
      "ast": 438,
      "are": 439,
      "art": 440,
      "Ġwor": 441,
      "ement": 442,
      "Ġone": 443,
      "Ġcomp": 444,
      "Ġus": 445,
      "Ġta": 446,
      "Ġma": 447,
      "ace": 448,
      "ack": 449,
      "ell": 450,
      "Ġare": 451,
      "ure": 452,
      "ind": 453,
      "ound": 454,
      "Ġmo": 455,
      "ang": 456,
      "ĠÃ": 457,
      "ss": 458,
      "ab": 459,
      "te": 460,
      "me": 461,
      "ite": 462,
      "Ġbu": 463,
      "ap": 464,
      "ck": 465,
      "ue": 466,
      "Ġtim": 467,
      "her": 468,
      "hing": 469,
      "Ġim": 470,
      "ave": 471,
      "ve": 472,
      "ome": 473,
      "ies": 474,
      "Ġcan": 475,
      "Ġev": 476,
      "ide": 477,
      "Ġplus": 478,
      "Ġyear": 479,
      "tt": 480,
      "ord": 481,
      "Ġmont": 482,
      "Ġapp": 483,
      "ux": 484,
      "Ġcl": 485,
      "ass": 486,
      "ien": 487,
      "Ġbe": 488,
      "Ġwe": 489,
      "Ġpre": 490,
      "old": 491,
      "Ġcont": 492,
      "all": 493,
      "ai": 494,
      "ub": 495,
      "Ġme": 496,
      "Ġever": 497,
      "Ġ20": 498,
      "able": 499,
      "aire": 500,
      "per": 501,
      "um": 502,
      "act": 503,
      "oug": 504,
      "Ġman": 505,
      "ays": 506,
      "ĠdÃ©": 507,
      "so": 508,
      "Ġ3": 509,
      "Ġ>": 510,
      "Ġco": 511,
      "Ġalso": 512,
      "Ġparis": 513,
      "Ġevery": 514,
      "Ġsa": 515,
      "ong": 516,
      "ick": 517,
      "que": 518,
      "Ġgr": 519,
      "ction": 520,
      "int": 521,
      "Ġtime": 522,
      "now": 523,
      "Ġpart": 524,
      "app": 525,
      "§a": 526,
      "Ġop": 527,
      "Ġsp": 528,
      "Ġdr": 529,
      "ĠÃ§a": 530,
      "Ġper": 531,
      "ance": 532,
      "Ġcity": 533,
      "Ġfre": 534,
      "Ġhe": 535,
      "ok": 536,
      "ud": 537,
      "Ġfr": 538,
      "ign": 539,
      "'s": 540,
      "00": 541,
      "orm": 542,
      "Ġhave": 543,
      "Ġyou": 544,
      "Ġsee": 545,
      "Ã©t": 546,
      "Ġeven": 547,
      "cc": 548,
      "ore": 549,
      "ting": 550,
      "Ġas": 551,
      "Ġknow": 552,
      "Ġwork": 553,
      "Ġthing": 554,
      "Ġinc": 555,
      "Ġro": 556,
      "Ġpers": 557,
      "oir": 558,
      "Ġad": 559,
      "Ġgoing": 560,
      "Ġsi": 561,
      "Ġany": 562,
      "Ġneed": 563,
      "Ġperson": 564,
      "ink": 565,
      "ish": 566,
      "if": 567,
      "os": 568,
      "up": 569,
      "Ġres": 570,
      "ions": 571,
      "ier": 572,
      "ild": 573,
      "ille": 574,
      "own": 575,
      "Ġyears": 576,
      "ge": 577,
      "Ġmet": 578,
      "Ġgood": 579,
      "th": 580,
      "tre": 581,
      "Ġspe": 582,
      "Ġav": 583,
      "Ġwh": 584,
      "Ġwill": 585,
      "ondon": 586,
      "Ġfe": 587,
      "Ġcomm": 588,
      "Ġcr": 589,
      "Ġcou": 590,
      "Ġcould": 591,
      "Ġlondon": 592,
      "Ġbr": 593,
      "ak": 594,
      "com": 595,
      "Ġact": 596,
      "li": 597,
      "erv": 598,
      "Ġstill": 599,
      "Ġplace": 600,
      "Ġnew": 601,
      "port": 602,
      "ually": 603,
      "Ġph": 604,
      "ated": 605,
      "ors": 606,
      "ents": 607,
      "Ġreally": 608,
      "ase": 609,
      "Ġmake": 610,
      "ber": 611,
      "Ġend": 612,
      "ating": 613,
      "bs": 614,
      "Ġaut": 615,
      "Ġto": 616,
      "Ġwant": 617,
      "ĠrÃ©": 618,
      "Ġstre": 619,
      "ult": 620,
      "ough": 621,
      "lic": 622,
      "Ġsome": 623,
      "Ġag": 624,
      "Ġtout": 625,
      "Ġlot": 626,
      "Ġdis": 627,
      "Ġday": 628,
      "Ġbus": 629,
      "Ġrem": 630,
      "ffic": 631,
      "ry": 632,
      "uc": 633,
      "Ġcar": 634,
      "Ġtor": 635,
      "onto": 636,
      "Ã¨s": 637,
      "Ġaround": 638,
      "20": 639,
      "ple": 640,
      "Ġway": 641,
      "Ġthe": 642,
      "uch": 643,
      "igh": 644,
      "ible": 645,
      "Ġso": 646,
      "Ġdi": 647,
      "Ġbl": 648,
      "Ġche": 649,
      "ours": 650,
      "pt": 651,
      "Ġpol": 652,
      "Ġlong": 653,
      "Ġmar": 654,
      "Ġrent": 655,
      "elle": 656,
      "Ġthink": 657,
      "Ġmany": 658,
      "Ġsaid": 659,
      "be": 660,
      "not": 661,
      "nch": 662,
      "ru": 663,
      "ert": 664,
      "Ġback": 665,
      "ame": 666,
      "Ġstreet": 667,
      "ek": 668,
      "ois": 669,
      "Ġsc": 670,
      "Ġpub": 671,
      "Ġmuch": 672,
      "Ġfa": 673,
      "Ġgu": 674,
      "Ã©e": 675,
      "Ġreg": 676,
      "Ġint": 677,
      "Ġweek": 678,
      "Ġfrench": 679,
      "way": 680,
      "Ġent": 681,
      "Ġet": 682,
      "alk": 683,
      "ust": 684,
      "Ġthere": 685,
      "Ġinf": 686,
      "Ġtrans": 687,
      "Ġcannot": 688,
      "low": 689,
      "Ãª": 690,
      "Ġ5": 691,
      "Ġtw": 692,
      "omet": 693,
      "ations": 694,
      "ra": 695,
      "ince": 696,
      "Ġfind": 697,
      "ote": 698,
      "Ġprob": 699,
      "ia": 700,
      "ily": 701,
      "ious": 702,
      "og": 703,
      "ood": 704,
      "ins": 705,
      "Ġhapp": 706,
      "Ġtoronto": 707,
      "Ġ4": 708,
      "oup": 709,
      "itÃ©": 710,
      "Ġrest": 711,
      "ants": 712,
      "Ġsub": 713,
      "Ġtake": 714,
      "Ġsomeone": 715,
      "ep": 716,
      "Ġsomet": 717,
      "Ġpay": 718,
      "anc": 719,
      "Ġfri": 720,
      "Ġbo": 721,
      "Ġgot": 722,
      "ach": 723,
      "Ã¨re": 724,
      "cl": 725,
      "ip": 726,
      "Ġsay": 727,
      "Ġacc": 728,
      "Ġfam": 729,
      "Ã©r": 730,
      "Ġthat": 731,
      "Ġtry": 732,
      "dit": 733,
      "Ġcent": 734,
      "Ġgre": 735,
      "ically": 736,
      "pect": 737,
      "uck": 738,
      "wh": 739,
      "Ġap": 740,
      "ict": 741,
      "Ġcanad": 742,
      "ail": 743,
      "ect": 744,
      "Ġold": 745,
      "Ġpass": 746,
      "Ġliv": 747,
      "Ġfaire": 748,
      "Ġstart": 749,
      "Ġchang": 750,
      "gl": 751,
      "thing": 752,
      "Ġserv": 753,
      "Ġfin": 754,
      "Ġhous": 755,
      "Ġem": 756,
      "Ġcons": 757,
      "Ġetc": 758,
      "ool": 759,
      "Ġsch": 760,
      "Ġtour": 761,
      "Ġww": 762,
      "uss": 763,
      "Ġve": 764,
      "Ġinst": 765,
      "Ġprov": 766,
      "cial": 767,
      "Ġmonth": 768,
      "Ġthey": 769,
      "ique": 770,
      "ty": 771,
      "ĠÃ©": 772,
      "Ġfait": 773,
      "ress": 774,
      "Ġpoint": 775,
      "Ġpublic": 776,
      "ian": 777,
      "oy": 778,
      "rÃ©": 779,
      "Ġlit": 780,
      "Ġbon": 781,
      "ets": 782,
      "Ġlook": 783,
      "Ġbuy": 784,
      "Ġtwo": 785,
      "ile": 786,
      "vel": 787,
      "ĠÂ": 788,
      "Ġte": 789,
      "its": 790,
      "Ġbas": 791,
      "Ġgen": 792,
      "Ġnon": 793,
      "Ġinter": 794,
      "urs": 795,
      "Ġseem": 796,
      "Ġexp": 797,
      "Ġactually": 798,
      "Ġsomething": 799,
      "ful": 800,
      "ner": 801,
      "ues": 802,
      "ways": 803,
      "Ġsm": 804,
      "Ġass": 805,
      "Ġmay": 806,
      "Ġdon": 807,
      "ith": 808,
      "ise": 809,
      "iss": 810,
      "ath": 811,
      "Ġwell": 812,
      "ical": 813,
      "Ġins": 814,
      "Ġtrav": 815,
      "orth": 816,
      "Ġbuild": 817,
      "Ġwww": 818,
      "ft": 819,
      "ose": 820,
      "ures": 821,
      "ence": 822,
      "Ġatt": 823,
      "Ġland": 824,
      "Ġfl": 825,
      "Ġfun": 826,
      "Ġfir": 827,
      "Ġhel": 828,
      "Ġvis": 829,
      "Ġtrain": 830,
      "ends": 831,
      "ered": 832,
      "Ġarr": 833,
      "Ġincre": 834,
      "az": 835,
      "ob": 836,
      "Ġcert": 837,
      "ons": 838,
      "Ġmin": 839,
      "Ġdes": 840,
      "Ġdire": 841,
      "Ġrec": 842,
      "Ġproper": 843,
      "Ġnever": 844,
      "Ġconc": 845,
      "Ġart": 846,
      "Ġund": 847,
      "Ġmontre": 848,
      "âĢ": 849,
      "rent": 850,
      "Ġsim": 851,
      "ense": 852,
      "Ġbet": 853,
      "Ġhtt": 854,
      "ices": 855,
      "Ġrat": 856,
      "Ġind": 857,
      "Ġcomme": 858,
      "Ġloc": 859,
      "Ġgetting": 860,
      "Ġoff": 861,
      "âĢ¦": 862,
      "Ġhttps": 863,
      "iz": 864,
      "Ġup": 865,
      "ouse": 866,
      "Ġmond": 867,
      "ater": 868,
      "Ġwith": 869,
      "Ġeas": 870,
      "Ġproble": 871,
      "aint": 872,
      "htt": 873,
      "Ġdep": 874,
      "Ġthings": 875,
      "Ġcommun": 876,
      "Ġfirst": 877,
      "Ġproblem": 878,
      "fe": 879,
      "io": 880,
      "ost": 881,
      "oking": 882,
      "read": 883,
      "Ġcol": 884,
      "Ġla": 885,
      "ale": 886,
      "Ġwom": 887,
      "lect": 888,
      "Ġstop": 889,
      "che": 890,
      "Ġsec": 891,
      "Ġpost": 892,
      "ably": 893,
      "Ġimp": 894,
      "Ġschool": 895,
      "https": 896,
      "du": 897,
      "Ġsy": 898,
      "Ġsur": 899,
      "Ġput": 900,
      "Ġcur": 901,
      "ern": 902,
      "Ġlive": 903,
      "other": 904,
      "Ġel": 905,
      "aces": 906,
      "urn": 907,
      "Ġquel": 908,
      "Ġsure": 909,
      "Ġsupp": 910,
      "Ġhousing": 911,
      "ussi": 912,
      "Ġbetter": 913,
      "ib": 914,
      "Ġz": 915,
      "Ġsince": 916,
      "Ġcro": 917,
      "Ġcas": 918,
      "ones": 919,
      "Ġtick": 920,
      "Ġlast": 921,
      "Ġwalk": 922,
      "ory": 923,
      "ich": 924,
      "Ġref": 925,
      "ĠtrÃ¨s": 926,
      "ute": 927,
      "ade": 928,
      "Ġalways": 929,
      "vern": 930,
      "Ġconst": 931,
      "Ġbeau": 932,
      "Ġask": 933,
      "Ġfeel": 934,
      "Ġhappen": 935,
      "Ġcertain": 936,
      "les": 937,
      "xt": 938,
      "ªtre": 939,
      "Ġsit": 940,
      "Ġple": 941,
      "Ġpop": 942,
      "Ġac": 943,
      "ouv": 944,
      "Ġdem": 945,
      "ings": 946,
      "ary": 947,
      "Ġblo": 948,
      "Ġwent": 949,
      "Ġhouse": 950,
      "Ġreal": 951,
      "ques": 952,
      "iver": 953,
      "Ġinv": 954,
      "ists": 955,
      "Ġdec": 956,
      "ĠÃªtre": 957,
      "Ġcost": 958,
      "Ġfamily": 959,
      "ial": 960,
      "ole": 961,
      "pl": 962,
      "ule": 963,
      "Ãł": 964,
      "Ġu": 965,
      "Ġke": 966,
      "Ġsign": 967,
      "Ġca": 968,
      "Ġclo": 969,
      "Ġcare": 970,
      "Ġaussi": 971,
      "Ġter": 972,
      "ount": 973,
      "Ġfol": 974,
      "Ġvi": 975,
      "Ġstud": 976,
      "Ġje": 977,
      "Ġshop": 978,
      "ssible": 979,
      "ler": 980,
      "Ġor": 981,
      "Ġout": 982,
      "ree": 983,
      "Ġlet": 984,
      "Ġmat": 985,
      "Ġgens": 986,
      "Ġhome": 987,
      "Ġhigh": 988,
      "erst": 989,
      "Ġiss": 990,
      "ages": 991,
      "Ġquand": 992,
      "Ġlooking": 993,
      "Ġopt": 994,
      "Ġanything": 995,
      "Ġmontreal": 996,
      "gg": 997,
      "nc": 998,
      "ual": 999,
      "ved": 1000,
      "Ġsw": 1001,
      "Ġless": 1002,
      "Ġmed": 1003,
      "ities": 1004,
      "Ġbig": 1005,
      "Ġwait": 1006,
      "led": 1007,
      "Ã©s": 1008,
      "Ġhon": 1009,
      "oth": 1010,
      "Ġplan": 1011,
      "Ġnear": 1012,
      "Ġshow": 1013,
      "Ġengl": 1014,
      "Ġleast": 1015,
      "Ġuse": 1016,
      "Ġbeh": 1017,
      "Ġeveryone": 1018,
      "Ġcanada": 1019,
      "aur": 1020,
      "iers": 1021,
      "ks": 1022,
      "less": 1023,
      "ws": 1024,
      "Ġ6": 1025,
      "Ġes": 1026,
      "Ġlow": 1027,
      "Ġright": 1028,
      "Ġpeu": 1029,
      "Ġconv": 1030,
      "Ġkid": 1031,
      "Ġpriv": 1032,
      "Ġcomple": 1033,
      "Ġ30": 1034,
      "where": 1035,
      "get": 1036,
      "ied": 1037,
      "ians": 1038,
      "Ġ'": 1039,
      "Ġ7": 1040,
      "Ġcor": 1041,
      "Ġlear": 1042,
      "Ġment": 1043,
      "Ġmus": 1044,
      "Ġbest": 1045,
      "ative": 1046,
      "Ġnight": 1047,
      "Ġtrou": 1048,
      "Ġ10": 1049,
      "Ġmove": 1050,
      "ought": 1051,
      "Ġadv": 1052,
      "Ġcount": 1053,
      "Ġregard": 1054,
      "Ġdonc": 1055,
      "Ġhelp": 1056,
      "Ġunderst": 1057,
      "Ġmonde": 1058,
      "aut": 1059,
      "coup": 1060,
      "uis": 1061,
      "ycl": 1062,
      "Ġ9": 1063,
      "red": 1064,
      "Ġtem": 1065,
      "Ġdel": 1066,
      "ars": 1067,
      "alking": 1068,
      "Ġbre": 1069,
      "Ġgro": 1070,
      "Ġnice": 1071,
      "Ġrel": 1072,
      "rol": 1073,
      "ason": 1074,
      "Ġstation": 1075,
      "ope": 1076,
      "ember": 1077,
      "Ġjus": 1078,
      "Ġgovern": 1079,
      "Ġneigh": 1080,
      "ffere": 1081,
      "ments": 1082,
      "Ġworld": 1083,
      "Ġarea": 1084,
      "Ġimm": 1085,
      "Ġ201": 1086,
      "Ġgrand": 1087,
      "Ġdriv": 1088,
      "Ġperm": 1089,
      "Ġpolice": 1090,
      "Ġbeaucoup": 1091,
      "Ġenglish": 1092,
      "Ġneighb": 1093,
      "kes": 1094,
      "vote": 1095,
      "ys": 1096,
      "Ã´": 1097,
      "Ġpet": 1098,
      "Ġport": 1099,
      "Ġcal": 1100,
      "Ġcour": 1101,
      "Ġcap": 1102,
      "Ġmen": 1103,
      "Ġmone": 1104,
      "Ġdown": 1105,
      "Ġdating": 1106,
      "Ġbad": 1107,
      "Ġbien": 1108,
      "ates": 1109,
      "Ġrep": 1110,
      "Ġvers": 1111,
      "Ġstr": 1112,
      "Ġthough": 1113,
      "Ġtra": 1114,
      "Ġplaces": 1115,
      "cept": 1116,
      "Ġexper": 1117,
      "Ġexpect": 1118,
      "Ġlevel": 1119,
      "Ġopen": 1120,
      "Ġavoir": 1121,
      "Ġdiffere": 1122,
      "Ġprobably": 1123,
      "Ġwomen": 1124,
      "Ġelse": 1125,
      "Ġlearn": 1126,
      "Ġmoney": 1127,
      "gan": 1128,
      "lÃ¨": 1129,
      "Ġ8": 1130,
      "Ġsl": 1131,
      "Ġsort": 1132,
      "Ġty": 1133,
      "Ġlig": 1134,
      "ĠmÃ©t": 1135,
      "Ġdid": 1136,
      "Ġbi": 1137,
      "Ġbit": 1138,
      "Ã©c": 1139,
      "Ã©n": 1140,
      "Ã©es": 1141,
      "Ġrev": 1142,
      "Ġvo": 1143,
      "ident": 1144,
      "Ġquest": 1145,
      "Ġpeut": 1146,
      "Ġdoes": 1147,
      "istes": 1148,
      "Ġdev": 1149,
      "Ġtax": 1150,
      "tty": 1151,
      "ience": 1152,
      "Ġpretty": 1153,
      "Ġ202": 1154,
      "Ġago": 1155,
      "Ġunderstand": 1156,
      "Ġgovernment": 1157,
      "Ġligne": 1158,
      "day": 1159,
      "ract": 1160,
      "Ġside": 1161,
      "Ġcall": 1162,
      "enc": 1163,
      "Ġtous": 1164,
      "Ġline": 1165,
      "Ġlang": 1166,
      "Ġmight": 1167,
      "Ġfor": 1168,
      "arge": 1169,
      "Ġnorm": 1170,
      "ots": 1171,
      "Ġret": 1172,
      "Ġvie": 1173,
      "Ġchild": 1174,
      "ular": 1175,
      "Ġanother": 1176,
      "Ġprice": 1177,
      "Ġused": 1178,
      "Ġclass": 1179,
      "Ġspeak": 1180,
      "Ġtransport": 1181,
      "Ġfriends": 1182,
      "Ġgreat": 1183,
      "Ġservice": 1184,
      "ĠÂ£": 1185,
      "Ġproperty": 1186,
      "Ġsyst": 1187,
      "Ġfollow": 1188,
      "ah": 1189,
      "ject": 1190,
      "ph": 1191,
      "ye": 1192,
      "Ġou": 1193,
      "Ġed": 1194,
      "Ġont": 1195,
      "Ġaff": 1196,
      "Ġaway": 1197,
      "Ġdate": 1198,
      "Ġbed": 1199,
      "Ġworth": 1200,
      "Ġgiv": 1201,
      "Ġeff": 1202,
      "asse": 1203,
      "Ġquart": 1204,
      "Ġpark": 1205,
      "ational": 1206,
      "Ġseen": 1207,
      "erest": 1208,
      "Ġenough": 1209,
      "Ġcontin": 1210,
      "Ġcheck": 1211,
      "Ġinterest": 1212,
      "Ġrestaur": 1213,
      "Ġontar": 1214,
      "aid": 1215,
      "ger": 1216,
      "ket": 1217,
      "lord": 1218,
      "oint": 1219,
      "rÃ¨s": 1220,
      "Ã§": 1221,
      "Ġ$": 1222,
      "Ġsol": 1223,
      "Ġsem": 1224,
      "Ġsans": 1225,
      "Ġcre": 1226,
      "erally": 1227,
      "Ġtou": 1228,
      "Ġtop": 1229,
      "Ġlou": 1230,
      "Ġmid": 1231,
      "Ġmill": 1232,
      "Ġmess": 1233,
      "arm": 1234,
      "Ġnum": 1235,
      "Ġhard": 1236,
      "une": 1237,
      "Ġlove": 1238,
      "Ġdef": 1239,
      "Ġann": 1240,
      "Ġtaking": 1241,
      "Ġtimes": 1242,
      "Ġmeet": 1243,
      "comm": 1244,
      "Ġblack": 1245,
      "Ġcheap": 1246,
      "ances": 1247,
      "Ġchange": 1248,
      "Ġmonths": 1249,
      "Ġvisit": 1250,
      "Ġwithout": 1251,
      "Ġsecond": 1252,
      "Ġkeep": 1253,
      "Ġhonest": 1254,
      "Ġjuste": 1255,
      "Ġdifferent": 1256,
      "ĠmÃ©tro": 1257,
      "aim": 1258,
      "air": 1259,
      "no": 1260,
      "tle": 1261,
      "ug": 1262,
      "ving": 1263,
      "Ġpri": 1264,
      "Ġcle": 1265,
      "Ġaw": 1266,
      "Ġtt": 1267,
      "Ġmain": 1268,
      "arr": 1269,
      "Ġhear": 1270,
      "Ġhope": 1271,
      "rop": 1272,
      "Ġva": 1273,
      "Ġval": 1274,
      "Ġrun": 1275,
      "erse": 1276,
      "Ġqual": 1277,
      "ending": 1278,
      "Ġconf": 1279,
      "Ġdeux": 1280,
      "Ġans": 1281,
      "aug": 1282,
      "cially": 1283,
      "ards": 1284,
      "arent": 1285,
      "Ġfrance": 1286,
      "Ġdisc": 1287,
      "Ġintern": 1288,
      "Ġseems": 1289,
      "Ġlandlord": 1290,
      "Ġconstru": 1291,
      "Ġdemand": 1292,
      "cle": 1293,
      "form": 1294,
      "gr": 1295,
      "ix": 1296,
      "ient": 1297,
      "line": 1298,
      "rer": 1299,
      "Ġser": 1300,
      "Ġset": 1301,
      "Ġcet": 1302,
      "Ġcycl": 1303,
      "ene": 1304,
      "Ġten": 1305,
      "Ġmade": 1306,
      "ither": 1307,
      "ised": 1308,
      "Ġfac": 1309,
      "Ġbro": 1310,
      "Ġhom": 1311,
      "Ġreason": 1312,
      "Ġrecomm": 1313,
      "iment": 1314,
      "Ġalread": 1315,
      "Ġyes": 1316,
      "Ġsuper": 1317,
      "ndre": 1318,
      "Ġshort": 1319,
      "aux": 1320,
      "Ġmoins": 1321,
      "Ã©tait": 1322,
      "Ġautom": 1323,
      "Ġfaut": 1324,
      "Ãªt": 1325,
      "Ġconsid": 1326,
      "Ġconcern": 1327,
      "Ġprivate": 1328,
      "Ã´t": 1329,
      "Ġontario": 1330,
      "Ġalready": 1331,
      "gal": 1332,
      "hood": 1333,
      "joy": 1334,
      "ted": 1335,
      "ines": 1336,
      "Ġce": 1337,
      "ering": 1338,
      "Ġmal": 1339,
      "Ġfem": 1340,
      "Ġfound": 1341,
      "Ġfood": 1342,
      "alth": 1343,
      "Ġban": 1344,
      "Ġwin": 1345,
      "Ġgive": 1346,
      "ety": 1347,
      "Ġred": 1348,
      "Ġrer": 1349,
      "Ġeither": 1350,
      "ils": 1351,
      "Ġrue": 1352,
      "Ġjam": 1353,
      "Ġjour": 1354,
      "Ġcho": 1355,
      "Ġque": 1356,
      "ull": 1357,
      "ately": 1358,
      "pecially": 1359,
      "Ġenjoy": 1360,
      "Ġcompan": 1361,
      "Ġgroup": 1362,
      "Ġfree": 1363,
      "Ġincl": 1364,
      "Ġroad": 1365,
      "Ġadd": 1366,
      "Ġphone": 1367,
      "bec": 1368,
      "Ġliving": 1369,
      "Ġmaybe": 1370,
      "Ġincreas": 1371,
      "Ġlocal": 1372,
      "Ġcurrent": 1373,
      "Ġespecially": 1374,
      "Ġtraffic": 1375,
      "Ġlangu": 1376,
      "Ġnormal": 1377,
      "Ġttc": 1378,
      "ead": 1379,
      "iÃ¨re": 1380,
      "most": 1381,
      "nes": 1382,
      "oot": 1383,
      "pr": 1384,
      "uff": 1385,
      "Ġ&": 1386,
      "Ġpres": 1387,
      "Ġcop": 1388,
      "Ġcult": 1389,
      "ery": 1390,
      "Ġab": 1391,
      "Ġtold": 1392,
      "Ġturn": 1393,
      "Ġluck": 1394,
      "Ġdist": 1395,
      "ition": 1396,
      "Ġfar": 1397,
      "Ġfont": 1398,
      "Ġfuck": 1399,
      "arch": 1400,
      "ork": 1401,
      "Ġhist": 1402,
      "ĠvÃ©": 1403,
      "Ġstay": 1404,
      "Ġcome": 1405,
      "Ġcomment": 1406,
      "Ġalmost": 1407,
      "Ġlife": 1408,
      "Ġenf": 1409,
      "ared": 1410,
      "Ġbud": 1411,
      "Ġimag": 1412,
      "ĠmontrÃ©": 1413,
      "Ġmean": 1414,
      "ruct": 1415,
      "Ġdirect": 1416,
      "Ġsupport": 1417,
      "Ġtickets": 1418,
      "Ġpopul": 1419,
      "others": 1420,
      "Ġexperience": 1421,
      "Ġhonestly": 1422,
      "50": 1423,
      "aking": 1424,
      "hip": 1425,
      "par": 1426,
      "Ġord": 1427,
      "Ġown": 1428,
      "Ġsound": 1429,
      "Ġpan": 1430,
      "Ġabs": 1431,
      "Ġtell": 1432,
      "Ġdou": 1433,
      "Ġfine": 1434,
      "Ġfore": 1435,
      "als": 1436,
      "Ġbill": 1437,
      "ats": 1438,
      "Ġwr": 1439,
      "Ġgard": 1440,
      "Ġville": 1441,
      "els": 1442,
      "Ġram": 1443,
      "ime": 1444,
      "olog": 1445,
      "und": 1446,
      "Ġjob": 1447,
      "irt": 1448,
      "Ġparking": 1449,
      "Ġprof": 1450,
      "Ġprodu": 1451,
      "Ġnext": 1452,
      "aine": 1453,
      "Ġpossible": 1454,
      "Ġmaking": 1455,
      "elles": 1456,
      "aires": 1457,
      "Ġresp": 1458,
      "Ġphot": 1459,
      "Ġlots": 1460,
      "Ġsocial": 1461,
      "Ġentre": 1462,
      "Ġapart": 1463,
      "ĠaprÃ¨s": 1464,
      "Ġbuilding": 1465,
      "Ġplease": 1466,
      "Ġclose": 1467,
      "Ġcomplete": 1468,
      "Ġtemps": 1469,
      "Ġsystem": 1470,
      "Ġinclud": 1471,
      "bl": 1472,
      "iqu": 1473,
      "Ġon": 1474,
      "iness": 1475,
      "Ġsais": 1476,
      "Ġpat": 1477,
      "Ġcam": 1478,
      "Ġable": 1479,
      "Ġaction": 1480,
      "Ġlarge": 1481,
      "ital": 1482,
      "Ġface": 1483,
      "Ġfact": 1484,
      "arg": 1485,
      "atch": 1486,
      "icle": 1487,
      "eter": 1488,
      "Ġvoir": 1489,
      "Ġvois": 1490,
      "Ġvra": 1491,
      "Ġstuff": 1492,
      "unch": 1493,
      "ante": 1494,
      "Ġjo": 1495,
      "Ġpeux": 1496,
      "Ġext": 1497,
      "ody": 1498,
      "Ġshit": 1499,
      "Ġprices": 1500,
      "Ġusually": 1501,
      "Ġmoving": 1502,
      "Ġwebs": 1503,
      "Ġcontact": 1504,
      "Ġmanag": 1505,
      "Ġfran": 1506,
      "Ġresid": 1507,
      "Ġautre": 1508,
      "Ġremember": 1509,
      "Ġdiffic": 1510,
      "ĠproblÃ¨": 1511,
      "Ġprovince": 1512,
      "Ġarriv": 1513,
      "Ġstudents": 1514,
      "Ġkids": 1515,
      "Ġloud": 1516,
      "Ġlanguage": 1517,
      "ĠmontrÃ©al": 1518,
      "bre": 1519,
      "ca": 1520,
      "fr": 1521,
      "fic": 1522,
      "iens": 1523,
      "jours": 1524,
      "ning": 1525,
      "ness": 1526,
      "oc": 1527,
      "pos": 1528,
      "vot": 1529,
      "Ġest": 1530,
      "ren": 1531,
      "Ġsus": 1532,
      "Ġsav": 1533,
      "Ġsays": 1534,
      "Ġpict": 1535,
      "Ġtre": 1536,
      "Ġdays": 1537,
      "Ġbag": 1538,
      "ention": 1539,
      "Ġhot": 1540,
      "Ġear": 1541,
      "use": 1542,
      "Ġviv": 1543,
      "Ġstore": 1544,
      "Ġrais": 1545,
      "Ġrien": 1546,
      "ution": 1547,
      "avi": 1548,
      "Ġdog": 1549,
      "Ġsugg": 1550,
      "iste": 1551,
      "Ġexact": 1552,
      "Ġamount": 1553,
      "aiss": 1554,
      "Ġenc": 1555,
      "ange": 1556,
      "abit": 1557,
      "Ġhead": 1558,
      "Ġhealth": 1559,
      "Ġanyone": 1560,
      "Ġpersonne": 1561,
      "ific": 1562,
      "Ġbusiness": 1563,
      "Ġmarket": 1564,
      "Ġguy": 1565,
      "Ġ40": 1566,
      "Ġliterally": 1567,
      "Ġgenre": 1568,
      "Ġrather": 1569,
      "Ġsitu": 1570,
      "Ġinvest": 1571,
      "Ġcountry": 1572,
      "reddit": 1573,
      "Ġbike": 1574,
      "Ġquestion": 1575,
      "Ġquartier": 1576,
      "Ġtoujours": 1577,
      "Ġmessage": 1578,
      "Ġinternational": 1579,
      "Ġconstruction": 1580,
      "ĠvÃ©lo": 1581,
      "Ġpopulation": 1582,
      "Ġabsol": 1583,
      "Ġvraiment": 1584,
      "aff": 1585,
      "br": 1586,
      "fort": 1587,
      "jor": 1588,
      "ng": 1589,
      "ping": 1590,
      "Ã»": 1591,
      "Ġid": 1592,
      "Ġothers": 1593,
      "Ġsal": 1594,
      "Ġpot": 1595,
      "Ġpour": 1596,
      "Ġciv": 1597,
      "Ġant": 1598,
      "Ġmer": 1599,
      "Ġmom": 1600,
      "Ġmust": 1601,
      "Ġdro": 1602,
      "Ġdone": 1603,
      "Ġford": 1604,
      "Ġfuc": 1605,
      "Ġbou": 1606,
      "Ġbel": 1607,
      "att": 1608,
      "Ġhig": 1609,
      "ics": 1610,
      "ash": 1611,
      "used": 1612,
      "acy": 1613,
      "ches": 1614,
      "irl": 1615,
      "Ġalors": 1616,
      "Ġallow": 1617,
      "Ġyet": 1618,
      "Ġgets": 1619,
      "Ġocc": 1620,
      "Ġoffic": 1621,
      "Ġoft": 1622,
      "Ġkind": 1623,
      "Ġ13": 1624,
      "Ġ100": 1625,
      "Ġlead": 1626,
      "Ġcompl": 1627,
      "Ġappoint": 1628,
      "Ġcontrol": 1629,
      "Ġmec": 1630,
      "ĠdÃ©j": 1631,
      "Ġneeds": 1632,
      "Ġmetro": 1633,
      "Ġspeci": 1634,
      "Ġavant": 1635,
      "Ġweeks": 1636,
      "Ġfriend": 1637,
      "Ġcentr": 1638,
      "Ġlived": 1639,
      "Ġlittle": 1640,
      "Ġincrease": 1641,
      "Ġhappened": 1642,
      "Ġterm": 1643,
      "Ġouts": 1644,
      "Ġissue": 1645,
      "Ġcalled": 1646,
      "Ġtype": 1647,
      "Ġrestaurants": 1648,
      "Ġwebsite": 1649,
      "Ġsuggest": 1650,
      "Ġfucking": 1651,
      "Ġhigher": 1652,
      "Ġoften": 1653,
      "30": 1654,
      "48": 1655,
      "80": 1656,
      "cess": 1657,
      "cri": 1658,
      "gy": 1659,
      "ially": 1660,
      "ken": 1661,
      "lÃ©": 1662,
      "ossible": 1663,
      "ts": 1664,
      "Ġide": 1665,
      "Ġsout": 1666,
      "Ġpur": 1667,
      "Ġpaid": 1668,
      "Ġcame": 1669,
      "eric": 1670,
      "Ġtalk": 1671,
      "ĠlÃł": 1672,
      "Ġmil": 1673,
      "Ġfort": 1674,
      "Ġflo": 1675,
      "Ġform": 1676,
      "Ġwalking": 1677,
      "Ġgirl": 1678,
      "Ġnorth": 1679,
      "ott": 1680,
      "Ġread": 1681,
      "Ġrend": 1682,
      "Ġelect": 1683,
      "quÃ©": 1684,
      "Ġvu": 1685,
      "Ġstand": 1686,
      "owe": 1687,
      "Ġnothing": 1688,
      "utes": 1689,
      "agn": 1690,
      "Ġalone": 1691,
      "Ġaller": 1692,
      "Ġproject": 1693,
      "Ġconne": 1694,
      "oute": 1695,
      "Ġameric": 1696,
      "Ġ12": 1697,
      "Ġ17": 1698,
      "ensive": 1699,
      "Ġunless": 1700,
      "Ġusing": 1701,
      "Ġmajor": 1702,
      "Ġareas": 1703,
      "Ġapps": 1704,
      "Ġclaim": 1705,
      "Ġeverything": 1706,
      "Ġrespect": 1707,
      "Ġwhite": 1708,
      "Ġwhole": 1709,
      "Ġcounc": 1710,
      "Ġcars": 1711,
      "Ġguess": 1712,
      "Ġsubreddit": 1713,
      "Ġsaying": 1714,
      "Ġtech": 1715,
      "Ġfund": 1716,
      "Ġrecent": 1717,
      "Ġeasy": 1718,
      "Ġcommunity": 1719,
      "Ġlaw": 1720,
      "Ġorig": 1721,
      "Ġissues": 1722,
      "Ġmedia": 1723,
      "Ġbehavi": 1724,
      "Ġmusic": 1725,
      "Ġdeliver": 1726,
      "Ġneighbour": 1727,
      "Ġnumber": 1728,
      "Ġrecommend": 1729,
      "Ġjamais": 1730,
      "Ġcivil": 1731,
      "Ġoutside": 1732,
      "con": 1733,
      "ee": 1734,
      "eur": 1735,
      "ik": 1736,
      "jet": 1737,
      "ped": 1738,
      "ric": 1739,
      "ves": 1740,
      "Ã¹": 1741,
      "Ġ0": 1742,
      "inal": 1743,
      "ret": 1744,
      "reci": 1745,
      "Ġsou": 1746,
      "Ġsens": 1747,
      "Ġpack": 1748,
      "erm": 1749,
      "Ġair": 1750,
      "Ġtalking": 1751,
      "esp": 1752,
      "ane": 1753,
      "Ġmon": 1754,
      "Ġmem": 1755,
      "Ġmind": 1756,
      "ism": 1757,
      "Ġfire": 1758,
      "Ġfall": 1759,
      "Ġfois": 1760,
      "Ġfull": 1761,
      "ators": 1762,
      "atically": 1763,
      "Ġwater": 1764,
      "Ġhal": 1765,
      "Ġhand": 1766,
      "ilar": 1767,
      "row": 1768,
      "Ġver": 1769,
      "elf": 1770,
      "oph": 1771,
      "Ġrid": 1772,
      "Ġrand": 1773,
      "imes": 1774,
      "imit": 1775,
      "ural": 1776,
      "Ġtruc": 1777,
      "Ġcha": 1778,
      "Ġplay": 1779,
      "ird": 1780,
      "Ġall": 1781,
      "Ġparce": 1782,
      "Ġgoes": 1783,
      "Ġsex": 1784,
      "Ġdoct": 1785,
      "ains": 1786,
      "Ġexist": 1787,
      "ieux": 1788,
      "Ġdeal": 1789,
      "Ġamaz": 1790,
      "ĠoÃ¹": 1791,
      "Ġ15": 1792,
      "Ġenv": 1793,
      "Ġleft": 1794,
      "ements": 1795,
      "Ġappreci": 1796,
      "aient": 1797,
      "Ġcov": 1798,
      "Ġspend": 1799,
      "Ġfront": 1800,
      "Ġwants": 1801,
      "Ġlonger": 1802,
      "ellement": 1803,
      "Ġstreets": 1804,
      "Ġ50": 1805,
      "Ġpaying": 1806,
      "Ġaccess": 1807,
      "Ġtrying": 1808,
      "Ġemp": 1809,
      "Ġvegan": 1810,
      "Ġexpensive": 1811,
      "Ġsmall": 1812,
      "Ġoffer": 1813,
      "Ġupvote": 1814,
      "Ġdepuis": 1815,
      "Ġimpossible": 1816,
      "Ġticket": 1817,
      "Ġuk": 1818,
      "Ġclos": 1819,
      "Ġlower": 1820,
      "Ġtrouver": 1821,
      "Ġbreak": 1822,
      "Ġdriving": 1823,
      "Ġdownvote": 1824,
      "Ġedit": 1825,
      "Ġimagine": 1826,
      "ĠproblÃ¨me": 1827,
      "voting": 1828,
      "Ġpictures": 1829,
      "Ġsituation": 1830,
      "Ġappointment": 1831,
      "Ġsouth": 1832,
      "Ġrandom": 1833,
      "ces": 1834,
      "fer": 1835,
      "mer": 1836,
      "mes": 1837,
      "nent": 1838,
      "of": 1839,
      "pm": 1840,
      "vious": 1841,
      "Ġer": 1842,
      "inite": 1843,
      "Ġsk": 1844,
      "Ġsing": 1845,
      "Ġpi": 1846,
      "Ġped": 1847,
      "Ġpand": 1848,
      "Ġpath": 1849,
      "eral": 1850,
      "Ġlist": 1851,
      "Ġlight": 1852,
      "Ġlater": 1853,
      "Ġmis": 1854,
      "Ġmod": 1855,
      "Ġmiss": 1856,
      "Ġmaint": 1857,
      "Ġdow": 1858,
      "Ġfut": 1859,
      "Ġbar": 1860,
      "Ġwas": 1861,
      "lev": 1862,
      "Ġgar": 1863,
      "Ġno": 1864,
      "ility": 1865,
      "ross": 1866,
      "Ġvill": 1867,
      "Ġstat": 1868,
      "Ġris": 1869,
      "Ġrac": 1870,
      "ivers": 1871,
      "Ġchose": 1872,
      "Ġcomes": 1873,
      "ample": 1874,
      "Ġseule": 1875,
      "nds": 1876,
      "Ġeng": 1877,
      "astruct": 1878,
      "Ġprendre": 1879,
      "Ġcool": 1880,
      "Ġsafe": 1881,
      "Ġpartic": 1882,
      "Ġpersonal": 1883,
      "the": 1884,
      "Ġcouple": 1885,
      "Ġendro": 1886,
      "ĠrÃ©g": 1887,
      "Ġpolit": 1888,
      "Ġentire": 1889,
      "Ġinfr": 1890,
      "Ġtransit": 1891,
      "Ãªte": 1892,
      "ogle": 1893,
      "dition": 1894,
      "Ġcentre": 1895,
      "Ġpasser": 1896,
      "Ġservices": 1897,
      "Ġbased": 1898,
      "Ġbuildings": 1899,
      "Ġflat": 1900,
      "Ġarticle": 1901,
      "Ġsimple": 1902,
      "Ġsimilar": 1903,
      "Ġwithin": 1904,
      "Ġcross": 1905,
      "Ġacross": 1906,
      "Ġinvol": 1907,
      "Ġadvice": 1908,
      "Ġdrivers": 1909,
      "Ġporte": 1910,
      "Ġafford": 1911,
      "Ġgiven": 1912,
      "Ġeffort": 1913,
      "Ġinteresting": 1914,
      "Ġprix": 1915,
      "Ġclear": 1916,
      "ersection": 1917,
      "Ġquality": 1918,
      "Ġcette": 1919,
      "Ġcompany": 1920,
      "Ġonline": 1921,
      "Ġresidents": 1922,
      "Ġabsolute": 1923,
      "ĠdÃ©jÃł": 1924,
      "Ġcentral": 1925,
      "owever": 1926,
      "Ġappreciate": 1927,
      "Ġdownt": 1928,
      "bo": 1929,
      "bers": 1930,
      "but": 1931,
      "co": 1932,
      "gu": 1933,
      "he": 1934,
      "ipp": 1935,
      "min": 1936,
      "oi": 1937,
      "pa": 1938,
      "you": 1939,
      "Ġur": 1940,
      "Ġones": 1941,
      "rect": 1942,
      "Ġsite": 1943,
      "Ġsense": 1944,
      "Ġsouv": 1945,
      "Ġpal": 1946,
      "Ġpast": 1947,
      "Ġpress": 1948,
      "Ġpasse": 1949,
      "Ġparent": 1950,
      "Ġach": 1951,
      "Ġtend": 1952,
      "Ġmass": 1953,
      "Ġdit": 1954,
      "ature": 1955,
      "ather": 1956,
      "Ġwast": 1957,
      "Ġgl": 1958,
      "Ġglo": 1959,
      "ĠgÃ©n": 1960,
      "Ã©g": 1961,
      "Ġhor": 1962,
      "Ġhold": 1963,
      "ett": 1964,
      "Ġreport": 1965,
      "ilt": 1966,
      "room": 1967,
      "Ġvar": 1968,
      "ided": 1969,
      "idge": 1970,
      "ival": 1971,
      "igr": 1972,
      "emic": 1973,
      "estri": 1974,
      "util": 1975,
      "Ġquite": 1976,
      "Ġquick": 1977,
      "ames": 1978,
      "Ġye": 1979,
      "endant": 1980,
      "Ġextre": 1981,
      "Ġexample": 1982,
      "ession": 1983,
      "ieurs": 1984,
      "Ã¨me": 1985,
      "Ġob": 1986,
      "Ġover": 1987,
      "tern": 1988,
      "Ġleave": 1989,
      "Ġmob": 1990,
      "aph": 1991,
      "Ġimages": 1992,
      "Ġappro": 1993,
      "Ġmeans": 1994,
      "airement": 1995,
      "ĠdÃ©c": 1996,
      "Ġdrug": 1997,
      "Ġheav": 1998,
      "Ġworked": 1999,
      "Ġroom": 2000,
      "Ġspeaking": 2001,
      "Ġfeed": 2002,
      "Ġtook": 2003,
      "Ġremind": 2004,
      "Ġsoon": 2005,
      "Ġregular": 2006,
      "ustom": 2007,
      "Ġinfo": 2008,
      "Ġinform": 2009,
      "Ġstarted": 2010,
      "Ġfinally": 2011,
      "Ġinstall": 2012,
      "velop": 2013,
      "Ġbasically": 2014,
      "Ġtravel": 2015,
      "Ġsurpr": 2016,
      "plac": 2017,
      "Ġorgan": 2018,
      "Ġoption": 2019,
      "Ġoptions": 2020,
      "Ġwaiting": 2021,
      "Ġmention": 2022,
      "Ġtrouve": 2023,
      "Ġgros": 2024,
      "Ġcourse": 2025,
      "Ġhomes": 2026,
      "Ġbudget": 2027,
      "Ġearly": 2028,
      "Ġdelivery": 2029,
      "astructure": 2030,
      "Ġdowntown": 2031,
      "do": 2032,
      "dle": 2033,
      "ex": 2034,
      "iques": 2035,
      "lie": 2036,
      "mar": 2037,
      "nel": 2038,
      "oke": 2039,
      "ock": 2040,
      "right": 2041,
      "tout": 2042,
      "uro": 2043,
      "ume": 2044,
      "Ġens": 2045,
      "ĠÃ©t": 2046,
      "Ġsat": 2047,
      "Ġsell": 2048,
      "Ġsold": 2049,
      "Ġsaint": 2050,
      "Ġpire": 2051,
      "Ġpick": 2052,
      "Ġcase": 2053,
      "Ġcities": 2054,
      "ĠcÃ´t": 2055,
      "Ġcustom": 2056,
      "onne": 2057,
      "Ġauc": 2058,
      "Ġtot": 2059,
      "Ġtrop": 2060,
      "Ġmult": 2061,
      "Ġden": 2062,
      "itch": 2063,
      "iser": 2064,
      "Ġfle": 2065,
      "Ġfed": 2066,
      "Ġfast": 2067,
      "ark": 2068,
      "alement": 2069,
      "Ġbur": 2070,
      "Ġbout": 2071,
      "Ġbab": 2072,
      "ativ": 2073,
      "Ġwest": 2074,
      "Ġwind": 2075,
      "let": 2076,
      "lection": 2077,
      "Ġgare": 2078,
      "Ġnois": 2079,
      "Ã©d": 2080,
      "Ġhell": 2081,
      "Ġhum": 2082,
      "Ġhowever": 2083,
      "ici": 2084,
      "Ġrequ": 2085,
      "ili": 2086,
      "Ġvont": 2087,
      "Ġstup": 2088,
      "Ġrame": 2089,
      "Ġriver": 2090,
      "Ġthree": 2091,
      "Ġthought": 2092,
      "cher": 2093,
      "Ġcher": 2094,
      "Ġchat": 2095,
      "Ġplut": 2096,
      "vert": 2097,
      "Ġprop": 2098,
      "Ġsubs": 2099,
      "Ġ25": 2100,
      "ries": 2101,
      "Ġok": 2102,
      "Ġlikely": 2103,
      "Ġpos": 2104,
      "Ġpoor": 2105,
      "Ġtakes": 2106,
      "Ġmois": 2107,
      "anger": 2108,
      "Ġbuilt": 2109,
      "Ġplusieurs": 2110,
      "Ġappli": 2111,
      "Ġclin": 2112,
      "Ġprem": 2113,
      "Ġcontre": 2114,
      "Ġcontract": 2115,
      "Ġparisien": 2116,
      "Ġsaf": 2117,
      "Ġpartner": 2118,
      "Ġspace": 2119,
      "Ġdrive": 2120,
      "Ġyoung": 2121,
      "Ġworks": 2122,
      "Ġspecial": 2123,
      "Ġavo": 2124,
      "Ġsoci": 2125,
      "Ġscre": 2126,
      "Ġguys": 2127,
      "Ġgreen": 2128,
      "Ġolder": 2129,
      "Ġveh": 2130,
      "Ġinstead": 2131,
      "Ġtravail": 2132,
      "Ġattract": 2133,
      "Ġminutes": 2134,
      "Ġoffice": 2135,
      "Ġeasier": 2136,
      "Ġcollect": 2137,
      "Ġsurtout": 2138,
      "Ġquelqu": 2139,
      "Ġquelques": 2140,
      "ibly": 2141,
      "Ġcertains": 2142,
      "Ġblock": 2143,
      "Ġcosts": 2144,
      "Ġviol": 2145,
      "Ġjew": 2146,
      "Ġmatch": 2147,
      "Ġbehind": 2148,
      "Ġmental": 2149,
      "Ġpetit": 2150,
      "Ġ2023": 2151,
      "Ġcontinue": 2152,
      "Ġmiddle": 2153,
      "Ġdefinite": 2154,
      "Ġcheaper": 2155,
      "Ġlandlords": 2156,
      "Ġconcerns": 2157,
      "Ġfemme": 2158,
      "Ġquebec": 2159,
      "Ġincreased": 2160,
      "Ġculture": 2161,
      "Ġforeign": 2162,
      "Ġproduct": 2163,
      "Ġcompletely": 2164,
      "Ġvivre": 2165,
      "Ġencore": 2166,
      "Ġhalf": 2167,
      "Ġemplo": 2168,
      "Ġpedestri": 2169,
      "Ġpandemic": 2170,
      "Ġfuture": 2171,
      "Ġinfrastructure": 2172,
      "Ġinvolved": 2173,
      "Ġabsolutely": 2174,
      "Ġsouvent": 2175,
      "Ġextreme": 2176,
      "Ġdefinitely": 2177,
      "99": 2178,
      "af": 2179,
      "ec": 2180,
      "how": 2181,
      "jour": 2182,
      "ll": 2183,
      "land": 2184,
      "ming": 2185,
      "mmer": 2186,
      "ny": 2187,
      "oci": 2188,
      "ply": 2189,
      "pers": 2190,
      "rait": 2191,
      "uit": 2192,
      "ument": 2193,
      "we": 2194,
      "wer": 2195,
      "ycle": 2196,
      "Ġ%": 2197,
      "inking": 2198,
      "Ġsor": 2199,
      "Ġsous": 2200,
      "Ġsoir": 2201,
      "Ġps": 2202,
      "Ġpouv": 2203,
      "Ġcit": 2204,
      "Ġcel": 2205,
      "Ġcut": 2206,
      "Ġcard": 2207,
      "onn": 2208,
      "enue": 2209,
      "Ġaf": 2210,
      "Ġah": 2211,
      "Ġlaug": 2212,
      "Ġlimit": 2213,
      "Ġdess": 2214,
      "itt": 2215,
      "iture": 2216,
      "Ġfit": 2217,
      "Ġfais": 2218,
      "Ġfoot": 2219,
      "Ġbond": 2220,
      "Ġwond": 2221,
      "Ġwatch": 2222,
      "orc": 2223,
      "Ġgang": 2224,
      "Ġnet": 2225,
      "Ġnom": 2226,
      "Ã©p": 2227,
      "Ġhu": 2228,
      "Ġhours": 2229,
      "Ġhabit": 2230,
      "Ġrece": 2231,
      "Ġeg": 2232,
      "Ġequ": 2233,
      "Ġeye": 2234,
      "usement": 2235,
      "quent": 2236,
      "Ġvend": 2237,
      "eless": 2238,
      "Ġstory": 2239,
      "Ġru": 2240,
      "Ġrul": 2241,
      "Ġthan": 2242,
      "urance": 2243,
      "agne": 2244,
      "Ġjud": 2245,
      "Ġchar": 2246,
      "Ġchau": 2247,
      "Ġcoming": 2248,
      "Ġquai": 2249,
      "verage": 2250,
      "sez": 2251,
      "Ġsever": 2252,
      "avais": 2253,
      "aines": 2254,
      "Ġsummer": 2255,
      "Ġexcept": 2256,
      "Ġlog": 2257,
      "ieve": 2258,
      "Ġdevelop": 2259,
      "rible": 2260,
      "Ġ18": 2261,
      "Ġunivers": 2262,
      "Ġprote": 2263,
      "Ġworse": 2264,
      "Ġcompre": 2265,
      "Ġmakes": 2266,
      "Ġmoy": 2267,
      "Ġmoved": 2268,
      "ables": 2269,
      "Ġweird": 2270,
      "Ġpret": 2271,
      "uber": 2272,
      "Ġmeat": 2273,
      "ĠdÃ©t": 2274,
      "Ġeverywhere": 2275,
      "ctions": 2276,
      "Ġperform": 2277,
      "Ġasking": 2278,
      "Ġassez": 2279,
      "Ġanyway": 2280,
      "Ġmettre": 2281,
      "Ġautres": 2282,
      "Ġintersection": 2283,
      "Ãªtre": 2284,
      "Ġhappens": 2285,
      "Ġsubway": 2286,
      "Ġbox": 2287,
      "ailable": 2288,
      "Ġhouses": 2289,
      "Ġtourists": 2290,
      "Ġprovin": 2291,
      "Ġbonne": 2292,
      "obil": 2293,
      "Ġsimply": 2294,
      "Ġrates": 2295,
      "ize": 2296,
      "Ġwoman": 2297,
      "Ġposted": 2298,
      "Ġasked": 2299,
      "Ġaccept": 2300,
      "Ġbloc": 2301,
      "Ġswe": 2302,
      "Ġregarde": 2303,
      "Ġquestions": 2304,
      "ences": 2305,
      "Ġchildren": 2306,
      "Ġoui": 2307,
      "Ġeffect": 2308,
      "Ġsolution": 2309,
      "Ġprior": 2310,
      "Ġaware": 2311,
      "Ġserious": 2312,
      "Ġautomatically": 2313,
      "Ġceux": 2314,
      "Ġdistance": 2315,
      "Ġhistor": 2316,
      "Ġorder": 2317,
      "Ġsounds": 2318,
      "Ġdouble": 2319,
      "Ġphoto": 2320,
      "Ġdifficile": 2321,
      "Ġmoment": 2322,
      "Ġamerican": 2323,
      "conom": 2324,
      "Ġcovid": 2325,
      "Ġsingle": 2326,
      "ĠpiÃ©t": 2327,
      "Ġwaste": 2328,
      "ĠgÃ©nÃ©r": 2329,
      "ĠcÃ´tÃ©": 2330,
      "ĠplutÃ´t": 2331,
      "Ġavoid": 2332,
      "10": 2333,
      "13": 2334,
      "16": 2335,
      "28": 2336,
      "aws": 2337,
      "by": 2338,
      "cou": 2339,
      "come": 2340,
      "ez": 2341,
      "fia": 2342,
      "fect": 2343,
      "ha": 2344,
      "iel": 2345,
      "ike": 2346,
      "ips": 2347,
      "iple": 2348,
      "ma": 2349,
      "more": 2350,
      "ned": 2351,
      "nce": 2352,
      "over": 2353,
      "ror": 2354,
      "sh": 2355,
      "ties": 2356,
      "time": 2357,
      "vent": 2358,
      "yl": 2359,
      "ying": 2360,
      "yle": 2361,
      "Ġ#": 2362,
      "inst": 2363,
      "Ġsin": 2364,
      "Ġsent": 2365,
      "Ġsau": 2366,
      "ĠsÃ»": 2367,
      "Ġpun": 2368,
      "Ġpap": 2369,
      "Ġpiss": 2370,
      "Ġpense": 2371,
      "Ġcir": 2372,
      "Ġcart": 2373,
      "Ġcold": 2374,
      "Ġcours": 2375,
      "Ġcfia": 2376,
      "ero": 2377,
      "Ġtar": 2378,
      "Ġtow": 2379,
      "Ġtellement": 2380,
      "Ġlat": 2381,
      "Ġlines": 2382,
      "Ġlaiss": 2383,
      "Ġdue": 2384,
      "isÃ©": 2385,
      "Ġfav": 2386,
      "Ġfres": 2387,
      "Ġfix": 2388,
      "Ġbot": 2389,
      "Ġbut": 2390,
      "Ġbene": 2391,
      "atre": 2392,
      "atory": 2393,
      "Ġgas": 2394,
      "Ġnord": 2395,
      "Ġname": 2396,
      "enty": 2397,
      "entially": 2398,
      "Ġhit": 2399,
      "Ġhour": 2400,
      "Ġhall": 2401,
      "ether": 2402,
      "Ġeast": 2403,
      "asion": 2404,
      "Ġven": 2405,
      "Ġvot": 2406,
      "Ġvac": 2407,
      "Ġvict": 2408,
      "Ġstol": 2409,
      "igation": 2410,
      "oll": 2411,
      "emple": 2412,
      "str": 2413,
      "Ġisra": 2414,
      "estin": 2415,
      "ury": 2416,
      "Ġtrack": 2417,
      "Ġtried": 2418,
      "agr": 2419,
      "Ġchance": 2420,
      "ĠquÃ©": 2421,
      "Ġpeace": 2422,
      "Ġyork": 2423,
      "Ġgoogle": 2424,
      "Ġconn": 2425,
      "odd": 2426,
      "Ġ24": 2427,
      "riÃ¨re": 2428,
      "Ġshirt": 2429,
      "Ġanim": 2430,
      "ension": 2431,
      "Ġunfort": 2432,
      "Ġposs": 2433,
      "Ġpris": 2434,
      "Ġprom": 2435,
      "Ġworking": 2436,
      "Ġcompagn": 2437,
      "urer": 2438,
      "Ġmost": 2439,
      "Ġimage": 2440,
      "Ġevent": 2441,
      "Ġevents": 2442,
      "Ġ2000": 2443,
      "ump": 2444,
      "ĠdÃ©f": 2445,
      "Ġcoff": 2446,
      "Ġgrou": 2447,
      "Ġpartie": 2448,
      "Ġpartout": 2449,
      "Ġopin": 2450,
      "Ġdrink": 2451,
      "Ġperfect": 2452,
      "ude": 2453,
      "Ġfranc": 2454,
      "Ġrob": 2455,
      "Ġsix": 2456,
      "Ġanymore": 2457,
      "illeurs": 2458,
      "Ġavailable": 2459,
      "Ġcommit": 2460,
      "Ġbrought": 2461,
      "like": 2462,
      "Ġended": 2463,
      "ĠrÃ©c": 2464,
      "ĠrÃ©s": 2465,
      "Ġagree": 2466,
      "Ġbusy": 2467,
      "Ġremo": 2468,
      "Ġpolic": 2469,
      "Ġmarch": 2470,
      "Ġinfl": 2471,
      "Ġfinding": 2472,
      "Ġhappy": 2473,
      "itÃ©s": 2474,
      "Ġsometimes": 2475,
      "Ġbook": 2476,
      "Ġfinan": 2477,
      "Ġveux": 2478,
      "ĠÃ©gal": 2479,
      "ression": 2480,
      "Ġlooks": 2481,
      "Ġbuying": 2482,
      "ĠÂ«": 2483,
      "ĠÂ»": 2484,
      "fully": 2485,
      "Ġassoci": 2486,
      "Ġinside": 2487,
      "Ġrecord": 2488,
      "Ġunder": 2489,
      "Ġratp": 2490,
      "ized": 2491,
      "Ġdepending": 2492,
      "Ġproblems": 2493,
      "Ġsym": 2494,
      "Ġzone": 2495,
      "Ġconvers": 2496,
      "Ġcorrect": 2497,
      "Ġgroc": 2498,
      "Ġlevels": 2499,
      "Ġlearned": 2500,
      "Ġtyp": 2501,
      "Ġrestaurant": 2502,
      "Ġmillion": 2503,
      "Ġdemande": 2504,
      "gram": 2505,
      "Ġfacil": 2506,
      "Ġreasonable": 2507,
      "Ġconsider": 2508,
      "Ġbanlie": 2509,
      "Ġcurrently": 2510,
      "iÃ¨rement": 2511,
      "Ġdirectly": 2512,
      "Ġramq": 2513,
      "Ġrespons": 2514,
      "Ġapartment": 2515,
      "iquement": 2516,
      "Ġextra": 2517,
      "Ġsusp": 2518,
      "Ġspecific": 2519,
      "Ġelectric": 2520,
      "Ġtechn": 2521,
      "Ġoriginal": 2522,
      "Ġneighbourhood": 2523,
      "Ġchaque": 2524,
      "Ġdoctor": 2525,
      "Ġmainten": 2526,
      "ĠrÃ©gul": 2527,
      "Ġacheter": 2528,
      "Ġyeah": 2529,
      "Ġmentioned": 2530,
      "Ġstupid": 2531,
      "Ġjewish": 2532,
      "Ġextremely": 2533,
      "Ġsorry": 2534,
      "Ġseveral": 2535,
      "Ġstolen": 2536,
      "Ġunfortun": 2537,
      "ĠÃ©galement": 2538,
      "23": 2539,
      "24": 2540,
      "ban": 2541,
      "bres": 2542,
      "de": 2543,
      "df": 2544,
      "fri": 2545,
      "gs": 2546,
      "ges": 2547,
      "iet": 2548,
      "iff": 2549,
      "ients": 2550,
      "just": 2551,
      "ked": 2552,
      "oire": 2553,
      "por": 2554,
      "ta": 2555,
      "tte": 2556,
      "uil": 2557,
      "vie": 2558,
      "work": 2559,
      "ym": 2560,
      "âĤ": 2561,
      "Ġess": 2562,
      "Ġign": 2563,
      "Ġutil": 2564,
      "inx": 2565,
      "ined": 2566,
      "Ġsqu": 2567,
      "ĠsÃ©c": 2568,
      "Ġpens": 2569,
      "Ġpendant": 2570,
      "erators": 2571,
      "Ġtok": 2572,
      "Ġlic": 2573,
      "anes": 2574,
      "Ġmix": 2575,
      "Ġmieux": 2576,
      "Ġdai": 2577,
      "Ġdates": 2578,
      "inge": 2579,
      "itter": 2580,
      "Ġfil": 2581,
      "Ġfour": 2582,
      "Ġfight": 2583,
      "Ġfurn": 2584,
      "alle": 2585,
      "Ġbes": 2586,
      "Ġbor": 2587,
      "ator": 2588,
      "Ġwar": 2589,
      "Ġwal": 2590,
      "org": 2591,
      "edi": 2592,
      "Ġgars": 2593,
      "Ġnive": 2594,
      "ente": 2595,
      "Ã©rer": 2596,
      "Ġho": 2597,
      "Ġhur": 2598,
      "Ġhang": 2599,
      "icles": 2600,
      "Ġreach": 2601,
      "Ġeating": 2602,
      "Ġeconom": 2603,
      "iling": 2604,
      "Ġvr": 2605,
      "Ġvas": 2606,
      "elt": 2607,
      "Ġstage": 2608,
      "Ġstations": 2609,
      "Ġstaff": 2610,
      "Ġrom": 2611,
      "Ġrad": 2612,
      "Ġrap": 2613,
      "Ġrapp": 2614,
      "imate": 2615,
      "imum": 2616,
      "Ġthre": 2617,
      "Ġthread": 2618,
      "urbs": 2619,
      "antage": 2620,
      "ades": 2621,
      "Ġcharg": 2622,
      "Ġplat": 2623,
      "iron": 2624,
      "Ġparl": 2625,
      "Ġprogram": 2626,
      "Ġnecess": 2627,
      "aving": 2628,
      "avoir": 2629,
      "Ġdoit": 2630,
      "Ġdoor": 2631,
      "Ġconse": 2632,
      "Ġcondu": 2633,
      "istic": 2634,
      "Ġexc": 2635,
      "Ġexemple": 2636,
      "Ġloin": 2637,
      "Ġload": 2638,
      "earing": 2639,
      "Ã¨res": 2640,
      "Ġshould": 2641,
      "Ġ11": 2642,
      "Ġ14": 2643,
      "ĠprÃ©": 2644,
      "Ġleg": 2645,
      "Ġworst": 2646,
      "Ġmaps": 2647,
      "Ġimport": 2648,
      "Ġevict": 2649,
      "Ġappart": 2650,
      "Ġapparent": 2651,
      "asser": 2652,
      "Ġbeg": 2653,
      "Ġ2020": 2654,
      "ablement": 2655,
      "ĠdÃ©p": 2656,
      "Ġ35": 2657,
      "Ġground": 2658,
      "Ġheat": 2659,
      "Ġheure": 2660,
      "000": 2661,
      "Ġroll": 2662,
      "Ġaddition": 2663,
      "Ġpersonnes": 2664,
      "illed": 2665,
      "Ġwhether": 2666,
      "Ġfeu": 2667,
      "Ġbridge": 2668,
      "Ġactual": 2669,
      "Ġtoget": 2670,
      "Ġwanted": 2671,
      "Ġrental": 2672,
      "Ġfair": 2673,
      "ĠfaÃ§": 2674,
      "Ġsuburbs": 2675,
      "Ġfries": 2676,
      "Ġcanadian": 2677,
      "Ġchanged": 2678,
      "rÃ©s": 2679,
      "Ġassume": 2680,
      "Ġattention": 2681,
      "Ġfunny": 2682,
      "Ġhelps": 2683,
      "azy": 2684,
      "Ġdesign": 2685,
      "Ġdescri": 2686,
      "Ġeasily": 2687,
      "Ġstopped": 2688,
      "Ġimpro": 2689,
      "Ġimpact": 2690,
      "Ġschools": 2691,
      "Ġzero": 2692,
      "Ġcases": 2693,
      "Ġfeels": 2694,
      "Ġcertaines": 2695,
      "Ġups": 2696,
      "Ġshoppers": 2697,
      "Ġplanning": 2698,
      "Ġ60": 2699,
      "Ġconven": 2700,
      "Ġcountries": 2701,
      "rolinx": 2702,
      "Ġimmigr": 2703,
      "Ġimmedi": 2704,
      "Ġcourt": 2705,
      "Ġelsewhere": 2706,
      "Ġslight": 2707,
      "Ġforc": 2708,
      "Ġclasses": 2709,
      "Ġfollowing": 2710,
      "Ġfollowed": 2711,
      "Ġgives": 2712,
      "Ġquartiers": 2713,
      "Ġcontinu": 2714,
      "Ã§ais": 2715,
      "airs": 2716,
      "nov": 2717,
      "Ġheard": 2718,
      "aught": 2719,
      "ground": 2720,
      "Ġtenant": 2721,
      "Ġtenants": 2722,
      "Ġconsidered": 2723,
      "Ġwinter": 2724,
      "Ġreduc": 2725,
      "Ġcompanies": 2726,
      "Ġturned": 2727,
      "Ġhistory": 2728,
      "Ġenfants": 2729,
      "Ġwrong": 2730,
      "Ġprofit": 2731,
      "Ġincluding": 2732,
      "ĠfranÃ§ais": 2733,
      "Ġexactly": 2734,
      "Ġidi": 2735,
      "Ġmerci": 2736,
      "Ġidea": 2737,
      "Ġconnect": 2738,
      "Ġrespectful": 2739,
      "Ġcouncil": 2740,
      "Ġfunding": 2741,
      "Ġcivilians": 2742,
      "Ġexisting": 2743,
      "viously": 2744,
      "Ġnov": 2745,
      "Ġparents": 2746,
      "Ġmobile": 2747,
      "Ġapproach": 2748,
      "Ġreminder": 2749,
      "Ġinformation": 2750,
      "Ġaucune": 2751,
      "Ġmultiple": 2752,
      "Ġsafety": 2753,
      "Ġlaugh": 2754,
      "Ġhuge": 2755,
      "Ġrules": 2756,
      "Ġchauff": 2757,
      "Ġsinon": 2758,
      "Ġfresh": 2759,
      "Ġbenef": 2760,
      "ĠquÃ©bec": 2761,
      "Ġmostly": 2762,
      "friend": 2763,
      "âĤ¬": 2764,
      "Ġdaily": 2765,
      "Ġniveau": 2766,
      "Ġapparently": 2767,
      "Ġtogether": 2768,
      "ĠfaÃ§on": 2769,
      "59": 2770,
      "86": 2771,
      "92": 2772,
      "bing": 2773,
      "ball": 2774,
      "dh": 2775,
      "don": 2776,
      "der": 2777,
      "fically": 2778,
      "go": 2779,
      "gers": 2780,
      "hib": 2781,
      "habit": 2782,
      "ji": 2783,
      "ling": 2784,
      "mart": 2785,
      "oo": 2786,
      "pli": 2787,
      "pose": 2788,
      "rais": 2789,
      "ton": 2790,
      "uu": 2791,
      "uel": 2792,
      "uite": 2793,
      "ward": 2794,
      "walk": 2795,
      "wise": 2796,
      "wich": 2797,
      "yal": 2798,
      "Ġ@": 2799,
      "Ġill": 2800,
      "Ġother": 2801,
      "Ġodd": 2802,
      "iner": 2803,
      "Ġsnow": 2804,
      "Ġself": 2805,
      "Ġpie": 2806,
      "Ġpets": 2807,
      "onction": 2808,
      "onstr": 2809,
      "erb": 2810,
      "ergy": 2811,
      "ĠtÃ©": 2812,
      "Ġtod": 2813,
      "Ġtub": 2814,
      "Ġtip": 2815,
      "Ġlor": 2816,
      "Ġlate": 2817,
      "Ġlack": 2818,
      "Ġlink": 2819,
      "anche": 2820,
      "Ġmc": 2821,
      "Ġmot": 2822,
      "Ġmag": 2823,
      "Ġmais": 2824,
      "Ġder": 2825,
      "isse": 2826,
      "Ġfant": 2827,
      "Ġfonction": 2828,
      "Ġbal": 2829,
      "Ġbat": 2830,
      "Ġbord": 2831,
      "Ġbille": 2832,
      "Ġbought": 2833,
      "ata": 2834,
      "Ġwide": 2835,
      "ley": 2836,
      "leep": 2837,
      "ority": 2838,
      "Ġgone": 2839,
      "Ġgau": 2840,
      "Ġgame": 2841,
      "Ġnob": 2842,
      "Ã©ro": 2843,
      "Ġha": 2844,
      "Ġhate": 2845,
      "Ġharm": 2846,
      "Ġeuro": 2847,
      "aster": 2848,
      "ush": 2849,
      "Ġvou": 2850,
      "Ġvide": 2851,
      "Ġstar": 2852,
      "Ġstyle": 2853,
      "Ġrare": 2854,
      "Ġrail": 2855,
      "Ġrich": 2856,
      "ides": 2857,
      "iday": 2858,
      "imp": 2859,
      "ived": 2860,
      "ership": 2861,
      "Ġisland": 2862,
      "urday": 2863,
      "antly": 2864,
      "ows": 2865,
      "Ġjap": 2866,
      "Ġjours": 2867,
      "Ġjust": 2868,
      "Ġcham": 2869,
      "Ġcharge": 2870,
      "Ġcomments": 2871,
      "Ġplenty": 2872,
      "Ġquiet": 2873,
      "ament": 2874,
      "Ġalong": 2875,
      "Ġaltern": 2876,
      "Ġparc": 2877,
      "Ġsepar": 2878,
      "endre": 2879,
      "ended": 2880,
      "endent": 2881,
      "iller": 2882,
      "ully": 2883,
      "Ġdoc": 2884,
      "aining": 2885,
      "Ġsuiv": 2886,
      "Ġsuff": 2887,
      "Ġsuck": 2888,
      "ired": 2889,
      "atever": 2890,
      "Ġdeg": 2891,
      "Ġdead": 2892,
      "Ġarm": 2893,
      "Ġargu": 2894,
      "Ġoh": 2895,
      "Ġoct": 2896,
      "Ġang": 2897,
      "Ġ19": 2898,
      "loo": 2899,
      "loir": 2900,
      "Ġuni": 2901,
      "Ġunits": 2902,
      "new": 2903,
      "arth": 2904,
      "Ġcompose": 2905,
      "Ġcompared": 2906,
      "angers": 2907,
      "ability": 2908,
      "Ġclub": 2909,
      "Ġclairement": 2910,
      "iennent": 2911,
      "Ġbeaut": 2912,
      "Ġprefer": 2913,
      "Ġ200": 2914,
      "Ġmanque": 2915,
      "ĠdÃ©m": 2916,
      "Ġ>\"": 2917,
      "icken": 2918,
      "intÃ©r": 2919,
      "Ġspot": 2920,
      "Ġdra": 2921,
      "Ġdram": 2922,
      "Ġseek": 2923,
      "Ġanywhere": 2924,
      "Ġpersonally": 2925,
      "osed": 2926,
      "Ġmetrolinx": 2927,
      "Ġwhatever": 2928,
      "Ġcrit": 2929,
      "Ġcris": 2930,
      "Ġcrazy": 2931,
      "Ġbrit": 2932,
      "Ġphones": 2933,
      "Ġphys": 2934,
      "Ġblame": 2935,
      "Ġchez": 2936,
      "Ġscoot": 2937,
      "ustr": 2938,
      "Ġprobablement": 2939,
      "ogr": 2940,
      "Ġreste": 2941,
      "Ġcanadians": 2942,
      "Ġpassage": 2943,
      "Ġlives": 2944,
      "Ġinstit": 2945,
      "ĠÃ©v": 2946,
      "Ġlooked": 2947,
      "Ġgenerally": 2948,
      "Ġgeneral": 2949,
      "Ġseemed": 2950,
      "Ġexplo": 2951,
      "Ġinsane": 2952,
      "Ġinsurance": 2953,
      "Ġtrava": 2954,
      "Ġtrains": 2955,
      "Ġdesc": 2956,
      "Ġdirection": 2957,
      "Ġlocation": 2958,
      "ization": 2959,
      "Ġupvoting": 2960,
      "Ġdepends": 2961,
      "Ġcommunic": 2962,
      "Ġquelque": 2963,
      "Ġcrois": 2964,
      "Ġsitting": 2965,
      "Ġplein": 2966,
      "Ġcaf": 2967,
      "Ġshops": 2968,
      "Ġmatter": 2969,
      "othes": 2970,
      "Ġpeuvent": 2971,
      "autre": 2972,
      "Ġrelations": 2973,
      "Ġ2016": 2974,
      "Ġneighbor": 2975,
      "Ġcapital": 2976,
      "Ġdownvoting": 2977,
      "Ġexpected": 2978,
      "Ġopened": 2979,
      "Ġsortie": 2980,
      "Ġtaxes": 2981,
      "Ġunderstanding": 2982,
      "ency": 2983,
      "Ġtransportation": 2984,
      "Ġsemble": 2985,
      "Ġsemaine": 2986,
      "Ġmeeting": 2987,
      "Ġclean": 2988,
      "Ġvalue": 2989,
      "Ġruns": 2990,
      "Ġanswer": 2991,
      "Ġroads": 2992,
      "Ġpresent": 2993,
      "Ġenfin": 2994,
      "Ġpanne": 2995,
      "Ġdifficult": 2996,
      "Ġraison": 2997,
      "ification": 2998,
      "Ġanti": 2999,
      "Ġbelieve": 3000,
      "Ġoccasion": 3001,
      "Ġcomplain": 3002,
      "Ġcomplaint": 3003,
      "Ġspecifically": 3004,
      "Ġfloor": 3005,
      "Ġrecently": 3006,
      "Ġwaterloo": 3007,
      "Ġamazon": 3008,
      "Ġamazing": 3009,
      "Ġmoderators": 3010,
      "Ġendroit": 3011,
      "Ġglob": 3012,
      "Ġvarious": 3013,
      "Ġobviously": 3014,
      "Ġheavy": 3015,
      "Ġcustomers": 3016,
      "atives": 3017,
      "Ġsubsid": 3018,
      "Ġclinic": 3019,
      "Ġproducts": 3020,
      "Ġpedestrians": 3021,
      "Ġpsy": 3022,
      "Ġcela": 3023,
      "Ġdessus": 3024,
      "Ġperformed": 3025,
      "Ġprovincial": 3026,
      "Ġblocking": 3027,
      "Ġisrael": 3028,
      "agram": 3029,
      "Ġcoffee": 3030,
      "Ġopinion": 3031,
      "Ġconversation": 3032,
      "Ġgrocery": 3033,
      "ĠsÃ©cur": 3034,
      "Ġconduct": 3035,
      "Ġbegin": 3036,
      "Ġslightly": 3037,
      "Ġotherwise": 3038,
      "Ġtoday": 3039,
      "Ġeurope": 3040,
      "Ġbeautif": 3041,
      "12": 3042,
      "15": 3043,
      "70": 3044,
      "75": 3045,
      "bu": 3046,
      "bed": 3047,
      "cr": 3048,
      "den": 3049,
      "ged": 3050,
      "gue": 3051,
      "ham": 3052,
      "hors": 3053,
      "iÃ©": 3054,
      "iod": 3055,
      "jp": 3056,
      "lin": 3057,
      "nels": 3058,
      "oin": 3059,
      "off": 3060,
      "ores": 3061,
      "oque": 3062,
      "occ": 3063,
      "ober": 3064,
      "pite": 3065,
      "pital": 3066,
      "rim": 3067,
      "rical": 3068,
      "uf": 3069,
      "uine": 3070,
      "vis": 3071,
      "vers": 3072,
      "wn": 3073,
      "yer": 3074,
      "ze": 3075,
      "Ã¢": 3076,
      "Ġille": 3077,
      "Ġult": 3078,
      "Ġonto": 3079,
      "Ġident": 3080,
      "Ġici": 3081,
      "Ġuber": 3082,
      "Ġsel": 3083,
      "Ġsad": 3084,
      "Ġsend": 3085,
      "Ġsick": 3086,
      "Ġpic": 3087,
      "Ġpant": 3088,
      "Ġpain": 3089,
      "Ġpays": 3090,
      "Ġpied": 3091,
      "Ġpuis": 3092,
      "Ġcab": 3093,
      "ony": 3094,
      "eration": 3095,
      "ened": 3096,
      "Ġage": 3097,
      "Ġaverage": 3098,
      "Ġtun": 3099,
      "Ġtant": 3100,
      "esome": 3101,
      "Ġlad": 3102,
      "Ġlunch": 3103,
      "ounc": 3104,
      "Ġmur": 3105,
      "Ġmand": 3106,
      "Ġmine": 3107,
      "Ġmins": 3108,
      "Ġmich": 3109,
      "Ġded": 3110,
      "Ġdet": 3111,
      "Ġdiv": 3112,
      "Ġdated": 3113,
      "Ġdame": 3114,
      "Ġdern": 3115,
      "Ġdark": 3116,
      "Ġdata": 3117,
      "inger": 3118,
      "itive": 3119,
      "isation": 3120,
      "Ġfal": 3121,
      "Ġfab": 3122,
      "Ġfully": 3123,
      "Ġfinger": 3124,
      "aris": 3125,
      "arily": 3126,
      "aling": 3127,
      "Ġby": 3128,
      "Ġber": 3129,
      "Ġbir": 3130,
      "Ġband": 3131,
      "Ġbread": 3132,
      "Ġbunch": 3133,
      "Ġbody": 3134,
      "atis": 3135,
      "Ġwed": 3136,
      "Ġwall": 3137,
      "ories": 3138,
      "edule": 3139,
      "Ġgaz": 3140,
      "Ġgames": 3141,
      "Ġni": 3142,
      "Ġnav": 3143,
      "Ã©li": 3144,
      "Ġhi": 3145,
      "Ġhy": 3146,
      "Ġhere": 3147,
      "Ġhind": 3148,
      "Ġhos": 3149,
      "Ġhost": 3150,
      "icule": 3151,
      "Ġren": 3152,
      "Ġrele": 3153,
      "Ġrese": 3154,
      "Ġrepe": 3155,
      "omm": 3156,
      "Ġeiff": 3157,
      "ilot": 3158,
      "road": 3159,
      "usting": 3160,
      "acity": 3161,
      "Ġvert": 3162,
      "Ġvia": 3163,
      "Ġste": 3164,
      "Ġstruct": 3165,
      "Ġrate": 3166,
      "ĠrÃ¨": 3167,
      "Ġrace": 3168,
      "Ġround": 3169,
      "Ġride": 3170,
      "Ġrub": 3171,
      "Ġrange": 3172,
      "Ġroute": 3173,
      "ider": 3174,
      "iding": 3175,
      "imier": 3176,
      "emble": 3177,
      "unk": 3178,
      "unt": 3179,
      "Ġthinking": 3180,
      "estion": 3181,
      "onton": 3182,
      "Ġtrip": 3183,
      "ower": 3184,
      "Ġchur": 3185,
      "Ġchos": 3186,
      "Ġchances": 3187,
      "Ġchicken": 3188,
      "Ġcomfort": 3189,
      "Ġplac": 3190,
      "Ġplans": 3191,
      "verty": 3192,
      "Ġparle": 3193,
      "Ġpropos": 3194,
      "Ġseul": 3195,
      "Ġseine": 3196,
      "illor": 3197,
      "ands": 3198,
      "Ġdoz": 3199,
      "Ġcondit": 3200,
      "Ġsucc": 3201,
      "Ġitem": 3202,
      "ief": 3203,
      "Ġdeath": 3204,
      "Ġdehors": 3205,
      "ode": 3206,
      "Ġ23": 3207,
      "rib": 3208,
      "Ã¨ne": 3209,
      "Ġarbres": 3210,
      "Ġoil": 3211,
      "Ġobs": 3212,
      "Ġobl": 3213,
      "Ġknew": 3214,
      "aud": 3215,
      "Ġuns": 3216,
      "Ġunit": 3217,
      "Ġunion": 3218,
      "Ġunique": 3219,
      "Ġunlike": 3220,
      "Ġpoverty": 3221,
      "Ġpract": 3222,
      "Ġenergy": 3223,
      "Ġleaving": 3224,
      "astic": 3225,
      "areil": 3226,
      "Ġtaken": 3227,
      "elling": 3228,
      "abite": 3229,
      "Ġbugs": 3230,
      "ording": 3231,
      "Ġapply": 3232,
      "Ġclothes": 3233,
      "Ġbecome": 3234,
      "olding": 3235,
      "Ġcontr": 3236,
      "action": 3237,
      "ĠdÃ©s": 3238,
      "inton": 3239,
      "Ġpartir": 3240,
      "Ġsport": 3241,
      "Ġspaces": 3242,
      "Ġspending": 3243,
      "Ġperiod": 3244,
      "Ġheating": 3245,
      "Ġseeing": 3246,
      "Ġworkers": 3247,
      "Ġroyal": 3248,
      "Ġneeded": 3249,
      "ished": 3250,
      "ife": 3251,
      "ifs": 3252,
      "ify": 3253,
      "Ġspeed": 3254,
      "Ġwho": 3255,
      "Ġcra": 3256,
      "Ġbring": 3257,
      "Ġnews": 3258,
      "Ġautour": 3259,
      "Ġtoile": 3260,
      "Ġagre": 3261,
      "Ġtoute": 3262,
      "fficient": 3263,
      "Ġblue": 3264,
      "ption": 3265,
      "Ġlongue": 3266,
      "elled": 3267,
      "ancy": 3268,
      "Ġaccount": 3269,
      "Ġaccording": 3270,
      "what": 3271,
      "Ġapolog": 3272,
      "Ġchanges": 3273,
      "glinton": 3274,
      "Ġemot": 3275,
      "Ġtouristes": 3276,
      "Ġveut": 3277,
      "Ġprovide": 3278,
      "Ġpoints": 3279,
      "Ġteach": 3280,
      "Ġgenuine": 3281,
      "Ġsmart": 3282,
      "Ġassum": 3283,
      "Ġtravers": 3284,
      "Ġarrive": 3285,
      "Ġdespite": 3286,
      "Ġproperties": 3287,
      "Ġconcert": 3288,
      "Ġindep": 3289,
      "Ġlocated": 3290,
      "Ġmonday": 3291,
      "Ġcolle": 3292,
      "Ġsecret": 3293,
      "Ġposts": 3294,
      "duce": 3295,
      "Ġsupposed": 3296,
      "Ġcash": 3297,
      "Ġcasque": 3298,
      "Ġreform": 3299,
      "Ġrefuse": 3300,
      "Ġdemonstr": 3301,
      "ials": 3302,
      "Ġsignific": 3303,
      "Ġterrible": 3304,
      "Ġviens": 3305,
      "Ġmedical": 3306,
      "Ġnearly": 3307,
      "Ġesp": 3308,
      "Ġprivacy": 3309,
      "Ġadvantage": 3310,
      "Ġgrow": 3311,
      "Ġrelig": 3312,
      "Ġ2018": 3313,
      "Ġpermet": 3314,
      "Ġpermiss": 3315,
      "Ġpermett": 3316,
      "Ġneighbours": 3317,
      "Ġpetits": 3318,
      "Ġ80": 3319,
      "Ġslim": 3320,
      "Ġvoiture": 3321,
      "Ġdevant": 3322,
      "Ġreturn": 3323,
      "Ġvieux": 3324,
      "Ġtransports": 3325,
      "ĠsystÃ¨me": 3326,
      "phone": 3327,
      "phones": 3328,
      "Ġeduc": 3329,
      "Ġcreate": 3330,
      "Ġnumbers": 3331,
      "Ġannoy": 3332,
      "ĠannÃ©es": 3333,
      "Ġcyclable": 3334,
      "Ġcyclists": 3335,
      "Ġbroken": 3336,
      "Ġrecommand": 3337,
      "Ġbank": 3338,
      "Ġchoice": 3339,
      "Ġincreases": 3340,
      "Ġcommentaires": 3341,
      "Ġbuddh": 3342,
      "paris": 3343,
      "Ġowner": 3344,
      "Ġgardens": 3345,
      "Ġapartments": 3346,
      "Ġincluded": 3347,
      "Ġmanaged": 3348,
      "Ġsavoir": 3349,
      "Ġbusinesses": 3350,
      "Ġinvestigation": 3351,
      "Ġofficers": 3352,
      "Ġpurch": 3353,
      "Ġformul": 3354,
      "Ġgirlfriend": 3355,
      "Ġreading": 3356,
      "Ġprojects": 3357,
      "Ġmajority": 3358,
      "Ġbehavior": 3359,
      "Ġmembers": 3360,
      "Ġparticul": 3361,
      "Ġendroits": 3362,
      "Ġaffordable": 3363,
      "Ġpalestin": 3364,
      "Ġdrugs": 3365,
      "Ġsurprised": 3366,
      "ĠÃ©tud": 3367,
      "Ġsaturday": 3368,
      "Ġtotally": 3369,
      "Ġburger": 3370,
      "Ġnoise": 3371,
      "Ġrequest": 3372,
      "Ġpremier": 3373,
      "Ġvehicles": 3374,
      "Ġemploye": 3375,
      "Ġwonder": 3376,
      "Ġgangs": 3377,
      "Ġnetwork": 3378,
      "Ġthanks": 3379,
      "Ġjudge": 3380,
      "Ġprotect": 3381,
      "Ġeffective": 3382,
      "ĠpiÃ©tons": 3383,
      "couk": 3384,
      "ield": 3385,
      "Ġsauf": 3386,
      "Ġcarte": 3387,
      "Ġcourses": 3388,
      "Ġfavour": 3389,
      "Ġcompagnie": 3390,
      "Ġgroupe": 3391,
      "Ġsympa": 3392,
      "Ġfacilities": 3393,
      "Ġbanlieue": 3394,
      "Ġsuspension": 3395,
      "Ġunfortunately": 3396,
      "Ġessentially": 3397,
      "Ġignore": 3398,
      "Ġvrai": 3399,
      "Ġromant": 3400,
      "Ġupset": 3401,
      "Ġimmediately": 3402,
      "Ġchauffage": 3403,
      "Ġbenefit": 3404,
      "Ġlorimier": 3405,
      "ĠderriÃ¨re": 3406,
      "Ġfantastic": 3407,
      "Ġgauche": 3408,
      "Ġnobody": 3409,
      "Ġjapon": 3410,
      "Ġalternative": 3411,
      "Ġbritish": 3412,
      "ograph": 3413,
      "Ġrelationship": 3414,
      "Ġneighborhood": 3415,
      "Ġbeautiful": 3416,
      "Ġbirth": 3417,
      "Ġnavig": 3418,
      "Ġhospital": 3419,
      "Ġresearch": 3420,
      "Ġeiffel": 3421,
      "Ġconditions": 3422,
      "Ġsuccess": 3423,
      "22": 3424,
      "38": 3425,
      "61": 3426,
      "62": 3427,
      "81": 3428,
      "95": 3429,
      "aj": 3430,
      "bon": 3431,
      "bour": 3432,
      "bage": 3433,
      "body": 3434,
      "cent": 3435,
      "dr": 3436,
      "dy": 3437,
      "down": 3438,
      "dibly": 3439,
      "ef": 3440,
      "eau": 3441,
      "fa": 3442,
      "face": 3443,
      "gues": 3444,
      "hc": 3445,
      "hs": 3446,
      "here": 3447,
      "iant": 3448,
      "ium": 3449,
      "ios": 3450,
      "je": 3451,
      "la": 3452,
      "ls": 3453,
      "light": 3454,
      "mond": 3455,
      "na": 3456,
      "nb": 3457,
      "ns": 3458,
      "nÃ©": 3459,
      "net": 3460,
      "ners": 3461,
      "nÃ©e": 3462,
      "nnent": 3463,
      "oe": 3464,
      "pro": 3465,
      "rs": 3466,
      "ring": 3467,
      "ris": 3468,
      "rict": 3469,
      "tr": 3470,
      "tu": 3471,
      "tor": 3472,
      "uent": 3473,
      "uly": 3474,
      "uellement": 3475,
      "wor": 3476,
      "wards": 3477,
      "xus": 3478,
      "yo": 3479,
      "yond": 3480,
      "Ġx": 3481,
      "Ġking": 3482,
      "ino": 3483,
      "ining": 3484,
      "ination": 3485,
      "inte": 3486,
      "rement": 3487,
      "Ġsn": 3488,
      "Ġsac": 3489,
      "Ġsant": 3490,
      "Ġsand": 3491,
      "Ġsave": 3492,
      "Ġslow": 3493,
      "Ġsdf": 3494,
      "Ġsleep": 3495,
      "Ġpu": 3496,
      "Ġpous": 3497,
      "Ġpage": 3498,
      "Ġpai": 3499,
      "Ġpiste": 3500,
      "Ġpilot": 3501,
      "Ġpower": 3502,
      "Ġcin": 3503,
      "Ġcatch": 3504,
      "Ġtag": 3505,
      "Ġtill": 3506,
      "Ġtard": 3507,
      "Ġtours": 3508,
      "Ġtoll": 3509,
      "ĠlÃ¨": 3510,
      "Ġlau": 3511,
      "Ġlux": 3512,
      "Ġlors": 3513,
      "Ġlanes": 3514,
      "oub": 3515,
      "Ġmad": 3516,
      "Ġdoug": 3517,
      "ises": 3518,
      "ising": 3519,
      "ision": 3520,
      "Ġfan": 3521,
      "Ġfill": 3522,
      "Ġfout": 3523,
      "Ġfive": 3524,
      "Ġfans": 3525,
      "Ġfell": 3526,
      "Ġfile": 3527,
      "Ġfoc": 3528,
      "Ġferm": 3529,
      "arter": 3530,
      "alled": 3531,
      "Ġbic": 3532,
      "Ġbell": 3533,
      "Ġboug": 3534,
      "ĠbÃ©n": 3535,
      "atique": 3536,
      "Ġways": 3537,
      "Ġwarm": 3538,
      "Ġwearing": 3539,
      "lement": 3540,
      "lebr": 3541,
      "Ġgave": 3542,
      "Ġgta": 3543,
      "Ġgym": 3544,
      "Ġnational": 3545,
      "Ã©ri": 3546,
      "Ġhar": 3547,
      "Ġhinge": 3548,
      "ette": 3549,
      "Ġrelev": 3550,
      "Ġreduce": 3551,
      "omb": 3552,
      "Ġeat": 3553,
      "ilitÃ©": 3554,
      "ional": 3555,
      "asing": 3556,
      "aching": 3557,
      "quer": 3558,
      "quelle": 3559,
      "quoi": 3560,
      "Ġvir": 3561,
      "Ġvais": 3562,
      "Ġvoy": 3563,
      "Ġvirt": 3564,
      "eline": 3565,
      "Ġstru": 3566,
      "Ġstock": 3567,
      "idence": 3568,
      "ims": 3569,
      "ivid": 3570,
      "emment": 3571,
      "empt": 3572,
      "Ġther": 3573,
      "Ġinqu": 3574,
      "chement": 3575,
      "stairs": 3576,
      "ester": 3577,
      "urity": 3578,
      "Ġtram": 3579,
      "Ġtrash": 3580,
      "uter": 3581,
      "utions": 3582,
      "agon": 3583,
      "agit": 3584,
      "agers": 3585,
      "Ġchin": 3586,
      "Ġcomb": 3587,
      "Ġplain": 3588,
      "Ġplate": 3589,
      "Ġquoi": 3590,
      "Ġalth": 3591,
      "Ġprocess": 3592,
      "Ġproof": 3593,
      "Ġseason": 3594,
      "Ġsearch": 3595,
      "Ġneg": 3596,
      "illÃ©": 3597,
      "illiers": 3598,
      "pped": 3599,
      "Ġdois": 3600,
      "Ġcond": 3601,
      "htm": 3602,
      "Ġsuite": 3603,
      "Ġsujet": 3604,
      "ires": 3605,
      "ister": 3606,
      "Ġexists": 3607,
      "Ġie": 3608,
      "Ġlos": 3609,
      "Ġlock": 3610,
      "Ġloved": 3611,
      "Ġlobl": 3612,
      "Ġloyer": 3613,
      "ieur": 3614,
      "ateg": 3615,
      "ateurs": 3616,
      "rique": 3617,
      "Ġamb": 3618,
      "Ġarch": 3619,
      "Ġshe": 3620,
      "Ġshare": 3621,
      "Ġshore": 3622,
      "Ġshock": 3623,
      "Ġ16": 3624,
      "aise": 3625,
      "Ġunp": 3626,
      "Ġunif": 3627,
      "ney": 3628,
      "Ġprot": 3629,
      "Ġlev": 3630,
      "Ġlease": 3631,
      "Ġlegal": 3632,
      "arer": 3633,
      "Ġcompet": 3634,
      "Ġcompli": 3635,
      "Ġuses": 3636,
      "Ġuseless": 3637,
      "Ġtap": 3638,
      "Ġtable": 3639,
      "Ġmair": 3640,
      "Ġtimeline": 3641,
      "Ġimme": 3642,
      "Ġcanc": 3643,
      "Ġclim": 3644,
      "Ġclich": 3645,
      "ienc": 3646,
      "Ġbecom": 3647,
      "Ġbeyond": 3648,
      "Ġprevious": 3649,
      "Ġprends": 3650,
      "Ġprennent": 3651,
      "Ġmeal": 3652,
      "ums": 3653,
      "ĠdÃ©but": 3654,
      "Ġsaw": 3655,
      "onge": 3656,
      "icks": 3657,
      "Ġgrat": 3658,
      "Ġgrav": 3659,
      "Ġparty": 3660,
      "appoint": 3661,
      "Ġoper": 3662,
      "Ġopport": 3663,
      "Ġspots": 3664,
      "Ġdrunk": 3665,
      "Ġperha": 3666,
      "Ġfrequent": 3667,
      "Ġheures": 3668,
      "Ġfriday": 3669,
      "0000": 3670,
      "Ã©tÃ©": 3671,
      "Ã©tais": 3672,
      "Ġasian": 3673,
      "Ġasyl": 3674,
      "Ġincident": 3675,
      "Ġrock": 3676,
      "ified": 3677,
      "Ġresident": 3678,
      "Ġmetal": 3679,
      "that": 3680,
      "Ġwhat": 3681,
      "Ġwhere": 3682,
      "Ġfee": 3683,
      "Ġcommon": 3684,
      "Ġcommence": 3685,
      "Ġcommenc": 3686,
      "Ġactiv": 3687,
      "ervative": 3688,
      "ervilliers": 3689,
      "Ġpharm": 3690,
      "ĠrÃ©p": 3691,
      "ĠrÃ©nov": 3692,
      "lication": 3693,
      "Ġsomewhere": 3694,
      "Ġtoutes": 3695,
      "Ġdisg": 3696,
      "Ġbuses": 3697,
      "Ġremain": 3698,
      "Ġtheatre": 3699,
      "Ġblind": 3700,
      "Ġpolite": 3701,
      "Ġmark": 3702,
      "Ġmarche": 3703,
      "Ġthinks": 3704,
      "Ġscene": 3705,
      "Ġfake": 3706,
      "Ġintro": 3707,
      "Ġinfest": 3708,
      "Ġtwitter": 3709,
      "Ġresto": 3710,
      "Ġsubject": 3711,
      "Ġpayer": 3712,
      "ache": 3713,
      "Ġaccent": 3714,
      "Ġfamili": 3715,
      "Ġgrew": 3716,
      "ĠpassÃ©": 3717,
      "Ġstarting": 3718,
      "Ġchanger": 3719,
      "Ġfinit": 3720,
      "Ġempt": 3721,
      "Ġemail": 3722,
      "Ġconservative": 3723,
      "Ġschedule": 3724,
      "Ġtourner": 3725,
      "ĠÃ©c": 3726,
      "ĠÃ©lect": 3727,
      "Ġbonjour": 3728,
      "Ġteam": 3729,
      "Ġbasics": 3730,
      "Ġinterr": 3731,
      "Ġsmell": 3732,
      "Ġinsist": 3733,
      "Ġattack": 3734,
      "Ġlandmar": 3735,
      "Ġflag": 3736,
      "Ġfunction": 3737,
      "Ġvisa": 3738,
      "ĠarrÃªt": 3739,
      "Ġincredibly": 3740,
      "Ġminimum": 3741,
      "Ġdesper": 3742,
      "Ġrecycl": 3743,
      "Ġproperly": 3744,
      "Ġindo": 3745,
      "Ġindian": 3746,
      "Ġlocations": 3747,
      "Ġcommunities": 3748,
      "Ġlake": 3749,
      "Ġlaund": 3750,
      "Ġlaunch": 3751,
      "Ġlaquelle": 3752,
      "Ġsecurity": 3753,
      "Ġputting": 3754,
      "iche": 3755,
      "Ġfeeling": 3756,
      "Ġdecent": 3757,
      "Ġdecades": 3758,
      "place": 3759,
      "Ġsigns": 3760,
      "Ġstudent": 3761,
      "Ġshopping": 3762,
      "Ġhighly": 3763,
      "Ġhonn": 3764,
      "Ġshowing": 3765,
      "Ġconvention": 3766,
      "Ġcompleted": 3767,
      "Ġ70": 3768,
      "atively": 3769,
      "autres": 3770,
      "Ġ90": 3771,
      "Ġbref": 3772,
      "Ġjusqu": 3773,
      "Ġgrands": 3774,
      "Ġstrong": 3775,
      "Ġtrajet": 3776,
      "Ġlearning": 3777,
      "Ġsortir": 3778,
      "Ã©nag": 3779,
      "Ġrevie": 3780,
      "Ġvoice": 3781,
      "Ġ2021": 3782,
      "Ġ2022": 3783,
      "Ġlangue": 3784,
      "Ġforward": 3785,
      "Ġretour": 3786,
      "Ġouvert": 3787,
      "Ġbedroom": 3788,
      "Ġsolve": 3789,
      "Ġmillions": 3790,
      "ĠannÃ©e": 3791,
      "Ġannounc": 3792,
      "Ġvisiter": 3793,
      "Ġawesome": 3794,
      "arrÃªte": 3795,
      "Ġhopefully": 3796,
      "Ġvalu": 3797,
      "ĠqualitÃ©": 3798,
      "Ġconflic": 3799,
      "Ġinternet": 3800,
      "Ġfacile": 3801,
      "Ġautomobil": 3802,
      "Ġconcerned": 3803,
      "Ġcelebr": 3804,
      "Ġfemmes": 3805,
      "Ġchoose": 3806,
      "Ġqueue": 3807,
      "Ġadded": 3808,
      "Ġcops": 3809,
      "Ġcultural": 3810,
      "Ġlucky": 3811,
      "Ġowned": 3812,
      "Ġowners": 3813,
      "Ġdoub": 3814,
      "Ġgarden": 3815,
      "Ġprofession": 3816,
      "Ġproduce": 3817,
      "Ġrespond": 3818,
      "Ġpatients": 3819,
      "Ġcamer": 3820,
      "Ġjoke": 3821,
      "Ġmanager": 3822,
      "Ġtreat": 3823,
      "Ġhotels": 3824,
      "Ġraised": 3825,
      "Ġencount": 3826,
      "Ġsalaire": 3827,
      "Ġpotent": 3828,
      "Ġdroite": 3829,
      "Ġallowed": 3830,
      "Ġoccup": 3831,
      "Ġpurpose": 3832,
      "Ġmilk": 3833,
      "Ġrendez": 3834,
      "Ġconnection": 3835,
      "Ġcouncillor": 3836,
      "Ġtechno": 3837,
      "Ġbehaviour": 3838,
      "Ġcivilian": 3839,
      "espÃ¨re": 3840,
      "Ġplaying": 3841,
      "Ġdealing": 3842,
      "Ġerror": 3843,
      "Ġvillage": 3844,
      "Ġrisk": 3845,
      "Ġseulement": 3846,
      "Ġengag": 3847,
      "Ġparticular": 3848,
      "Ġpersonality": 3849,
      "Ġpolitic": 3850,
      "Ġpolitical": 3851,
      "Ġcrossing": 3852,
      "heure": 3853,
      "ipped": 3854,
      "paign": 3855,
      "Ġmassive": 3856,
      "ivalent": 3857,
      "Ġregularly": 3858,
      "placement": 3859,
      "Ġorganization": 3860,
      "Ġensuite": 3861,
      "Ġdenis": 3862,
      "Ġbabies": 3863,
      "Ġhuman": 3864,
      "Ġposition": 3865,
      "Ġapplied": 3866,
      "Ġsociety": 3867,
      "Ġvehicle": 3868,
      "Ġattractive": 3869,
      "Ġviolence": 3870,
      "Ġafter": 3871,
      "Ã©poque": 3872,
      "Ġuniversity": 3873,
      "Ġcomprends": 3874,
      "Ġmoyen": 3875,
      "Ġmoyens": 3876,
      "Ġsweat": 3877,
      "Ġawareness": 3878,
      "Ġsentence": 3879,
      "Ġcirc": 3880,
      "Ġtracks": 3881,
      "Ġpossibly": 3882,
      "ĠdÃ©fense": 3883,
      "Ġremove": 3884,
      "Ġpolicies": 3885,
      "Ġinflation": 3886,
      "Ġfinancial": 3887,
      "Ġrecords": 3888,
      "Ġmaintenance": 3889,
      "ĠrÃ©guliÃ¨rement": 3890,
      "view": 3891,
      "Ġutilis": 3892,
      "Ġtokyo": 3893,
      "Ġbesoin": 3894,
      "Ġboring": 3895,
      "Ġradio": 3896,
      "Ġrapport": 3897,
      "Ġthreat": 3898,
      "Ġappartement": 3899,
      "Ġidiots": 3900,
      "Ġnovember": 3901,
      "ĠtÃ©lÃ©": 3902,
      "Ġdocument": 3903,
      "Ġsucks": 3904,
      "Ġoctober": 3905,
      "Ġcrisis": 3906,
      "Ġscooter": 3907,
      "Ġinstitutions": 3908,
      "ĠsÃ©curitÃ©": 3909,
      "jpg": 3910,
      "Ġmandatory": 3911,
      "Ġdetail": 3912,
      "Ġrelease": 3913,
      "Ġrepeat": 3914,
      "Ġchoses": 3915,
      "Ġpermission": 3916,
      "Ġpurchase": 3917,
      "Ġformula": 3918,
      "Ġromantic": 3919,
      "works": 3920,
      "ĠsantÃ©": 3921,
      "Ġsandwich": 3922,
      "Ġalthough": 3923,
      "Ġloblaws": 3924,
      "Ġuniform": 3925,
      "Ġopportun": 3926,
      "Ġperhaps": 3927,
      "Ġfamiliar": 3928,
      "ĠÃ©lectrique": 3929,
      "Ġlandmarks": 3930,
      "07": 3931,
      "11": 3932,
      "14": 3933,
      "29": 3934,
      "35": 3935,
      "41": 3936,
      "54": 3937,
      "73": 3938,
      "ause": 3939,
      "bor": 3940,
      "bish": 3941,
      "belt": 3942,
      "car": 3943,
      "city": 3944,
      "cool": 3945,
      "ds": 3946,
      "dain": 3947,
      "duc": 3948,
      "dep": 3949,
      "ev": 3950,
      "eed": 3951,
      "eux": 3952,
      "fm": 3953,
      "fu": 3954,
      "free": 3955,
      "fair": 3956,
      "gress": 3957,
      "hi": 3958,
      "hem": 3959,
      "hority": 3960,
      "habite": 3961,
      "ias": 3962,
      "ipe": 3963,
      "iance": 3964,
      "iety": 3965,
      "jets": 3966,
      "ky": 3967,
      "kly": 3968,
      "lies": 3969,
      "my": 3970,
      "man": 3971,
      "med": 3972,
      "nal": 3973,
      "nic": 3974,
      "night": 3975,
      "nger": 3976,
      "pÃ©r": 3977,
      "ras": 3978,
      "rir": 3979,
      "rain": 3980,
      "round": 3981,
      "rick": 3982,
      "sÃ©": 3983,
      "sight": 3984,
      "tb": 3985,
      "ten": 3986,
      "ters": 3987,
      "ui": 3988,
      "uct": 3989,
      "uble": 3990,
      "vp": 3991,
      "vere": 3992,
      "ville": 3993,
      "wear": 3994,
      "wik": 3995,
      "xe": 3996,
      "xious": 3997,
      "Ġq": 3998,
      "rete": 3999,
      "Ġson": 4000,
      "Ġsil": 4001,
      "Ġsun": 4002,
      "Ġsale": 4003,
      "Ġpin": 4004,
      "Ġpen": 4005,
      "Ġpont": 4006,
      "Ġpill": 4007,
      "ĠpÃ¨re": 4008,
      "Ġpistes": 4009,
      "Ġpush": 4010,
      "Ġpareil": 4011,
      "Ġcat": 4012,
      "Ġcow": 4013,
      "Ġcad": 4014,
      "Ġcast": 4015,
      "Ġcather": 4016,
      "Ġcycle": 4017,
      "Ġcaught": 4018,
      "Ġcateg": 4019,
      "erve": 4020,
      "Ġaub": 4021,
      "Ġauber": 4022,
      "Ġtv": 4023,
      "Ġtan": 4024,
      "Ġtit": 4025,
      "Ġtent": 4026,
      "Ġtest": 4027,
      "Ġtast": 4028,
      "Ġtarg": 4029,
      "Ġlay": 4030,
      "Ġlol": 4031,
      "Ġlists": 4032,
      "Ġlately": 4033,
      "oul": 4034,
      "ano": 4035,
      "any": 4036,
      "anish": 4037,
      "annel": 4038,
      "Ġmi": 4039,
      "Ġmor": 4040,
      "Ġmach": 4041,
      "Ġmath": 4042,
      "Ġdin": 4043,
      "Ġdut": 4044,
      "Ġdir": 4045,
      "Ġdish": 4046,
      "Ġdrop": 4047,
      "Ġdoute": 4048,
      "Ġdude": 4049,
      "ites": 4050,
      "iting": 4051,
      "itness": 4052,
      "isf": 4053,
      "Ġfi": 4054,
      "Ġfest": 4055,
      "Ġfield": 4056,
      "Ġfiche": 4057,
      "arante": 4058,
      "arrow": 4059,
      "Ġbour": 4060,
      "Ġbak": 4061,
      "Ġbaiss": 4062,
      "Ġbott": 4063,
      "atic": 4064,
      "Ġwel": 4065,
      "Ġwish": 4066,
      "Ġwild": 4067,
      "Ġwik": 4068,
      "Ġwife": 4069,
      "Ġwitness": 4070,
      "edia": 4071,
      "Ġge": 4072,
      "Ġgh": 4073,
      "Ġgent": 4074,
      "Ġgun": 4075,
      "Ġgold": 4076,
      "Ġgagn": 4077,
      "Ġgerm": 4078,
      "Ġgestion": 4079,
      "Ġnat": 4080,
      "Ġnow": 4081,
      "Ġnone": 4082,
      "Ġnature": 4083,
      "Ġnuit": 4084,
      "Ġnarrow": 4085,
      "entry": 4086,
      "Ã©m": 4087,
      "Ã©qu": 4088,
      "Ã©ment": 4089,
      "Ġhol": 4090,
      "Ġhad": 4091,
      "Ġhub": 4092,
      "Ġhole": 4093,
      "ication": 4094,
      "icul": 4095,
      "eth": 4096,
      "eting": 4097,
      "oti": 4098,
      "othing": 4099,
      "Ġress": 4100,
      "Ġreli": 4101,
      "Ġey": 4102,
      "Ġelection": 4103,
      "Ġearth": 4104,
      "Ġeglinton": 4105,
      "iles": 4106,
      "ilies": 4107,
      "rob": 4108,
      "roy": 4109,
      "uses": 4110,
      "using": 4111,
      "acc": 4112,
      "acle": 4113,
      "acitÃ©": 4114,
      "Ġvol": 4115,
      "Ġvite": 4116,
      "Ġvue": 4117,
      "Ġvote": 4118,
      "Ġviennent": 4119,
      "Ġstere": 4120,
      "Ġstate": 4121,
      "Ġstick": 4122,
      "Ġstates": 4123,
      "Ġstores": 4124,
      "Ġrou": 4125,
      "Ġrain": 4126,
      "Ġrice": 4127,
      "Ġrough": 4128,
      "Ġrach": 4129,
      "imag": 4130,
      "ives": 4131,
      "iger": 4132,
      "igible": 4133,
      "ols": 4134,
      "olÃ©": 4135,
      "eme": 4136,
      "unes": 4137,
      "unic": 4138,
      "Ġthrow": 4139,
      "Ġinit": 4140,
      "ster": 4141,
      "ests": 4142,
      "urt": 4143,
      "Ġtri": 4144,
      "Ġtrig": 4145,
      "Ġtrust": 4146,
      "Ġtruck": 4147,
      "Ġtrouv": 4148,
      "ado": 4149,
      "Ġjul": 4150,
      "Ġjum": 4151,
      "Ġjaz": 4152,
      "Ġjump": 4153,
      "Ġchap": 4154,
      "Ġchains": 4155,
      "Ġplant": 4156,
      "Ġquelle": 4157,
      "Ġquatre": 4158,
      "amp": 4159,
      "ams": 4160,
      "amas": 4161,
      "Ġpeak": 4162,
      "Ġalle": 4163,
      "Ġalot": 4164,
      "Ġalber": 4165,
      "Ġalright": 4166,
      "Ġyonge": 4167,
      "Ġparks": 4168,
      "Ġproc": 4169,
      "Ġprojet": 4170,
      "Ġsept": 4171,
      "Ġsevere": 4172,
      "endu": 4173,
      "avait": 4174,
      "pping": 4175,
      "ulo": 4176,
      "ulent": 4177,
      "ulting": 4178,
      "ourage": 4179,
      "ffet": 4180,
      "Ġconcl": 4181,
      "Ġcondition": 4182,
      "Ġcondo": 4183,
      "Ġlif": 4184,
      "Ġliked": 4185,
      "istr": 4186,
      "istry": 4187,
      "Ġexcl": 4188,
      "Ġexhib": 4189,
      "Ġital": 4190,
      "Ġlost": 4191,
      "Ġlose": 4192,
      "ieu": 4193,
      "iez": 4194,
      "ateur": 4195,
      "ategy": 4196,
      "peau": 4197,
      "Ġ22": 4198,
      "rix": 4199,
      "riquÃ©": 4200,
      "Ġamong": 4201,
      "Ġargue": 4202,
      "ondiss": 4203,
      "resp": 4204,
      "resent": 4205,
      "resse": 4206,
      "Ġore": 4207,
      "Ġangl": 4208,
      "Ġkill": 4209,
      "Ġkitch": 4210,
      "ously": 4211,
      "loc": 4212,
      "load": 4213,
      "cience": 4214,
      "Ġpool": 4215,
      "Ġpointe": 4216,
      "Ġleurs": 4217,
      "Ġlexus": 4218,
      "Ġcomparis": 4219,
      "Ġusual": 4220,
      "ured": 4221,
      "Ġmoss": 4222,
      "ĠÃ¢": 4223,
      "abl": 4224,
      "apers": 4225,
      "Ġimple": 4226,
      "ttu": 4227,
      "ttes": 4228,
      "order": 4229,
      "Ġappear": 4230,
      "Ġclar": 4231,
      "Ġclothing": 4232,
      "Ġbeef": 4233,
      "Ġweight": 4234,
      "Ġcontam": 4235,
      "Ġcontrib": 4236,
      "alles": 4237,
      "Ġmeas": 4238,
      "Ġmeals": 4239,
      "perature": 4240,
      "umed": 4241,
      "ĠdÃ©b": 4242,
      "ĠdÃ©cl": 4243,
      "Ġcook": 4244,
      "Ġcoverage": 4245,
      "Ġeveryday": 4246,
      "ongs": 4247,
      "Ġparties": 4248,
      "appelle": 4249,
      "Ġoppos": 4250,
      "Ġspa": 4251,
      "Ġspare": 4252,
      "Ġdrinking": 4253,
      "igned": 4254,
      "Ġyounger": 4255,
      "cca": 4256,
      "ored": 4257,
      "Ġaside": 4258,
      "Ġknows": 4259,
      "Ġknowing": 4260,
      "Ġincor": 4261,
      "Ġrose": 4262,
      "ĠsiÃ¨": 4263,
      "Ġsize": 4264,
      "Ġresult": 4265,
      "Ġmett": 4266,
      "Ġmeter": 4267,
      "Ġavis": 4268,
      "Ġavenue": 4269,
      "Ġwhene": 4270,
      "Ġwilling": 4271,
      "Ġcru": 4272,
      "Ġcrime": 4273,
      "Ġcoup": 4274,
      "Ġbran": 4275,
      "Ġphd": 4276,
      "Ġends": 4277,
      "Ġauto": 4278,
      "Ġauthority": 4279,
      "Ġtoy": 4280,
      "ĠrÃ©f": 4281,
      "ultural": 4282,
      "Ġsomehow": 4283,
      "ĠagrÃ©": 4284,
      "Ġdisp": 4285,
      "Ġremar": 4286,
      "Ġtoronton": 4287,
      "iblement": 4288,
      "Ġdiapers": 4289,
      "Ġrentre": 4290,
      "Ġrenting": 4291,
      "Ġrented": 4292,
      "Ġrenters": 4293,
      "Ġrentrer": 4294,
      "Ġpubli": 4295,
      "Ġguarante": 4296,
      "Ġregul": 4297,
      "Ġweekend": 4298,
      "Ġentert": 4299,
      "Ġeth": 4300,
      "Ġtransform": 4301,
      "Ġtransfer": 4302,
      "Ãªter": 4303,
      "Ġtwice": 4304,
      "inson": 4305,
      "Ġrestos": 4306,
      "ancÃ©": 4307,
      "Ġboat": 4308,
      "Ġboard": 4309,
      "Ġboost": 4310,
      "Ġboots": 4311,
      "Ġgotten": 4312,
      "acheter": 4313,
      "clin": 4314,
      "ipedia": 4315,
      "Ġaccomm": 4316,
      "Ġfamille": 4317,
      "Ã©ric": 4318,
      "Ġcentury": 4319,
      "Ġpassed": 4320,
      "Ġpassion": 4321,
      "Ġpassport": 4322,
      "Ġemm": 4323,
      "Ġems": 4324,
      "Ġtourist": 4325,
      "Ġinstalled": 4326,
      "Ġprovided": 4327,
      "ĠÃ©ch": 4328,
      "Ġfaites": 4329,
      "ressed": 4330,
      "Ġlitt": 4331,
      "Ġbuyers": 4332,
      "Ġtee": 4333,
      "Ġtext": 4334,
      "Ġbasic": 4335,
      "Ġsmoke": 4336,
      "Ġwwwinst": 4337,
      "Ġwwwgo": 4338,
      "Ġflux": 4339,
      "Ġfluent": 4340,
      "Ġarrondiss": 4341,
      "Ġminute": 4342,
      "Ġconcrete": 4343,
      "Ġartist": 4344,
      "Ġindivid": 4345,
      "izing": 4346,
      "Ġupstairs": 4347,
      "Ġeastern": 4348,
      "Ġsurround": 4349,
      "Ġeligible": 4350,
      "Ġsupply": 4351,
      "ibility": 4352,
      "xton": 4353,
      "Ġpleas": 4354,
      "Ġpopular": 4355,
      "Ġacad": 4356,
      "ouvrir": 4357,
      "Ġbloqu": 4358,
      "Ġrealise": 4359,
      "Ġrealised": 4360,
      "Ġdecide": 4361,
      "Ġkept": 4362,
      "Ġcafe": 4363,
      "Ġcaused": 4364,
      "Ġfolk": 4365,
      "Ġfolks": 4366,
      "Ġvient": 4367,
      "Ġvibe": 4368,
      "Ġjeunes": 4369,
      "Ġletting": 4370,
      "Ġmatin": 4371,
      "Ġhomeown": 4372,
      "Ġlesson": 4373,
      "Ġnearby": 4374,
      "Ġcomplet": 4375,
      "Ġcorner": 4376,
      "Ġmentions": 4377,
      "Ġtrouble": 4378,
      "Ġregardant": 4379,
      "Ġtemperature": 4380,
      "Ġdelay": 4381,
      "Ġdelight": 4382,
      "Ġrelated": 4383,
      "Ġrelatively": 4384,
      "Ġgrande": 4385,
      "Ġgrandes": 4386,
      "Ġperman": 4387,
      "Ġcalme": 4388,
      "Ġcapacity": 4389,
      "Ġmenu": 4390,
      "Ġstrategy": 4391,
      "Ġexpecting": 4392,
      "Ġopening": 4393,
      "Ġdifference": 4394,
      "Ġvoit": 4395,
      "Ġvoie": 4396,
      "Ġdevait": 4397,
      "Ġsidewalk": 4398,
      "Ġforce": 4399,
      "Ġretail": 4400,
      "Ġviews": 4401,
      "Ġaffect": 4402,
      "Ġgiving": 4403,
      "Ġparked": 4404,
      "Ġchecked": 4405,
      "Ġinterested": 4406,
      "Ã§you": 4407,
      "Ġcreep": 4408,
      "Ġvisited": 4409,
      "Ġseconds": 4410,
      "ĠdifferentÃ©": 4411,
      "aime": 4412,
      "Ġmainly": 4413,
      "arrÃªt": 4414,
      "Ġconfort": 4415,
      "Ġdiscuss": 4416,
      "Ġdiscover": 4417,
      "Ġdemander": 4418,
      "Ġseries": 4419,
      "Ġsettle": 4420,
      "Ġcycling": 4421,
      "Ġbroad": 4422,
      "Ġshortage": 4423,
      "Ãªtement": 4424,
      "Ġmalheure": 4425,
      "Ġwinner": 4426,
      "Ġreddit": 4427,
      "Ġadding": 4428,
      "Ġincreasing": 4429,
      "nesday": 4430,
      "Ġaband": 4431,
      "Ġfucked": 4432,
      "Ġstaying": 4433,
      "Ġbills": 4434,
      "Ġbillions": 4435,
      "Ġwritt": 4436,
      "Ġgarde": 4437,
      "Ġphotos": 4438,
      "Ġpatient": 4439,
      "Ġcampaign": 4440,
      "Ġactions": 4441,
      "Ġmanagement": 4442,
      "Ġfranchement": 4443,
      "Ġfrankly": 4444,
      "Ġresidence": 4445,
      "ĠproblÃ¨mes": 4446,
      "Ġarrived": 4447,
      "ĠarrivÃ©": 4448,
      "Ġestim": 4449,
      "Ġestate": 4450,
      "Ġsavings": 4451,
      "Ġdogs": 4452,
      "Ġabsolument": 4453,
      "Ġpourrait": 4454,
      "Ġpourquoi": 4455,
      "Ġboul": 4456,
      "attered": 4457,
      "Ġleadership": 4458,
      "Ġfriendly": 4459,
      "Ġsuggestions": 4460,
      "Ġideal": 4461,
      "Ġtalked": 4462,
      "Ġformer": 4463,
      "ottes": 4464,
      "Ġrendu": 4465,
      "Ġelectrical": 4466,
      "Ġstandard": 4467,
      "Ġclaims": 4468,
      "Ġorigin": 4469,
      "Ġsoudain": 4470,
      "Ġpacked": 4471,
      "Ġpackage": 4472,
      "Ġairb": 4473,
      "Ġmonop": 4474,
      "Ġverre": 4475,
      "Ġallait": 4476,
      "Ġdoctors": 4477,
      "Ġenvie": 4478,
      "Ġenviron": 4479,
      "Ġaccessible": 4480,
      "Ġskill": 4481,
      "Ġpaths": 4482,
      "Ġmission": 4483,
      "Ġgarage": 4484,
      "Ġgarbage": 4485,
      "Ġstatus": 4486,
      "Ġracist": 4487,
      "Ġracism": 4488,
      "Ġengage": 4489,
      "Ġentirely": 4490,
      "oglecom": 4491,
      "Ġclearly": 4492,
      "Ġurban": 4493,
      "Ġpressure": 4494,
      "Ġhorrible": 4495,
      "Ġholding": 4496,
      "Ġquickly": 4497,
      "Ġinstaller": 4498,
      "expli": 4499,
      "market": 4500,
      "Ġcustomer": 4501,
      "Ġburgers": 4502,
      "Ġbaby": 4503,
      "Ġwindows": 4504,
      "Ġnoisy": 4505,
      "Ġpropri": 4506,
      "Ġokay": 4507,
      "Ġcontractor": 4508,
      "Ġscrew": 4509,
      "Ġscreen": 4510,
      "Ġgreenbelt": 4511,
      "Ġcollectifs": 4512,
      "Ġpetites": 4513,
      "Ġemploy": 4514,
      "Ġpedestrian": 4515,
      "ĠsoirÃ©es": 4516,
      "Ġpouvoir": 4517,
      "Ġcitiz": 4518,
      "Ġfootball": 4519,
      "Ġnombre": 4520,
      "Ġreceived": 4521,
      "Ġequivalent": 4522,
      "Ġthank": 4523,
      "Ġdevelopment": 4524,
      "ĠdÃ©test": 4525,
      "ĠsÃ»rement": 4526,
      "Ġpapier": 4527,
      "Ġtarget": 4528,
      "Ġtowards": 4529,
      "Ġlatin": 4530,
      "Ġvoted": 4531,
      "Ġvictor": 4532,
      "Ġconnais": 4533,
      "Ġrobinson": 4534,
      "ĠrÃ©cup": 4535,
      "Ġassociation": 4536,
      "Ġtypically": 4537,
      "Ġtypical": 4538,
      "Ġresponsible": 4539,
      "Ġelectricity": 4540,
      "Ġmaintenant": 4541,
      "Ġsquat": 4542,
      "Ġsquare": 4543,
      "Ġlicense": 4544,
      "Ġfilm": 4545,
      "Ġwalmart": 4546,
      "Ġplatform": 4547,
      "Ġparlent": 4548,
      "Ġnecessarily": 4549,
      "Ġloads": 4550,
      "ĠprÃ©v": 4551,
      "Ġevicted": 4552,
      "Ġimprove": 4553,
      "Ġconvenience": 4554,
      "Ġconvenient": 4555,
      "aughter": 4556,
      "Ġreduced": 4557,
      "Ġpiece": 4558,
      "Ġtube": 4559,
      "Ġbillet": 4560,
      "Ã©roport": 4561,
      "Ġvouloir": 4562,
      "Ġvideo": 4563,
      "Ġrarely": 4564,
      "impression": 4565,
      "Ġseparate": 4566,
      "Ġdegree": 4567,
      "Ġarmen": 4568,
      "ĠdÃ©mÃ©nag": 4569,
      "Ġseekers": 4570,
      "Ġphysical": 4571,
      "ĠcafÃ©": 4572,
      "Ġcapitalism": 4573,
      "Ġcleaning": 4574,
      "Ġpanneau": 4575,
      "Ġglobal": 4576,
      "Ġpsych": 4577,
      "agramcom": 4578,
      "Ġillegal": 4579,
      "Ġsadly": 4580,
      "Ġpantin": 4581,
      "Ġtunnels": 4582,
      "Ġmichel": 4583,
      "Ġdedans": 4584,
      "Ġfalse": 4585,
      "ĠfabriquÃ©": 4586,
      "Ġberlin": 4587,
      "Ġwednesday": 4588,
      "Ġstructures": 4589,
      "ĠrÃ¨g": 4590,
      "Ġdozen": 4591,
      "Ġitems": 4592,
      "Ġagreement": 4593,
      "Ġassuming": 4594,
      "Ġindependent": 4595,
      "Ġsignificant": 4596,
      "Ġreligious": 4597,
      "Ġannoying": 4598,
      "Ġpalestinian": 4599,
      "Ġemployees": 4600,
      "Ġnavigo": 4601,
      "bonjour": 4602,
      "bourg": 4603,
      "toronto": 4604,
      "Ġcinem": 4605,
      "ĠlÃ¨ve": 4606,
      "Ġlaurent": 4607,
      "Ġbicycle": 4608,
      "ĠbÃ©nÃ©": 4609,
      "Ġvirage": 4610,
      "Ġvoyage": 4611,
      "Ġtherap": 4612,
      "Ġchinois": 4613,
      "html": 4614,
      "Ġlosing": 4615,
      "Ġtapered": 4616,
      "Ġmairie": 4617,
      "Ġimmeuble": 4618,
      "Ġgratuit": 4619,
      "Ġasylum": 4620,
      "Ġpharmacy": 4621,
      "ĠrÃ©novation": 4622,
      "Ġdisgusting": 4623,
      "Ġempty": 4624,
      "Ġinterrac": 4625,
      "Ġfunctional": 4626,
      "Ġdesperate": 4627,
      "Ġindoor": 4628,
      "Ġlaundry": 4629,
      "ĠhonnÃªtement": 4630,
      "Ġreviews": 4631,
      "Ġvalued": 4632,
      "Ġconflict": 4633,
      "Ġautomobilistes": 4634,
      "Ġdoubt": 4635,
      "Ġcameras": 4636,
      "Ġpotential": 4637,
      "ĠtÃ©lÃ©phone": 4638,
      "wikipedia": 4639,
      "Ġcatherine": 4640,
      "Ġaubervilliers": 4641,
      "Ġtargets": 4642,
      "Ġduty": 4643,
      "Ġfestival": 4644,
      "Ġbaisser": 4645,
      "Ġwiki": 4646,
      "entryttu": 4647,
      "Ġrachel": 4648,
      "imagine": 4649,
      "Ġseptember": 4650,
      "Ġimplement": 4651,
      "Ġwhenever": 4652,
      "ĠagrÃ©able": 4653,
      "Ġtorontonians": 4654,
      "Ġaccommod": 4655,
      "Ġwwwinstagramcom": 4656,
      "Ġwwwgooglecom": 4657,
      "Ġindividual": 4658,
      "Ġmalheureusement": 4659,
      "Ġwritten": 4660,
      "wikipediaorg": 4661,
      "17": 4662,
      "100": 4663,
      "180": 4664,
      "230": 4665,
      "40": 4666,
      "47": 4667,
      "53": 4668,
      "713": 4669,
      "83": 4670,
      "880": 4671,
      "895": 4672,
      "aa": 4673,
      "ax": 4674,
      "ake": 4675,
      "ares": 4676,
      "aide": 4677,
      "aque": 4678,
      "ault": 4679,
      "ailleurs": 4680,
      "aÃ©roport": 4681,
      "bug": 4682,
      "bonne": 4683,
      "cis": 4684,
      "cal": 4685,
      "ced": 4686,
      "cus": 4687,
      "col": 4688,
      "cie": 4689,
      "cond": 4690,
      "care": 4691,
      "cue": 4692,
      "cule": 4693,
      "cante": 4694,
      "dv": 4695,
      "dre": 4696,
      "dem": 4697,
      "dam": 4698,
      "days": 4699,
      "eum": 4700,
      "eurs": 4701,
      "fp": 4702,
      "fs": 4703,
      "fere": 4704,
      "ford": 4705,
      "fall": 4706,
      "fore": 4707,
      "fÃ¨re": 4708,
      "gn": 4709,
      "ging": 4710,
      "gent": 4711,
      "got": 4712,
      "gment": 4713,
      "gie": 4714,
      "hÃ©": 4715,
      "hist": 4716,
      "hous": 4717,
      "have": 4718,
      "house": 4719,
      "head": 4720,
      "holding": 4721,
      "ii": 4722,
      "iants": 4723,
      "iative": 4724,
      "iÃ¨res": 4725,
      "iji": 4726,
      "kel": 4727,
      "lit": 4728,
      "lim": 4729,
      "lad": 4730,
      "lav": 4731,
      "mo": 4732,
      "mp": 4733,
      "ms": 4734,
      "mon": 4735,
      "mac": 4736,
      "mont": 4737,
      "matis": 4738,
      "nom": 4739,
      "norm": 4740,
      "nelle": 4741,
      "nipe": 4742,
      "oes": 4743,
      "oos": 4744,
      "pre": 4745,
      "pes": 4746,
      "pir": 4747,
      "path": 4748,
      "pagne": 4749,
      "rot": 4750,
      "rav": 4751,
      "rist": 4752,
      "racy": 4753,
      "sor": 4754,
      "sst": 4755,
      "ship": 4756,
      "tf": 4757,
      "tement": 4758,
      "uie": 4759,
      "uous": 4760,
      "uve": 4761,
      "uelle": 4762,
      "ugg": 4763,
      "uÃ©s": 4764,
      "vm": 4765,
      "vre": 4766,
      "val": 4767,
      "vide": 4768,
      "verse": 4769,
      "wd": 4770,
      "well": 4771,
      "water": 4772,
      "xj": 4773,
      "xic": 4774,
      "xim": 4775,
      "yn": 4776,
      "yers": 4777,
      "yst": 4778,
      "year": 4779,
      "zz": 4780,
      "Ã®": 4781,
      "Ġic": 4782,
      "Ġut": 4783,
      "Ġice": 4784,
      "Ġum": 4785,
      "ĠâĢ¦": 4786,
      "Ġiron": 4787,
      "inct": 4788,
      "inary": 4789,
      "rends": 4790,
      "Ġsain": 4791,
      "Ġsne": 4792,
      "Ġsli": 4793,
      "Ġsach": 4794,
      "Ġsending": 4795,
      "Ġsession": 4796,
      "Ġsongs": 4797,
      "Ġpa": 4798,
      "Ġpis": 4799,
      "Ġpom": 4800,
      "Ġpod": 4801,
      "Ġpip": 4802,
      "Ġpots": 4803,
      "Ġpull": 4804,
      "Ġpisse": 4805,
      "Ġpoub": 4806,
      "Ġpulo": 4807,
      "Ġcd": 4808,
      "Ġcv": 4809,
      "Ġcig": 4810,
      "Ġcest": 4811,
      "Ġcand": 4812,
      "ĠcitÃ©": 4813,
      "ĠcÃ´": 4814,
      "Ġcards": 4815,
      "oned": 4816,
      "onse": 4817,
      "era": 4818,
      "erg": 4819,
      "eries": 4820,
      "eng": 4821,
      "enir": 4822,
      "enci": 4823,
      "enry": 4824,
      "enials": 4825,
      "Ġat": 4826,
      "Ġaim": 4827,
      "Ġave": 4828,
      "Ġaud": 4829,
      "Ġaup": 4830,
      "Ġaug": 4831,
      "Ġtes": 4832,
      "Ġtel": 4833,
      "Ġtone": 4834,
      "Ġtind": 4835,
      "Ġtough": 4836,
      "Ġtends": 4837,
      "Ġtph": 4838,
      "ĠtÃªte": 4839,
      "Ġlis": 4840,
      "Ġlac": 4841,
      "Ġlum": 4842,
      "Ġluc": 4843,
      "ĠlÃ©g": 4844,
      "Ġlma": 4845,
      "Ġlining": 4846,
      "Ġltb": 4847,
      "oue": 4848,
      "ouve": 4849,
      "Ġmp": 4850,
      "Ġmut": 4851,
      "Ġmort": 4852,
      "Ġmour": 4853,
      "Ġmau": 4854,
      "Ġmum": 4855,
      "Ġmild": 4856,
      "Ġmigr": 4857,
      "Ġmike": 4858,
      "Ġmunic": 4859,
      "Ġmyst": 4860,
      "Ġdj": 4861,
      "Ġdu": 4862,
      "Ġdor": 4863,
      "Ġdim": 4864,
      "Ġdig": 4865,
      "Ġdur": 4866,
      "Ġdad": 4867,
      "Ġdam": 4868,
      "Ġdure": 4869,
      "Ġdirt": 4870,
      "ĠdÃ»": 4871,
      "Ġdoll": 4872,
      "Ġdestin": 4873,
      "Ġdalle": 4874,
      "Ġdaughter": 4875,
      "ited": 4876,
      "itage": 4877,
      "isl": 4878,
      "isme": 4879,
      "isions": 4880,
      "Ġfly": 4881,
      "Ġfig": 4882,
      "Ġfond": 4883,
      "Ġfish": 4884,
      "Ġfasse": 4885,
      "Ġfils": 4886,
      "Ġfuel": 4887,
      "aries": 4888,
      "alist": 4889,
      "Ġben": 4890,
      "Ġbid": 4891,
      "Ġbri": 4892,
      "Ġbous": 4893,
      "Ġbure": 4894,
      "Ġbase": 4895,
      "Ġbelle": 4896,
      "Ġbath": 4897,
      "Ġbars": 4898,
      "Ġbelles": 4899,
      "Ġbiling": 4900,
      "atoire": 4901,
      "Ġwow": 4902,
      "Ġwire": 4903,
      "Ġwage": 4904,
      "Ġwine": 4905,
      "Ġwise": 4906,
      "Ġwarr": 4907,
      "Ġwagon": 4908,
      "Ġwtf": 4909,
      "leg": 4910,
      "oring": 4911,
      "orÃ©": 4912,
      "orite": 4913,
      "oristes": 4914,
      "Ġgal": 4915,
      "Ġgay": 4916,
      "Ġgut": 4917,
      "Ġgif": 4918,
      "Ġnan": 4919,
      "Ġnic": 4920,
      "Ġnim": 4921,
      "Ġnick": 4922,
      "ĠnÃ©c": 4923,
      "ĠnÃ©g": 4924,
      "Ġnames": 4925,
      "Ġnouve": 4926,
      "entre": 4927,
      "Ã©ra": 4928,
      "Ġhop": 4929,
      "Ġhid": 4930,
      "Ġhem": 4931,
      "Ġhun": 4932,
      "Ġhill": 4933,
      "Ġhaut": 4934,
      "Ġhah": 4935,
      "Ġhund": 4936,
      "Ġhamas": 4937,
      "Ġhenry": 4938,
      "iced": 4939,
      "icious": 4940,
      "etc": 4941,
      "oty": 4942,
      "otic": 4943,
      "otid": 4944,
      "Ġreck": 4945,
      "Ġrenc": 4946,
      "Ġrendre": 4947,
      "Ġreplac": 4948,
      "Ġrecher": 4949,
      "Ġrenov": 4950,
      "Ġrebu": 4951,
      "omme": 4952,
      "Ġeld": 4953,
      "Ġeffic": 4954,
      "ilien": 4955,
      "ilos": 4956,
      "rov": 4957,
      "rooke": 4958,
      "rovers": 4959,
      "asons": 4960,
      "quel": 4961,
      "Ġvs": 4962,
      "Ġvin": 4963,
      "Ġvale": 4964,
      "ĠvÃ©c": 4965,
      "eler": 4966,
      "Ġstri": 4967,
      "Ġstood": 4968,
      "Ġstep": 4969,
      "Ġstability": 4970,
      "Ġstamp": 4971,
      "Ġron": 4972,
      "Ġran": 4973,
      "Ġrout": 4974,
      "Ġrome": 4975,
      "Ġrass": 4976,
      "ĠrÃª": 4977,
      "Ġrues": 4978,
      "Ġrise": 4979,
      "iders": 4980,
      "idement": 4981,
      "imm": 4982,
      "import": 4983,
      "imately": 4984,
      "iving": 4985,
      "ivent": 4986,
      "ivement": 4987,
      "olf": 4988,
      "oler": 4989,
      "olit": 4990,
      "olis": 4991,
      "ersion": 4992,
      "emb": 4993,
      "emy": 4994,
      "cture": 4995,
      "Ġthr": 4996,
      "Ġthem": 4997,
      "Ġtherm": 4998,
      "ching": 4999
    },
    "merges": [
      "i n",
      "r e",
      "Ġ s",
      "Ġ p",
      "Ġ c",
      "o n",
      "e r",
      "e n",
      "Ġ a",
      "Ġ t",
      "e s",
      "Ġ l",
      "o u",
      "a n",
      "Ġ m",
      "Ġ d",
      "in g",
      "i t",
      "i s",
      "Ġ f",
      "a r",
      "a l",
      "Ġ b",
      "a t",
      "Ġ w",
      "l e",
      "o r",
      "e d",
      "Ġ g",
      "Ġ n",
      "en t",
      "Ã ©",
      "Ġ h",
      "i c",
      "e t",
      "o t",
      "Ġ re",
      "o m",
      "l y",
      "Ġ e",
      "i l",
      "i on",
      "r o",
      "a s",
      "u s",
      "a c",
      "q u",
      "Ġ v",
      "e l",
      "Ġs t",
      "o p",
      "a y",
      "Ġ r",
      "i d",
      "i m",
      "i v",
      "i g",
      "o l",
      "er s",
      "e m",
      "u n",
      "c t",
      "Ġt h",
      "Ġ in",
      "c h",
      "k e",
      "s t",
      "Ġ is",
      "es t",
      "on t",
      "u r",
      "Ġt r",
      "an t",
      "o w",
      "on e",
      "Ġn ot",
      "u t",
      "a d",
      "a g",
      "Ġ j",
      "Ġc h",
      "Ġc om",
      "Ġp l",
      "i r",
      "Ġ qu",
      "a m",
      "c e",
      "Ġp e",
      "Ġa l",
      "v er",
      "l d",
      "Ġ y",
      "Ġp ar",
      "Ġg o",
      "Ġp ro",
      "at ion",
      "s e",
      "Ġs e",
      "al ly",
      "Ġn e",
      "en d",
      "a v",
      "b le",
      "il l",
      "p p",
      "or t",
      "an d",
      "u l",
      "ou r",
      "f f",
      "ou ld",
      "Ġd o",
      "Ġc on",
      "a in",
      "m ent",
      "Ġl i",
      "n t",
      "h t",
      "Ġs u",
      "i re",
      "is t",
      "Ġe x",
      "Ġ i",
      "e re",
      "it y",
      "k ing",
      "op le",
      "Ġ it",
      "es s",
      "Ġpe ople",
      "Ġl o",
      "i e",
      "at e",
      "Ġd e",
      "o d",
      "p e",
      "ou t",
      "e ar",
      "Ġ 2",
      "r i",
      "Ã ¨",
      "Ġa m",
      "n d",
      "Ġa r",
      "Ġ \"",
      "Ġs h",
      "Ġg et",
      "on d",
      "re s",
      "Ġ o",
      "Ġa n",
      "Ġli ke",
      "iv e",
      "Ġw ould",
      "Ġ k",
      "a it",
      "Ġ 1",
      "a is",
      "a u",
      "en s",
      "ou s",
      "ic e",
      "l o",
      "t er",
      "Ġ un",
      "ag e",
      "n e",
      "an s",
      "c i",
      "Ġp o",
      "Ġp r",
      "ig ht",
      "in e",
      "p s",
      "ar d",
      "Ġ en",
      "Ġl e",
      "as t",
      "a re",
      "ar t",
      "Ġw or",
      "em ent",
      "Ġ one",
      "Ġcom p",
      "Ġ us",
      "Ġt a",
      "Ġm a",
      "ac e",
      "ac k",
      "el l",
      "Ġa re",
      "u re",
      "in d",
      "ou nd",
      "Ġm o",
      "an g",
      "Ġ Ã",
      "s s",
      "a b",
      "t e",
      "m e",
      "it e",
      "Ġb u",
      "a p",
      "c k",
      "u e",
      "Ġt im",
      "h er",
      "h ing",
      "Ġ im",
      "av e",
      "v e",
      "om e",
      "i es",
      "Ġc an",
      "Ġe v",
      "id e",
      "Ġpl us",
      "Ġy ear",
      "t t",
      "or d",
      "Ġm ont",
      "Ġa pp",
      "u x",
      "Ġc l",
      "as s",
      "i en",
      "Ġb e",
      "Ġw e",
      "Ġp re",
      "ol d",
      "Ġc ont",
      "al l",
      "a i",
      "u b",
      "Ġm e",
      "Ġe ver",
      "Ġ2 0",
      "a ble",
      "a ire",
      "p er",
      "u m",
      "ac t",
      "ou g",
      "Ġm an",
      "ay s",
      "Ġd Ã©",
      "s o",
      "Ġ 3",
      "Ġ >",
      "Ġc o",
      "Ġal so",
      "Ġpar is",
      "Ġever y",
      "Ġs a",
      "on g",
      "ic k",
      "qu e",
      "Ġg r",
      "ct ion",
      "in t",
      "Ġtim e",
      "n ow",
      "Ġpar t",
      "a pp",
      "§ a",
      "Ġ op",
      "Ġs p",
      "Ġd r",
      "ĠÃ §a",
      "Ġp er",
      "an ce",
      "Ġc ity",
      "Ġf re",
      "Ġh e",
      "o k",
      "u d",
      "Ġf r",
      "ig n",
      "' s",
      "0 0",
      "or m",
      "Ġh ave",
      "Ġy ou",
      "Ġse e",
      "Ã© t",
      "Ġev en",
      "c c",
      "o re",
      "t ing",
      "Ġa s",
      "Ġk now",
      "Ġwor k",
      "Ġth ing",
      "Ġin c",
      "Ġ ro",
      "Ġp ers",
      "o ir",
      "Ġa d",
      "Ġgo ing",
      "Ġs i",
      "Ġan y",
      "Ġne ed",
      "Ġpers on",
      "in k",
      "is h",
      "i f",
      "o s",
      "u p",
      "Ġre s",
      "ion s",
      "i er",
      "il d",
      "il le",
      "ow n",
      "Ġyear s",
      "g e",
      "Ġm et",
      "Ġgo od",
      "t h",
      "t re",
      "Ġs pe",
      "Ġa v",
      "Ġw h",
      "Ġw ill",
      "ond on",
      "Ġf e",
      "Ġcom m",
      "Ġc r",
      "Ġc ou",
      "Ġc ould",
      "Ġl ondon",
      "Ġb r",
      "a k",
      "c om",
      "Ġa ct",
      "l i",
      "er v",
      "Ġst ill",
      "Ġpl ace",
      "Ġne w",
      "p ort",
      "u ally",
      "Ġp h",
      "at ed",
      "or s",
      "ent s",
      "Ġre ally",
      "as e",
      "Ġma ke",
      "b er",
      "Ġ end",
      "at ing",
      "b s",
      "Ġa ut",
      "Ġt o",
      "Ġw ant",
      "Ġr Ã©",
      "Ġst re",
      "ul t",
      "oug h",
      "l ic",
      "Ġs ome",
      "Ġa g",
      "Ġt out",
      "Ġl ot",
      "Ġd is",
      "Ġd ay",
      "Ġb us",
      "Ġre m",
      "ff ic",
      "r y",
      "u c",
      "Ġc ar",
      "Ġt or",
      "ont o",
      "Ã¨ s",
      "Ġar ound",
      "2 0",
      "p le",
      "Ġw ay",
      "Ġth e",
      "u ch",
      "ig h",
      "i ble",
      "Ġs o",
      "Ġd i",
      "Ġb l",
      "Ġch e",
      "our s",
      "p t",
      "Ġp ol",
      "Ġl ong",
      "Ġm ar",
      "Ġre nt",
      "el le",
      "Ġth ink",
      "Ġman y",
      "Ġsa id",
      "b e",
      "n ot",
      "n ch",
      "r u",
      "er t",
      "Ġb ack",
      "am e",
      "Ġstre et",
      "e k",
      "o is",
      "Ġs c",
      "Ġp ub",
      "Ġm uch",
      "Ġf a",
      "Ġg u",
      "Ã© e",
      "Ġre g",
      "Ġin t",
      "Ġwe ek",
      "Ġfre nch",
      "w ay",
      "Ġ ent",
      "Ġ et",
      "al k",
      "us t",
      "Ġth ere",
      "Ġin f",
      "Ġtr ans",
      "Ġcan not",
      "l ow",
      "Ã ª",
      "Ġ 5",
      "Ġt w",
      "om et",
      "ation s",
      "r a",
      "in ce",
      "Ġf ind",
      "ot e",
      "Ġpro b",
      "i a",
      "i ly",
      "i ous",
      "o g",
      "o od",
      "in s",
      "Ġh app",
      "Ġtor onto",
      "Ġ 4",
      "ou p",
      "it Ã©",
      "Ġre st",
      "ant s",
      "Ġsu b",
      "Ġta ke",
      "Ġsome one",
      "e p",
      "Ġs omet",
      "Ġp ay",
      "an c",
      "Ġf ri",
      "Ġb o",
      "Ġg ot",
      "ac h",
      "Ã¨ re",
      "c l",
      "i p",
      "Ġs ay",
      "Ġa cc",
      "Ġf am",
      "Ã© r",
      "Ġth at",
      "Ġtr y",
      "d it",
      "Ġc ent",
      "Ġg re",
      "ic ally",
      "pe ct",
      "u ck",
      "w h",
      "Ġa p",
      "ic t",
      "Ġcan ad",
      "a il",
      "e ct",
      "Ġ old",
      "Ġp ass",
      "Ġl iv",
      "Ġf aire",
      "Ġst art",
      "Ġch ang",
      "g l",
      "t hing",
      "Ġs erv",
      "Ġf in",
      "Ġh ous",
      "Ġe m",
      "Ġcon s",
      "Ġet c",
      "o ol",
      "Ġs ch",
      "Ġt our",
      "Ġw w",
      "us s",
      "Ġv e",
      "Ġin st",
      "Ġpro v",
      "ci al",
      "Ġmont h",
      "Ġthe y",
      "i que",
      "t y",
      "Ġ Ã©",
      "Ġf ait",
      "res s",
      "Ġpo int",
      "Ġpub lic",
      "i an",
      "o y",
      "r Ã©",
      "Ġl it",
      "Ġb on",
      "et s",
      "Ġlo ok",
      "Ġbu y",
      "Ġtw o",
      "i le",
      "v el",
      "Ġ Â",
      "Ġt e",
      "it s",
      "Ġb as",
      "Ġg en",
      "Ġn on",
      "Ġin ter",
      "ur s",
      "Ġse em",
      "Ġex p",
      "Ġact ually",
      "Ġsomet hing",
      "f ul",
      "n er",
      "u es",
      "w ays",
      "Ġs m",
      "Ġa ss",
      "Ġm ay",
      "Ġd on",
      "it h",
      "is e",
      "is s",
      "at h",
      "Ġw ell",
      "ic al",
      "Ġin s",
      "Ġtr av",
      "ort h",
      "Ġbu ild",
      "Ġww w",
      "f t",
      "o se",
      "u res",
      "en ce",
      "Ġa tt",
      "Ġl and",
      "Ġf l",
      "Ġf un",
      "Ġf ir",
      "Ġh el",
      "Ġv is",
      "Ġtr ain",
      "end s",
      "ere d",
      "Ġar r",
      "Ġinc re",
      "a z",
      "o b",
      "Ġc ert",
      "on s",
      "Ġm in",
      "Ġd es",
      "Ġd ire",
      "Ġre c",
      "Ġpro per",
      "Ġne ver",
      "Ġcon c",
      "Ġar t",
      "Ġun d",
      "Ġmont re",
      "â Ģ",
      "re nt",
      "Ġs im",
      "en se",
      "Ġb et",
      "Ġh tt",
      "ic es",
      "Ġr at",
      "Ġin d",
      "Ġcom me",
      "Ġlo c",
      "Ġget ting",
      "Ġo ff",
      "âĢ ¦",
      "Ġhtt ps",
      "i z",
      "Ġ up",
      "ou se",
      "Ġm ond",
      "at er",
      "Ġw ith",
      "Ġe as",
      "Ġpro ble",
      "ain t",
      "ht t",
      "Ġde p",
      "Ġthing s",
      "Ġcomm un",
      "Ġfir st",
      "Ġproble m",
      "f e",
      "i o",
      "o st",
      "o king",
      "re ad",
      "Ġc ol",
      "Ġl a",
      "al e",
      "Ġw om",
      "le ct",
      "Ġst op",
      "ch e",
      "Ġse c",
      "Ġpo st",
      "ab ly",
      "Ġim p",
      "Ġsch ool",
      "htt ps",
      "d u",
      "Ġs y",
      "Ġs ur",
      "Ġp ut",
      "Ġc ur",
      "er n",
      "Ġl ive",
      "ot her",
      "Ġe l",
      "ac es",
      "ur n",
      "Ġqu el",
      "Ġsu re",
      "Ġsu pp",
      "Ġhous ing",
      "uss i",
      "Ġbet ter",
      "i b",
      "Ġ z",
      "Ġs ince",
      "Ġc ro",
      "Ġc as",
      "on es",
      "Ġt ick",
      "Ġl ast",
      "Ġw alk",
      "or y",
      "ic h",
      "Ġre f",
      "Ġtr Ã¨s",
      "ut e",
      "ad e",
      "Ġal ways",
      "ver n",
      "Ġcon st",
      "Ġbe au",
      "Ġas k",
      "Ġfe el",
      "Ġhapp en",
      "Ġcert ain",
      "l es",
      "x t",
      "ª tre",
      "Ġs it",
      "Ġp le",
      "Ġp op",
      "Ġa c",
      "ou v",
      "Ġd em",
      "ing s",
      "ar y",
      "Ġb lo",
      "Ġw ent",
      "Ġh ouse",
      "Ġre al",
      "qu es",
      "iv er",
      "Ġin v",
      "ist s",
      "Ġde c",
      "ĠÃ ªtre",
      "Ġco st",
      "Ġfam ily",
      "i al",
      "o le",
      "p l",
      "u le",
      "Ã ł",
      "Ġ u",
      "Ġ ke",
      "Ġs ign",
      "Ġc a",
      "Ġc lo",
      "Ġc are",
      "Ġa ussi",
      "Ġt er",
      "ou nt",
      "Ġf ol",
      "Ġv i",
      "Ġst ud",
      "Ġj e",
      "Ġsh op",
      "ss ible",
      "l er",
      "Ġ or",
      "Ġ out",
      "re e",
      "Ġl et",
      "Ġm at",
      "Ġg ens",
      "Ġh ome",
      "Ġh igh",
      "ers t",
      "Ġis s",
      "ag es",
      "Ġqu and",
      "Ġlo oking",
      "Ġop t",
      "Ġany thing",
      "Ġmontre al",
      "g g",
      "n c",
      "u al",
      "v ed",
      "Ġs w",
      "Ġl ess",
      "Ġm ed",
      "it ies",
      "Ġb ig",
      "Ġw ait",
      "le d",
      "Ã© s",
      "Ġh on",
      "ot h",
      "Ġpl an",
      "Ġne ar",
      "Ġsh ow",
      "Ġen gl",
      "Ġle ast",
      "Ġus e",
      "Ġbe h",
      "Ġevery one",
      "Ġcanad a",
      "a ur",
      "i ers",
      "k s",
      "l ess",
      "w s",
      "Ġ 6",
      "Ġ es",
      "Ġl ow",
      "Ġr ight",
      "Ġpe u",
      "Ġcon v",
      "Ġk id",
      "Ġpr iv",
      "Ġcomp le",
      "Ġ3 0",
      "wh ere",
      "g et",
      "i ed",
      "i ans",
      "Ġ '",
      "Ġ 7",
      "Ġc or",
      "Ġl ear",
      "Ġm ent",
      "Ġm us",
      "Ġb est",
      "at ive",
      "Ġn ight",
      "Ġtr ou",
      "Ġ1 0",
      "Ġmo ve",
      "oug ht",
      "Ġad v",
      "Ġcou nt",
      "Ġreg ard",
      "Ġdon c",
      "Ġhel p",
      "Ġund erst",
      "Ġmond e",
      "a ut",
      "c oup",
      "u is",
      "y cl",
      "Ġ 9",
      "re d",
      "Ġt em",
      "Ġd el",
      "ar s",
      "al king",
      "Ġb re",
      "Ġg ro",
      "Ġn ice",
      "Ġre l",
      "ro l",
      "as on",
      "Ġst ation",
      "op e",
      "em ber",
      "Ġj us",
      "Ġgo vern",
      "Ġne igh",
      "ff ere",
      "ment s",
      "Ġwor ld",
      "Ġare a",
      "Ġim m",
      "Ġ20 1",
      "Ġgr and",
      "Ġdr iv",
      "Ġper m",
      "Ġpol ice",
      "Ġbeau coup",
      "Ġengl ish",
      "Ġneigh b",
      "k es",
      "v ote",
      "y s",
      "Ã ´",
      "Ġp et",
      "Ġp ort",
      "Ġc al",
      "Ġc our",
      "Ġc ap",
      "Ġm en",
      "Ġm one",
      "Ġd own",
      "Ġd ating",
      "Ġb ad",
      "Ġb ien",
      "at es",
      "Ġre p",
      "Ġv ers",
      "Ġst r",
      "Ġth ough",
      "Ġtr a",
      "Ġpl aces",
      "ce pt",
      "Ġex per",
      "Ġex pect",
      "Ġle vel",
      "Ġop en",
      "Ġav oir",
      "Ġdi ffere",
      "Ġprob ably",
      "Ġwom en",
      "Ġel se",
      "Ġlear n",
      "Ġmone y",
      "g an",
      "l Ã¨",
      "Ġ 8",
      "Ġs l",
      "Ġs ort",
      "Ġt y",
      "Ġl ig",
      "Ġm Ã©t",
      "Ġd id",
      "Ġb i",
      "Ġb it",
      "Ã© c",
      "Ã© n",
      "Ã© es",
      "Ġre v",
      "Ġv o",
      "id ent",
      "Ġqu est",
      "Ġpe ut",
      "Ġdo es",
      "ist es",
      "Ġde v",
      "Ġta x",
      "tt y",
      "ien ce",
      "Ġpre tty",
      "Ġ20 2",
      "Ġag o",
      "Ġunderst and",
      "Ġgovern ment",
      "Ġlig ne",
      "d ay",
      "r act",
      "Ġs ide",
      "Ġc all",
      "en c",
      "Ġt ous",
      "Ġl ine",
      "Ġl ang",
      "Ġm ight",
      "Ġf or",
      "ar ge",
      "Ġn orm",
      "ot s",
      "Ġre t",
      "Ġv ie",
      "Ġch ild",
      "ul ar",
      "Ġan other",
      "Ġpr ice",
      "Ġus ed",
      "Ġcl ass",
      "Ġspe ak",
      "Ġtrans port",
      "Ġfri ends",
      "Ġgre at",
      "Ġserv ice",
      "ĠÂ £",
      "Ġproper ty",
      "Ġsy st",
      "Ġfol low",
      "a h",
      "j ect",
      "p h",
      "y e",
      "Ġ ou",
      "Ġ ed",
      "Ġ ont",
      "Ġa ff",
      "Ġa way",
      "Ġd ate",
      "Ġb ed",
      "Ġw orth",
      "Ġg iv",
      "Ġe ff",
      "as se",
      "Ġqu art",
      "Ġpar k",
      "ation al",
      "Ġse en",
      "ere st",
      "Ġen ough",
      "Ġcont in",
      "Ġche ck",
      "Ġint erest",
      "Ġrest aur",
      "Ġont ar",
      "a id",
      "g er",
      "k et",
      "l ord",
      "o int",
      "r Ã¨s",
      "Ã §",
      "Ġ $",
      "Ġs ol",
      "Ġs em",
      "Ġs ans",
      "Ġc re",
      "er ally",
      "Ġt ou",
      "Ġt op",
      "Ġl ou",
      "Ġm id",
      "Ġm ill",
      "Ġm ess",
      "ar m",
      "Ġn um",
      "Ġh ard",
      "un e",
      "Ġlo ve",
      "Ġde f",
      "Ġan n",
      "Ġta king",
      "Ġtim es",
      "Ġme et",
      "com m",
      "Ġbl ack",
      "Ġche ap",
      "anc es",
      "Ġchang e",
      "Ġmonth s",
      "Ġvis it",
      "Ġwith out",
      "Ġsec ond",
      "Ġke ep",
      "Ġhon est",
      "Ġjus te",
      "Ġdiffere nt",
      "ĠmÃ©t ro",
      "a im",
      "a ir",
      "n o",
      "t le",
      "u g",
      "v ing",
      "Ġp ri",
      "Ġc le",
      "Ġa w",
      "Ġt t",
      "Ġm ain",
      "ar r",
      "Ġh ear",
      "Ġh ope",
      "ro p",
      "Ġv a",
      "Ġv al",
      "Ġr un",
      "ers e",
      "Ġqu al",
      "end ing",
      "Ġcon f",
      "Ġde ux",
      "Ġan s",
      "au g",
      "ci ally",
      "ard s",
      "are nt",
      "Ġfr ance",
      "Ġdis c",
      "Ġinter n",
      "Ġseem s",
      "Ġland lord",
      "Ġconst ru",
      "Ġdem and",
      "c le",
      "f orm",
      "g r",
      "i x",
      "i ent",
      "l ine",
      "re r",
      "Ġs er",
      "Ġs et",
      "Ġc et",
      "Ġc ycl",
      "en e",
      "Ġt en",
      "Ġm ade",
      "it her",
      "is ed",
      "Ġf ac",
      "Ġb ro",
      "Ġh om",
      "Ġre ason",
      "Ġre comm",
      "im ent",
      "Ġal read",
      "Ġy es",
      "Ġsu per",
      "nd re",
      "Ġsh ort",
      "au x",
      "Ġmo ins",
      "Ã©t ait",
      "Ġaut om",
      "Ġfa ut",
      "Ãª t",
      "Ġcons id",
      "Ġconc ern",
      "Ġpriv ate",
      "Ã´ t",
      "Ġontar io",
      "Ġalread y",
      "g al",
      "h ood",
      "j oy",
      "t ed",
      "in es",
      "Ġc e",
      "er ing",
      "Ġm al",
      "Ġf em",
      "Ġf ound",
      "Ġf ood",
      "al th",
      "Ġb an",
      "Ġw in",
      "Ġg ive",
      "et y",
      "Ġre d",
      "Ġre r",
      "Ġe ither",
      "il s",
      "Ġr ue",
      "Ġj am",
      "Ġj our",
      "Ġch o",
      "Ġqu e",
      "ul l",
      "ate ly",
      "pe cially",
      "Ġen joy",
      "Ġcomp an",
      "Ġgr oup",
      "Ġfre e",
      "Ġinc l",
      "Ġro ad",
      "Ġad d",
      "Ġph one",
      "be c",
      "Ġliv ing",
      "Ġmay be",
      "Ġincre as",
      "Ġloc al",
      "Ġcur rent",
      "Ġes pecially",
      "Ġtra ffic",
      "Ġlang u",
      "Ġnorm al",
      "Ġtt c",
      "e ad",
      "i Ã¨re",
      "m ost",
      "n es",
      "o ot",
      "p r",
      "u ff",
      "Ġ &",
      "Ġp res",
      "Ġc op",
      "Ġc ult",
      "er y",
      "Ġa b",
      "Ġt old",
      "Ġt urn",
      "Ġl uck",
      "Ġd ist",
      "it ion",
      "Ġf ar",
      "Ġf ont",
      "Ġf uck",
      "ar ch",
      "or k",
      "Ġh ist",
      "Ġv Ã©",
      "Ġst ay",
      "Ġcom e",
      "Ġcom ment",
      "Ġal most",
      "Ġli fe",
      "Ġen f",
      "are d",
      "Ġbu d",
      "Ġim ag",
      "Ġmont rÃ©",
      "Ġme an",
      "ru ct",
      "Ġdire ct",
      "Ġsupp ort",
      "Ġtick ets",
      "Ġpop ul",
      "oth ers",
      "Ġexper ience",
      "Ġhonest ly",
      "5 0",
      "a king",
      "h ip",
      "p ar",
      "Ġ ord",
      "Ġ own",
      "Ġs ound",
      "Ġp an",
      "Ġa bs",
      "Ġt ell",
      "Ġd ou",
      "Ġf ine",
      "Ġf ore",
      "al s",
      "Ġb ill",
      "at s",
      "Ġw r",
      "Ġg ard",
      "Ġv ille",
      "el s",
      "Ġr am",
      "im e",
      "ol og",
      "un d",
      "Ġj ob",
      "ir t",
      "Ġpar king",
      "Ġpro f",
      "Ġpro du",
      "Ġne xt",
      "ain e",
      "Ġpo ssible",
      "Ġma king",
      "ell es",
      "aire s",
      "Ġres p",
      "Ġph ot",
      "Ġlot s",
      "Ġso cial",
      "Ġent re",
      "Ġap art",
      "Ġap rÃ¨s",
      "Ġbuild ing",
      "Ġple ase",
      "Ġclo se",
      "Ġcomple te",
      "Ġtem ps",
      "Ġsyst em",
      "Ġincl ud",
      "b l",
      "i qu",
      "Ġ on",
      "in ess",
      "Ġs ais",
      "Ġp at",
      "Ġc am",
      "Ġa ble",
      "Ġa ction",
      "Ġl arge",
      "it al",
      "Ġf ace",
      "Ġf act",
      "ar g",
      "at ch",
      "ic le",
      "et er",
      "Ġv oir",
      "Ġv ois",
      "Ġv ra",
      "Ġst uff",
      "un ch",
      "ant e",
      "Ġj o",
      "Ġpe ux",
      "Ġex t",
      "od y",
      "Ġsh it",
      "Ġpr ices",
      "Ġus ually",
      "Ġmo ving",
      "Ġwe bs",
      "Ġcont act",
      "Ġman ag",
      "Ġfr an",
      "Ġres id",
      "Ġaut re",
      "Ġrem ember",
      "Ġdi ffic",
      "Ġprob lÃ¨",
      "Ġprov ince",
      "Ġarr iv",
      "Ġstud ents",
      "Ġkid s",
      "Ġlou d",
      "Ġlangu age",
      "ĠmontrÃ© al",
      "b re",
      "c a",
      "f r",
      "f ic",
      "i ens",
      "j ours",
      "n ing",
      "n ess",
      "o c",
      "p os",
      "v ot",
      "Ġ est",
      "re n",
      "Ġs us",
      "Ġs av",
      "Ġs ays",
      "Ġp ict",
      "Ġt re",
      "Ġd ays",
      "Ġb ag",
      "ent ion",
      "Ġh ot",
      "Ġe ar",
      "us e",
      "Ġv iv",
      "Ġst ore",
      "Ġr ais",
      "Ġr ien",
      "ut ion",
      "av i",
      "Ġdo g",
      "Ġsu gg",
      "ist e",
      "Ġex act",
      "Ġam ount",
      "ais s",
      "Ġen c",
      "ang e",
      "ab it",
      "Ġhe ad",
      "Ġhe alth",
      "Ġany one",
      "Ġperson ne",
      "if ic",
      "Ġbus iness",
      "Ġmar ket",
      "Ġgu y",
      "Ġ4 0",
      "Ġlit erally",
      "Ġgen re",
      "Ġrat her",
      "Ġsit u",
      "Ġinv est",
      "Ġcount ry",
      "red dit",
      "Ġbi ke",
      "Ġquest ion",
      "Ġquart ier",
      "Ġtou jours",
      "Ġmess age",
      "Ġintern ational",
      "Ġconstru ction",
      "ĠvÃ© lo",
      "Ġpopul ation",
      "Ġabs ol",
      "Ġvra iment",
      "a ff",
      "b r",
      "f ort",
      "j or",
      "n g",
      "p ing",
      "Ã »",
      "Ġ id",
      "Ġ others",
      "Ġs al",
      "Ġp ot",
      "Ġp our",
      "Ġc iv",
      "Ġa nt",
      "Ġm er",
      "Ġm om",
      "Ġm ust",
      "Ġd ro",
      "Ġd one",
      "Ġf ord",
      "Ġf uc",
      "Ġb ou",
      "Ġb el",
      "at t",
      "Ġh ig",
      "ic s",
      "as h",
      "us ed",
      "ac y",
      "ch es",
      "ir l",
      "Ġal ors",
      "Ġal low",
      "Ġy et",
      "Ġget s",
      "Ġo cc",
      "Ġo ffic",
      "Ġo ft",
      "Ġk ind",
      "Ġ1 3",
      "Ġ1 00",
      "Ġle ad",
      "Ġcomp l",
      "Ġapp oint",
      "Ġcont rol",
      "Ġme c",
      "ĠdÃ© j",
      "Ġneed s",
      "Ġmet ro",
      "Ġspe ci",
      "Ġav ant",
      "Ġweek s",
      "Ġfri end",
      "Ġcent r",
      "Ġliv ed",
      "Ġlit tle",
      "Ġincre ase",
      "Ġhappen ed",
      "Ġter m",
      "Ġout s",
      "Ġiss ue",
      "Ġcal led",
      "Ġty pe",
      "Ġrestaur ants",
      "Ġwebs ite",
      "Ġsugg est",
      "Ġfuc king",
      "Ġhig her",
      "Ġoft en",
      "3 0",
      "4 8",
      "8 0",
      "c ess",
      "c ri",
      "g y",
      "i ally",
      "k en",
      "l Ã©",
      "o ssible",
      "t s",
      "Ġ ide",
      "Ġs out",
      "Ġp ur",
      "Ġp aid",
      "Ġc ame",
      "er ic",
      "Ġt alk",
      "Ġl Ãł",
      "Ġm il",
      "Ġf ort",
      "Ġf lo",
      "Ġf orm",
      "Ġw alking",
      "Ġg irl",
      "Ġn orth",
      "ot t",
      "Ġre ad",
      "Ġre nd",
      "Ġe lect",
      "qu Ã©",
      "Ġv u",
      "Ġst and",
      "ow e",
      "Ġnot hing",
      "ut es",
      "ag n",
      "Ġal one",
      "Ġal ler",
      "Ġpro ject",
      "Ġcon ne",
      "out e",
      "Ġam eric",
      "Ġ1 2",
      "Ġ1 7",
      "ens ive",
      "Ġun less",
      "Ġus ing",
      "Ġma jor",
      "Ġare as",
      "Ġapp s",
      "Ġcl aim",
      "Ġevery thing",
      "Ġres pect",
      "Ġwh ite",
      "Ġwh ole",
      "Ġcou nc",
      "Ġcar s",
      "Ġgu ess",
      "Ġsub reddit",
      "Ġsay ing",
      "Ġte ch",
      "Ġfun d",
      "Ġrec ent",
      "Ġeas y",
      "Ġcommun ity",
      "Ġla w",
      "Ġor ig",
      "Ġiss ues",
      "Ġmed ia",
      "Ġbeh avi",
      "Ġmus ic",
      "Ġdel iver",
      "Ġneighb our",
      "Ġnum ber",
      "Ġrecomm end",
      "Ġjam ais",
      "Ġciv il",
      "Ġouts ide",
      "c on",
      "e e",
      "e ur",
      "i k",
      "j et",
      "p ed",
      "r ic",
      "v es",
      "Ã ¹",
      "Ġ 0",
      "in al",
      "re t",
      "re ci",
      "Ġs ou",
      "Ġs ens",
      "Ġp ack",
      "er m",
      "Ġa ir",
      "Ġt alking",
      "es p",
      "an e",
      "Ġm on",
      "Ġm em",
      "Ġm ind",
      "is m",
      "Ġf ire",
      "Ġf all",
      "Ġf ois",
      "Ġf ull",
      "at ors",
      "at ically",
      "Ġw ater",
      "Ġh al",
      "Ġh and",
      "il ar",
      "ro w",
      "Ġv er",
      "el f",
      "op h",
      "Ġr id",
      "Ġr and",
      "im es",
      "im it",
      "ur al",
      "Ġtr uc",
      "Ġch a",
      "Ġpl ay",
      "ir d",
      "Ġal l",
      "Ġpar ce",
      "Ġgo es",
      "Ġse x",
      "Ġdo ct",
      "ain s",
      "Ġex ist",
      "ie ux",
      "Ġde al",
      "Ġam az",
      "Ġo Ã¹",
      "Ġ1 5",
      "Ġen v",
      "Ġle ft",
      "ement s",
      "Ġapp reci",
      "ai ent",
      "Ġco v",
      "Ġsp end",
      "Ġfr ont",
      "Ġwant s",
      "Ġlong er",
      "elle ment",
      "Ġstreet s",
      "Ġ5 0",
      "Ġpay ing",
      "Ġacc ess",
      "Ġtry ing",
      "Ġem p",
      "Ġve gan",
      "Ġexp ensive",
      "Ġsm all",
      "Ġoff er",
      "Ġup vote",
      "Ġdep uis",
      "Ġimp ossible",
      "Ġtick et",
      "Ġu k",
      "Ġclo s",
      "Ġlow er",
      "Ġtrou ver",
      "Ġbre ak",
      "Ġdriv ing",
      "Ġdown vote",
      "Ġed it",
      "Ġimag ine",
      "ĠproblÃ¨ me",
      "vot ing",
      "Ġpict ures",
      "Ġsitu ation",
      "Ġappoint ment",
      "Ġsout h",
      "Ġrand om",
      "c es",
      "f er",
      "m er",
      "m es",
      "n ent",
      "o f",
      "p m",
      "v ious",
      "Ġ er",
      "in ite",
      "Ġs k",
      "Ġs ing",
      "Ġp i",
      "Ġp ed",
      "Ġp and",
      "Ġp ath",
      "er al",
      "Ġl ist",
      "Ġl ight",
      "Ġl ater",
      "Ġm is",
      "Ġm od",
      "Ġm iss",
      "Ġm aint",
      "Ġd ow",
      "Ġf ut",
      "Ġb ar",
      "Ġw as",
      "le v",
      "Ġg ar",
      "Ġn o",
      "il ity",
      "ro ss",
      "Ġv ill",
      "Ġst at",
      "Ġr is",
      "Ġr ac",
      "iv ers",
      "Ġch ose",
      "Ġcom es",
      "am ple",
      "Ġse ule",
      "nd s",
      "Ġen g",
      "ast ruct",
      "Ġpre ndre",
      "Ġco ol",
      "Ġsa fe",
      "Ġpart ic",
      "Ġperson al",
      "th e",
      "Ġcou ple",
      "Ġend ro",
      "ĠrÃ© g",
      "Ġpol it",
      "Ġent ire",
      "Ġinf r",
      "Ġtrans it",
      "Ãª te",
      "og le",
      "dit ion",
      "Ġcent re",
      "Ġpass er",
      "Ġserv ices",
      "Ġbas ed",
      "Ġbuild ings",
      "Ġfl at",
      "Ġart icle",
      "Ġsim ple",
      "Ġsim ilar",
      "Ġwith in",
      "Ġcro ss",
      "Ġac ross",
      "Ġinv ol",
      "Ġadv ice",
      "Ġdriv ers",
      "Ġport e",
      "Ġaff ord",
      "Ġgiv en",
      "Ġeff ort",
      "Ġinterest ing",
      "Ġpri x",
      "Ġcle ar",
      "erse ction",
      "Ġqual ity",
      "Ġcet te",
      "Ġcompan y",
      "Ġon line",
      "Ġresid ents",
      "Ġabsol ute",
      "ĠdÃ©j Ãł",
      "Ġcentr al",
      "owe ver",
      "Ġappreci ate",
      "Ġdow nt",
      "b o",
      "b ers",
      "b ut",
      "c o",
      "g u",
      "h e",
      "i pp",
      "m in",
      "o i",
      "p a",
      "y ou",
      "Ġ ur",
      "Ġ ones",
      "re ct",
      "Ġs ite",
      "Ġs ense",
      "Ġs ouv",
      "Ġp al",
      "Ġp ast",
      "Ġp ress",
      "Ġp asse",
      "Ġp arent",
      "Ġa ch",
      "Ġt end",
      "Ġm ass",
      "Ġd it",
      "at ure",
      "at her",
      "Ġw ast",
      "Ġg l",
      "Ġg lo",
      "Ġg Ã©n",
      "Ã© g",
      "Ġh or",
      "Ġh old",
      "et t",
      "Ġre port",
      "il t",
      "ro om",
      "Ġv ar",
      "id ed",
      "id ge",
      "iv al",
      "ig r",
      "em ic",
      "est ri",
      "ut il",
      "Ġqu ite",
      "Ġqu ick",
      "am es",
      "Ġy e",
      "end ant",
      "Ġex tre",
      "Ġex ample",
      "ess ion",
      "ie urs",
      "Ã¨ me",
      "Ġo b",
      "Ġo ver",
      "ter n",
      "Ġle ave",
      "Ġmo b",
      "ap h",
      "Ġim ages",
      "Ġapp ro",
      "Ġme ans",
      "aire ment",
      "ĠdÃ© c",
      "Ġdr ug",
      "Ġhe av",
      "Ġwork ed",
      "Ġro om",
      "Ġspe aking",
      "Ġfe ed",
      "Ġto ok",
      "Ġrem ind",
      "Ġso on",
      "Ġreg ular",
      "ust om",
      "Ġinf o",
      "Ġinf orm",
      "Ġstart ed",
      "Ġfin ally",
      "Ġinst all",
      "vel op",
      "Ġbas ically",
      "Ġtrav el",
      "Ġsur pr",
      "pl ac",
      "Ġor gan",
      "Ġopt ion",
      "Ġopt ions",
      "Ġwait ing",
      "Ġment ion",
      "Ġtrou ve",
      "Ġgro s",
      "Ġcour se",
      "Ġhom es",
      "Ġbud get",
      "Ġear ly",
      "Ġdeliver y",
      "astruct ure",
      "Ġdownt own",
      "d o",
      "d le",
      "e x",
      "i ques",
      "l ie",
      "m ar",
      "n el",
      "o ke",
      "o ck",
      "r ight",
      "t out",
      "u ro",
      "u me",
      "Ġ ens",
      "Ġ Ã©t",
      "Ġs at",
      "Ġs ell",
      "Ġs old",
      "Ġs aint",
      "Ġp ire",
      "Ġp ick",
      "Ġc ase",
      "Ġc ities",
      "Ġc Ã´t",
      "Ġc ustom",
      "on ne",
      "Ġa uc",
      "Ġt ot",
      "Ġt rop",
      "Ġm ult",
      "Ġd en",
      "it ch",
      "is er",
      "Ġf le",
      "Ġf ed",
      "Ġf ast",
      "ar k",
      "al ement",
      "Ġb ur",
      "Ġb out",
      "Ġb ab",
      "at iv",
      "Ġw est",
      "Ġw ind",
      "le t",
      "le ction",
      "Ġg are",
      "Ġn ois",
      "Ã© d",
      "Ġh ell",
      "Ġh um",
      "Ġh owever",
      "ic i",
      "Ġre qu",
      "il i",
      "Ġv ont",
      "Ġst up",
      "Ġr ame",
      "Ġr iver",
      "Ġth ree",
      "Ġth ought",
      "ch er",
      "Ġch er",
      "Ġch at",
      "Ġpl ut",
      "ver t",
      "Ġpro p",
      "Ġsu bs",
      "Ġ2 5",
      "ri es",
      "Ġo k",
      "Ġlike ly",
      "Ġpo s",
      "Ġpo or",
      "Ġta kes",
      "Ġmo is",
      "ang er",
      "Ġbu ilt",
      "Ġplus ieurs",
      "Ġapp li",
      "Ġcl in",
      "Ġpre m",
      "Ġcont re",
      "Ġcont ract",
      "Ġparis ien",
      "Ġsa f",
      "Ġpart ner",
      "Ġsp ace",
      "Ġdr ive",
      "Ġyou ng",
      "Ġwork s",
      "Ġspe cial",
      "Ġav o",
      "Ġso ci",
      "Ġsc re",
      "Ġgu ys",
      "Ġgre en",
      "Ġold er",
      "Ġve h",
      "Ġinst ead",
      "Ġtrav ail",
      "Ġatt ract",
      "Ġmin utes",
      "Ġoff ice",
      "Ġeas ier",
      "Ġcol lect",
      "Ġsur tout",
      "Ġquel qu",
      "Ġquel ques",
      "ib ly",
      "Ġcertain s",
      "Ġblo ck",
      "Ġcost s",
      "Ġvi ol",
      "Ġje w",
      "Ġmat ch",
      "Ġbeh ind",
      "Ġment al",
      "Ġpet it",
      "Ġ202 3",
      "Ġcontin ue",
      "Ġmid dle",
      "Ġdef inite",
      "Ġcheap er",
      "Ġlandlord s",
      "Ġconcern s",
      "Ġfem me",
      "Ġque bec",
      "Ġincreas ed",
      "Ġcult ure",
      "Ġfore ign",
      "Ġprodu ct",
      "Ġcomplete ly",
      "Ġviv re",
      "Ġenc ore",
      "Ġhal f",
      "Ġemp lo",
      "Ġped estri",
      "Ġpand emic",
      "Ġfut ure",
      "Ġinfr astructure",
      "Ġinvol ved",
      "Ġabsolute ly",
      "Ġsouv ent",
      "Ġextre me",
      "Ġdefinite ly",
      "9 9",
      "a f",
      "e c",
      "h ow",
      "j our",
      "l l",
      "l and",
      "m ing",
      "m mer",
      "n y",
      "o ci",
      "p ly",
      "p ers",
      "r ait",
      "u it",
      "u ment",
      "w e",
      "w er",
      "y cle",
      "Ġ %",
      "in king",
      "Ġs or",
      "Ġs ous",
      "Ġs oir",
      "Ġp s",
      "Ġp ouv",
      "Ġc it",
      "Ġc el",
      "Ġc ut",
      "Ġc ard",
      "on n",
      "en ue",
      "Ġa f",
      "Ġa h",
      "Ġl aug",
      "Ġl imit",
      "Ġd ess",
      "it t",
      "it ure",
      "Ġf it",
      "Ġf ais",
      "Ġf oot",
      "Ġb ond",
      "Ġw ond",
      "Ġw atch",
      "or c",
      "Ġg ang",
      "Ġn et",
      "Ġn om",
      "Ã© p",
      "Ġh u",
      "Ġh ours",
      "Ġh abit",
      "Ġre ce",
      "Ġe g",
      "Ġe qu",
      "Ġe ye",
      "us ement",
      "qu ent",
      "Ġv end",
      "el ess",
      "Ġst ory",
      "Ġr u",
      "Ġr ul",
      "Ġth an",
      "ur ance",
      "ag ne",
      "Ġj ud",
      "Ġch ar",
      "Ġch au",
      "Ġcom ing",
      "Ġqu ai",
      "ver age",
      "se z",
      "Ġse ver",
      "av ais",
      "ain es",
      "Ġsu mmer",
      "Ġex cept",
      "Ġlo g",
      "ie ve",
      "Ġde velop",
      "ri ble",
      "Ġ1 8",
      "Ġun ivers",
      "Ġpr ote",
      "Ġwor se",
      "Ġcomp re",
      "Ġma kes",
      "Ġmo y",
      "Ġmo ved",
      "ab les",
      "Ġwe ird",
      "Ġpre t",
      "ub er",
      "Ġme at",
      "ĠdÃ© t",
      "Ġevery where",
      "ction s",
      "Ġper form",
      "Ġas king",
      "Ġas sez",
      "Ġany way",
      "Ġmet tre",
      "Ġaut res",
      "Ġint ersection",
      "Ãª tre",
      "Ġhapp ens",
      "Ġsub way",
      "Ġbo x",
      "ail able",
      "Ġhous es",
      "Ġtour ists",
      "Ġprov in",
      "Ġbon ne",
      "ob il",
      "Ġsim ply",
      "Ġrat es",
      "iz e",
      "Ġwom an",
      "Ġpost ed",
      "Ġask ed",
      "Ġac cept",
      "Ġblo c",
      "Ġsw e",
      "Ġregard e",
      "Ġquest ions",
      "enc es",
      "Ġchild ren",
      "Ġou i",
      "Ġeff ect",
      "Ġsol ution",
      "Ġpri or",
      "Ġaw are",
      "Ġser ious",
      "Ġautom atically",
      "Ġce ux",
      "Ġdist ance",
      "Ġhist or",
      "Ġord er",
      "Ġsound s",
      "Ġdou ble",
      "Ġphot o",
      "Ġdiffic ile",
      "Ġmom ent",
      "Ġameric an",
      "con om",
      "Ġcov id",
      "Ġsing le",
      "Ġpi Ã©t",
      "Ġwast e",
      "ĠgÃ©n Ã©r",
      "ĠcÃ´t Ã©",
      "Ġplut Ã´t",
      "Ġavo id",
      "1 0",
      "1 3",
      "1 6",
      "2 8",
      "a ws",
      "b y",
      "c ou",
      "c ome",
      "e z",
      "f ia",
      "f ect",
      "h a",
      "i el",
      "i ke",
      "i ps",
      "i ple",
      "m a",
      "m ore",
      "n ed",
      "n ce",
      "o ver",
      "r or",
      "s h",
      "t ies",
      "t ime",
      "v ent",
      "y l",
      "y ing",
      "y le",
      "Ġ #",
      "in st",
      "Ġs in",
      "Ġs ent",
      "Ġs au",
      "Ġs Ã»",
      "Ġp un",
      "Ġp ap",
      "Ġp iss",
      "Ġp ense",
      "Ġc ir",
      "Ġc art",
      "Ġc old",
      "Ġc ours",
      "Ġc fia",
      "er o",
      "Ġt ar",
      "Ġt ow",
      "Ġt ellement",
      "Ġl at",
      "Ġl ines",
      "Ġl aiss",
      "Ġd ue",
      "is Ã©",
      "Ġf av",
      "Ġf res",
      "Ġf ix",
      "Ġb ot",
      "Ġb ut",
      "Ġb ene",
      "at re",
      "at ory",
      "Ġg as",
      "Ġn ord",
      "Ġn ame",
      "ent y",
      "ent ially",
      "Ġh it",
      "Ġh our",
      "Ġh all",
      "et her",
      "Ġe ast",
      "as ion",
      "Ġv en",
      "Ġv ot",
      "Ġv ac",
      "Ġv ict",
      "Ġst ol",
      "ig ation",
      "ol l",
      "em ple",
      "st r",
      "Ġis ra",
      "est in",
      "ur y",
      "Ġtr ack",
      "Ġtr ied",
      "ag r",
      "Ġch ance",
      "Ġqu Ã©",
      "Ġpe ace",
      "Ġy ork",
      "Ġgo ogle",
      "Ġcon n",
      "od d",
      "Ġ2 4",
      "ri Ã¨re",
      "Ġsh irt",
      "Ġan im",
      "ens ion",
      "Ġun fort",
      "Ġpo ss",
      "Ġpr is",
      "Ġpr om",
      "Ġwor king",
      "Ġcomp agn",
      "ure r",
      "Ġmo st",
      "Ġim age",
      "Ġev ent",
      "Ġev ents",
      "Ġ20 00",
      "um p",
      "ĠdÃ© f",
      "Ġco ff",
      "Ġgr ou",
      "Ġpart ie",
      "Ġpart out",
      "Ġop in",
      "Ġdr ink",
      "Ġper fect",
      "ud e",
      "Ġfr anc",
      "Ġro b",
      "Ġsi x",
      "Ġany more",
      "ille urs",
      "Ġav ailable",
      "Ġcomm it",
      "Ġbr ought",
      "li ke",
      "Ġend ed",
      "ĠrÃ© c",
      "ĠrÃ© s",
      "Ġag ree",
      "Ġbus y",
      "Ġrem o",
      "Ġpol ic",
      "Ġmar ch",
      "Ġinf l",
      "Ġfind ing",
      "Ġhapp y",
      "itÃ© s",
      "Ġsomet imes",
      "Ġbo ok",
      "Ġfin an",
      "Ġve ux",
      "ĠÃ© gal",
      "ress ion",
      "Ġlook s",
      "Ġbuy ing",
      "ĠÂ «",
      "ĠÂ »",
      "ful ly",
      "Ġass oci",
      "Ġins ide",
      "Ġrec ord",
      "Ġund er",
      "Ġrat p",
      "iz ed",
      "Ġdep ending",
      "Ġproblem s",
      "Ġsy m",
      "Ġz one",
      "Ġconv ers",
      "Ġcor rect",
      "Ġgro c",
      "Ġlevel s",
      "Ġlearn ed",
      "Ġty p",
      "Ġrestaur ant",
      "Ġmill ion",
      "Ġdemand e",
      "gr am",
      "Ġfac il",
      "Ġreason able",
      "Ġconsid er",
      "Ġban lie",
      "Ġcurrent ly",
      "iÃ¨re ment",
      "Ġdirect ly",
      "Ġram q",
      "Ġresp ons",
      "Ġapart ment",
      "iqu ement",
      "Ġext ra",
      "Ġsus p",
      "Ġspeci fic",
      "Ġelect ric",
      "Ġtech n",
      "Ġorig inal",
      "Ġneighbour hood",
      "Ġcha que",
      "Ġdoct or",
      "Ġmaint en",
      "ĠrÃ©g ul",
      "Ġach eter",
      "Ġye ah",
      "Ġmention ed",
      "Ġstup id",
      "Ġjew ish",
      "Ġextreme ly",
      "Ġsor ry",
      "Ġsever al",
      "Ġstol en",
      "Ġunfort un",
      "ĠÃ©gal ement",
      "2 3",
      "2 4",
      "b an",
      "b res",
      "d e",
      "d f",
      "f ri",
      "g s",
      "g es",
      "i et",
      "i ff",
      "i ents",
      "j ust",
      "k ed",
      "o ire",
      "p or",
      "t a",
      "t te",
      "u il",
      "v ie",
      "w ork",
      "y m",
      "â Ĥ",
      "Ġ ess",
      "Ġ ign",
      "Ġ util",
      "in x",
      "in ed",
      "Ġs qu",
      "Ġs Ã©c",
      "Ġp ens",
      "Ġp endant",
      "er ators",
      "Ġt ok",
      "Ġl ic",
      "an es",
      "Ġm ix",
      "Ġm ieux",
      "Ġd ai",
      "Ġd ates",
      "ing e",
      "it ter",
      "Ġf il",
      "Ġf our",
      "Ġf ight",
      "Ġf urn",
      "al le",
      "Ġb es",
      "Ġb or",
      "at or",
      "Ġw ar",
      "Ġw al",
      "or g",
      "ed i",
      "Ġg ars",
      "Ġn ive",
      "ent e",
      "Ã© rer",
      "Ġh o",
      "Ġh ur",
      "Ġh ang",
      "ic les",
      "Ġre ach",
      "Ġe ating",
      "Ġe conom",
      "il ing",
      "Ġv r",
      "Ġv as",
      "el t",
      "Ġst age",
      "Ġst ations",
      "Ġst aff",
      "Ġr om",
      "Ġr ad",
      "Ġr ap",
      "Ġr app",
      "im ate",
      "im um",
      "Ġth re",
      "Ġth read",
      "ur bs",
      "ant age",
      "ad es",
      "Ġch arg",
      "Ġpl at",
      "ir on",
      "Ġpar l",
      "Ġpro gram",
      "Ġne cess",
      "av ing",
      "av oir",
      "Ġdo it",
      "Ġdo or",
      "Ġcon se",
      "Ġcon du",
      "ist ic",
      "Ġex c",
      "Ġex emple",
      "Ġlo in",
      "Ġlo ad",
      "ear ing",
      "Ã¨ res",
      "Ġsh ould",
      "Ġ1 1",
      "Ġ1 4",
      "Ġpr Ã©",
      "Ġle g",
      "Ġwor st",
      "Ġma ps",
      "Ġim port",
      "Ġev ict",
      "Ġapp art",
      "Ġapp arent",
      "ass er",
      "Ġbe g",
      "Ġ20 20",
      "able ment",
      "ĠdÃ© p",
      "Ġ3 5",
      "Ġgr ound",
      "Ġhe at",
      "Ġhe ure",
      "00 0",
      "Ġro ll",
      "Ġad dition",
      "Ġperson nes",
      "ille d",
      "Ġwh ether",
      "Ġfe u",
      "Ġbr idge",
      "Ġact ual",
      "Ġto get",
      "Ġwant ed",
      "Ġrent al",
      "Ġfa ir",
      "Ġfa Ã§",
      "Ġsub urbs",
      "Ġfri es",
      "Ġcanad ian",
      "Ġchang ed",
      "rÃ© s",
      "Ġass ume",
      "Ġatt ention",
      "Ġfun ny",
      "Ġhel ps",
      "az y",
      "Ġdes ign",
      "Ġdes cri",
      "Ġeas ily",
      "Ġstop ped",
      "Ġimp ro",
      "Ġimp act",
      "Ġschool s",
      "Ġz ero",
      "Ġcas es",
      "Ġfeel s",
      "Ġcertain es",
      "Ġu ps",
      "Ġshop pers",
      "Ġplan ning",
      "Ġ6 0",
      "Ġconv en",
      "Ġcount ries",
      "rol inx",
      "Ġimm igr",
      "Ġimm edi",
      "Ġcour t",
      "Ġelse where",
      "Ġsl ight",
      "Ġfor c",
      "Ġclass es",
      "Ġfollow ing",
      "Ġfollow ed",
      "Ġgiv es",
      "Ġquart iers",
      "Ġcontin u",
      "Ã§ ais",
      "air s",
      "no v",
      "Ġhear d",
      "aug ht",
      "gr ound",
      "Ġten ant",
      "Ġten ants",
      "Ġconsid ered",
      "Ġwin ter",
      "Ġred uc",
      "Ġcompan ies",
      "Ġturn ed",
      "Ġhist ory",
      "Ġenf ants",
      "Ġwr ong",
      "Ġprof it",
      "Ġinclud ing",
      "Ġfran Ã§ais",
      "Ġexact ly",
      "Ġid i",
      "Ġmer ci",
      "Ġide a",
      "Ġconne ct",
      "Ġrespect ful",
      "Ġcounc il",
      "Ġfund ing",
      "Ġcivil ians",
      "Ġexist ing",
      "vious ly",
      "Ġno v",
      "Ġparent s",
      "Ġmob ile",
      "Ġappro ach",
      "Ġremind er",
      "Ġinform ation",
      "Ġauc une",
      "Ġmult iple",
      "Ġsaf ety",
      "Ġlaug h",
      "Ġhu ge",
      "Ġrul es",
      "Ġchau ff",
      "Ġsin on",
      "Ġfres h",
      "Ġbene f",
      "ĠquÃ© bec",
      "Ġmost ly",
      "fri end",
      "âĤ ¬",
      "Ġdai ly",
      "Ġnive au",
      "Ġapparent ly",
      "Ġtoget her",
      "ĠfaÃ§ on",
      "5 9",
      "8 6",
      "9 2",
      "b ing",
      "b all",
      "d h",
      "d on",
      "d er",
      "f ically",
      "g o",
      "g ers",
      "h ib",
      "h abit",
      "j i",
      "l ing",
      "m art",
      "o o",
      "p li",
      "p ose",
      "r ais",
      "t on",
      "u u",
      "u el",
      "u ite",
      "w ard",
      "w alk",
      "w ise",
      "w ich",
      "y al",
      "Ġ @",
      "Ġ ill",
      "Ġ other",
      "Ġ odd",
      "in er",
      "Ġs now",
      "Ġs elf",
      "Ġp ie",
      "Ġp ets",
      "on ction",
      "on str",
      "er b",
      "er gy",
      "Ġt Ã©",
      "Ġt od",
      "Ġt ub",
      "Ġt ip",
      "Ġl or",
      "Ġl ate",
      "Ġl ack",
      "Ġl ink",
      "an che",
      "Ġm c",
      "Ġm ot",
      "Ġm ag",
      "Ġm ais",
      "Ġd er",
      "is se",
      "Ġf ant",
      "Ġf onction",
      "Ġb al",
      "Ġb at",
      "Ġb ord",
      "Ġb ille",
      "Ġb ought",
      "at a",
      "Ġw ide",
      "le y",
      "le ep",
      "or ity",
      "Ġg one",
      "Ġg au",
      "Ġg ame",
      "Ġn ob",
      "Ã© ro",
      "Ġh a",
      "Ġh ate",
      "Ġh arm",
      "Ġe uro",
      "as ter",
      "us h",
      "Ġv ou",
      "Ġv ide",
      "Ġst ar",
      "Ġst yle",
      "Ġr are",
      "Ġr ail",
      "Ġr ich",
      "id es",
      "id ay",
      "im p",
      "iv ed",
      "ers hip",
      "Ġis land",
      "ur day",
      "ant ly",
      "ow s",
      "Ġj ap",
      "Ġj ours",
      "Ġj ust",
      "Ġch am",
      "Ġch arge",
      "Ġcom ments",
      "Ġpl enty",
      "Ġqu iet",
      "am ent",
      "Ġal ong",
      "Ġal tern",
      "Ġpar c",
      "Ġse par",
      "end re",
      "end ed",
      "end ent",
      "ill er",
      "ul ly",
      "Ġdo c",
      "ain ing",
      "Ġsu iv",
      "Ġsu ff",
      "Ġsu ck",
      "ire d",
      "ate ver",
      "Ġde g",
      "Ġde ad",
      "Ġar m",
      "Ġar gu",
      "Ġo h",
      "Ġo ct",
      "Ġan g",
      "Ġ1 9",
      "lo o",
      "lo ir",
      "Ġun i",
      "Ġun its",
      "ne w",
      "art h",
      "Ġcomp ose",
      "Ġcomp ared",
      "ang ers",
      "ab ility",
      "Ġcl ub",
      "Ġcl airement",
      "ien nent",
      "Ġbe aut",
      "Ġpre fer",
      "Ġ20 0",
      "Ġman que",
      "ĠdÃ© m",
      "Ġ> \"",
      "ick en",
      "int Ã©r",
      "Ġsp ot",
      "Ġdr a",
      "Ġdr am",
      "Ġsee k",
      "Ġany where",
      "Ġperson ally",
      "os ed",
      "Ġmet rolinx",
      "Ġwh atever",
      "Ġcr it",
      "Ġcr is",
      "Ġcr azy",
      "Ġbr it",
      "Ġph ones",
      "Ġph ys",
      "Ġbl ame",
      "Ġche z",
      "Ġsc oot",
      "ust r",
      "Ġprob ablement",
      "og r",
      "Ġrest e",
      "Ġcanad ians",
      "Ġpass age",
      "Ġliv es",
      "Ġinst it",
      "ĠÃ© v",
      "Ġlook ed",
      "Ġgen erally",
      "Ġgen eral",
      "Ġseem ed",
      "Ġexp lo",
      "Ġins ane",
      "Ġins urance",
      "Ġtrav a",
      "Ġtrain s",
      "Ġdes c",
      "Ġdire ction",
      "Ġloc ation",
      "iz ation",
      "Ġup voting",
      "Ġdep ends",
      "Ġcommun ic",
      "Ġquel que",
      "Ġcro is",
      "Ġsit ting",
      "Ġple in",
      "Ġca f",
      "Ġshop s",
      "Ġmat ter",
      "oth es",
      "Ġpeu vent",
      "aut re",
      "Ġrel ations",
      "Ġ201 6",
      "Ġneighb or",
      "Ġcap ital",
      "Ġdown voting",
      "Ġexpect ed",
      "Ġopen ed",
      "Ġsort ie",
      "Ġtax es",
      "Ġunderstand ing",
      "enc y",
      "Ġtransport ation",
      "Ġsem ble",
      "Ġsem aine",
      "Ġmeet ing",
      "Ġcle an",
      "Ġval ue",
      "Ġrun s",
      "Ġans wer",
      "Ġroad s",
      "Ġpres ent",
      "Ġenf in",
      "Ġpan ne",
      "Ġdiffic ult",
      "Ġrais on",
      "ific ation",
      "Ġant i",
      "Ġbel ieve",
      "Ġocc asion",
      "Ġcompl ain",
      "Ġcompl aint",
      "Ġspeci fically",
      "Ġflo or",
      "Ġrecent ly",
      "Ġwater loo",
      "Ġamaz on",
      "Ġamaz ing",
      "Ġmod erators",
      "Ġendro it",
      "Ġglo b",
      "Ġvar ious",
      "Ġob viously",
      "Ġheav y",
      "Ġcustom ers",
      "ativ es",
      "Ġsubs id",
      "Ġclin ic",
      "Ġproduct s",
      "Ġpedestri ans",
      "Ġps y",
      "Ġcel a",
      "Ġdess us",
      "Ġperform ed",
      "Ġprovin cial",
      "Ġbloc king",
      "Ġisra el",
      "agr am",
      "Ġcoff ee",
      "Ġopin ion",
      "Ġconvers ation",
      "Ġgroc ery",
      "ĠsÃ©c ur",
      "Ġcondu ct",
      "Ġbeg in",
      "Ġslight ly",
      "Ġother wise",
      "Ġtod ay",
      "Ġeuro pe",
      "Ġbeaut if",
      "1 2",
      "1 5",
      "7 0",
      "7 5",
      "b u",
      "b ed",
      "c r",
      "d en",
      "g ed",
      "g ue",
      "h am",
      "h ors",
      "i Ã©",
      "i od",
      "j p",
      "l in",
      "n els",
      "o in",
      "o ff",
      "o res",
      "o que",
      "o cc",
      "o ber",
      "p ite",
      "p ital",
      "r im",
      "r ical",
      "u f",
      "u ine",
      "v is",
      "v ers",
      "w n",
      "y er",
      "z e",
      "Ã ¢",
      "Ġ ille",
      "Ġ ult",
      "Ġ onto",
      "Ġ ident",
      "Ġ ici",
      "Ġ uber",
      "Ġs el",
      "Ġs ad",
      "Ġs end",
      "Ġs ick",
      "Ġp ic",
      "Ġp ant",
      "Ġp ain",
      "Ġp ays",
      "Ġp ied",
      "Ġp uis",
      "Ġc ab",
      "on y",
      "er ation",
      "en ed",
      "Ġa ge",
      "Ġa verage",
      "Ġt un",
      "Ġt ant",
      "es ome",
      "Ġl ad",
      "Ġl unch",
      "ou nc",
      "Ġm ur",
      "Ġm and",
      "Ġm ine",
      "Ġm ins",
      "Ġm ich",
      "Ġd ed",
      "Ġd et",
      "Ġd iv",
      "Ġd ated",
      "Ġd ame",
      "Ġd ern",
      "Ġd ark",
      "Ġd ata",
      "ing er",
      "it ive",
      "is ation",
      "Ġf al",
      "Ġf ab",
      "Ġf ully",
      "Ġf inger",
      "ar is",
      "ar ily",
      "al ing",
      "Ġb y",
      "Ġb er",
      "Ġb ir",
      "Ġb and",
      "Ġb read",
      "Ġb unch",
      "Ġb ody",
      "at is",
      "Ġw ed",
      "Ġw all",
      "or ies",
      "ed ule",
      "Ġg az",
      "Ġg ames",
      "Ġn i",
      "Ġn av",
      "Ã© li",
      "Ġh i",
      "Ġh y",
      "Ġh ere",
      "Ġh ind",
      "Ġh os",
      "Ġh ost",
      "ic ule",
      "Ġre n",
      "Ġre le",
      "Ġre se",
      "Ġre pe",
      "om m",
      "Ġe iff",
      "il ot",
      "ro ad",
      "us ting",
      "ac ity",
      "Ġv ert",
      "Ġv ia",
      "Ġst e",
      "Ġst ruct",
      "Ġr ate",
      "Ġr Ã¨",
      "Ġr ace",
      "Ġr ound",
      "Ġr ide",
      "Ġr ub",
      "Ġr ange",
      "Ġr oute",
      "id er",
      "id ing",
      "im ier",
      "em ble",
      "un k",
      "un t",
      "Ġth inking",
      "est ion",
      "ont on",
      "Ġtr ip",
      "ow er",
      "Ġch ur",
      "Ġch os",
      "Ġch ances",
      "Ġch icken",
      "Ġcom fort",
      "Ġpl ac",
      "Ġpl ans",
      "ver ty",
      "Ġpar le",
      "Ġpro pos",
      "Ġse ul",
      "Ġse ine",
      "ill or",
      "and s",
      "Ġdo z",
      "Ġcon dit",
      "Ġsu cc",
      "Ġit em",
      "ie f",
      "Ġde ath",
      "Ġde hors",
      "od e",
      "Ġ2 3",
      "ri b",
      "Ã¨ ne",
      "Ġar bres",
      "Ġo il",
      "Ġo bs",
      "Ġo bl",
      "Ġk new",
      "au d",
      "Ġun s",
      "Ġun it",
      "Ġun ion",
      "Ġun ique",
      "Ġun like",
      "Ġpo verty",
      "Ġpr act",
      "Ġen ergy",
      "Ġle aving",
      "ast ic",
      "are il",
      "Ġta ken",
      "ell ing",
      "ab ite",
      "Ġbu gs",
      "ord ing",
      "Ġapp ly",
      "Ġcl othes",
      "Ġbe come",
      "old ing",
      "Ġcont r",
      "act ion",
      "ĠdÃ© s",
      "int on",
      "Ġpart ir",
      "Ġsp ort",
      "Ġsp aces",
      "Ġsp ending",
      "Ġper iod",
      "Ġhe ating",
      "Ġsee ing",
      "Ġwork ers",
      "Ġro yal",
      "Ġneed ed",
      "ish ed",
      "if e",
      "if s",
      "if y",
      "Ġspe ed",
      "Ġwh o",
      "Ġcr a",
      "Ġbr ing",
      "Ġnew s",
      "Ġaut our",
      "Ġto ile",
      "Ġag re",
      "Ġtout e",
      "ffic ient",
      "Ġbl ue",
      "pt ion",
      "Ġlong ue",
      "elle d",
      "anc y",
      "Ġacc ount",
      "Ġacc ording",
      "wh at",
      "Ġap olog",
      "Ġchang es",
      "gl inton",
      "Ġem ot",
      "Ġtour istes",
      "Ġve ut",
      "Ġprov ide",
      "Ġpoint s",
      "Ġte ach",
      "Ġgen uine",
      "Ġsm art",
      "Ġass um",
      "Ġtrav ers",
      "Ġarr ive",
      "Ġdes pite",
      "Ġproper ties",
      "Ġconc ert",
      "Ġind ep",
      "Ġloc ated",
      "Ġmond ay",
      "Ġcol le",
      "Ġsec ret",
      "Ġpost s",
      "du ce",
      "Ġsupp osed",
      "Ġcas h",
      "Ġcas que",
      "Ġref orm",
      "Ġref use",
      "Ġdem onstr",
      "ial s",
      "Ġsign ific",
      "Ġter rible",
      "Ġvi ens",
      "Ġmed ical",
      "Ġnear ly",
      "Ġes p",
      "Ġpriv acy",
      "Ġadv antage",
      "Ġgro w",
      "Ġrel ig",
      "Ġ201 8",
      "Ġperm et",
      "Ġperm iss",
      "Ġperm ett",
      "Ġneighb ours",
      "Ġpet its",
      "Ġ8 0",
      "Ġsl im",
      "Ġvo iture",
      "Ġdev ant",
      "Ġret urn",
      "Ġvie ux",
      "Ġtransport s",
      "Ġsyst Ã¨me",
      "ph one",
      "ph ones",
      "Ġed uc",
      "Ġcre ate",
      "Ġnum bers",
      "Ġann oy",
      "Ġann Ã©es",
      "Ġcycl able",
      "Ġcycl ists",
      "Ġbro ken",
      "Ġrecomm and",
      "Ġban k",
      "Ġcho ice",
      "Ġincreas es",
      "Ġcomment aires",
      "Ġbud dh",
      "par is",
      "Ġown er",
      "Ġgard ens",
      "Ġapart ments",
      "Ġinclud ed",
      "Ġmanag ed",
      "Ġsav oir",
      "Ġbusiness es",
      "Ġinvest igation",
      "Ġoffic ers",
      "Ġpur ch",
      "Ġform ul",
      "Ġgirl friend",
      "Ġread ing",
      "Ġproject s",
      "Ġmajor ity",
      "Ġbehavi or",
      "Ġmem bers",
      "Ġpartic ul",
      "Ġendro its",
      "Ġafford able",
      "Ġpal estin",
      "Ġdrug s",
      "Ġsurpr ised",
      "ĠÃ©t ud",
      "Ġsat urday",
      "Ġtot ally",
      "Ġbur ger",
      "Ġnois e",
      "Ġrequ est",
      "Ġprem ier",
      "Ġveh icles",
      "Ġemplo ye",
      "Ġwond er",
      "Ġgang s",
      "Ġnet work",
      "Ġthan ks",
      "Ġjud ge",
      "Ġprote ct",
      "Ġeffect ive",
      "ĠpiÃ©t ons",
      "cou k",
      "iel d",
      "Ġsau f",
      "Ġcart e",
      "Ġcours es",
      "Ġfav our",
      "Ġcompagn ie",
      "Ġgrou pe",
      "Ġsym pa",
      "Ġfacil ities",
      "Ġbanlie ue",
      "Ġsusp ension",
      "Ġunfortun ately",
      "Ġess entially",
      "Ġign ore",
      "Ġvr ai",
      "Ġrom ant",
      "Ġups et",
      "Ġimmedi ately",
      "Ġchauff age",
      "Ġbenef it",
      "Ġlor imier",
      "Ġder riÃ¨re",
      "Ġfant astic",
      "Ġgau che",
      "Ġnob ody",
      "Ġjap on",
      "Ġaltern ative",
      "Ġbrit ish",
      "ogr aph",
      "Ġrelations hip",
      "Ġneighbor hood",
      "Ġbeautif ul",
      "Ġbir th",
      "Ġnav ig",
      "Ġhos pital",
      "Ġrese arch",
      "Ġeiff el",
      "Ġcondit ions",
      "Ġsucc ess",
      "2 2",
      "3 8",
      "6 1",
      "6 2",
      "8 1",
      "9 5",
      "a j",
      "b on",
      "b our",
      "b age",
      "b ody",
      "c ent",
      "d r",
      "d y",
      "d own",
      "d ibly",
      "e f",
      "e au",
      "f a",
      "f ace",
      "g ues",
      "h c",
      "h s",
      "h ere",
      "i ant",
      "i um",
      "i os",
      "j e",
      "l a",
      "l s",
      "l ight",
      "m ond",
      "n a",
      "n b",
      "n s",
      "n Ã©",
      "n et",
      "n ers",
      "n Ã©e",
      "n nent",
      "o e",
      "p ro",
      "r s",
      "r ing",
      "r is",
      "r ict",
      "t r",
      "t u",
      "t or",
      "u ent",
      "u ly",
      "u ellement",
      "w or",
      "w ards",
      "x us",
      "y o",
      "y ond",
      "Ġ x",
      "Ġ king",
      "in o",
      "in ing",
      "in ation",
      "in te",
      "re ment",
      "Ġs n",
      "Ġs ac",
      "Ġs ant",
      "Ġs and",
      "Ġs ave",
      "Ġs low",
      "Ġs df",
      "Ġs leep",
      "Ġp u",
      "Ġp ous",
      "Ġp age",
      "Ġp ai",
      "Ġp iste",
      "Ġp ilot",
      "Ġp ower",
      "Ġc in",
      "Ġc atch",
      "Ġt ag",
      "Ġt ill",
      "Ġt ard",
      "Ġt ours",
      "Ġt oll",
      "Ġl Ã¨",
      "Ġl au",
      "Ġl ux",
      "Ġl ors",
      "Ġl anes",
      "ou b",
      "Ġm ad",
      "Ġd oug",
      "is es",
      "is ing",
      "is ion",
      "Ġf an",
      "Ġf ill",
      "Ġf out",
      "Ġf ive",
      "Ġf ans",
      "Ġf ell",
      "Ġf ile",
      "Ġf oc",
      "Ġf erm",
      "ar ter",
      "al led",
      "Ġb ic",
      "Ġb ell",
      "Ġb oug",
      "Ġb Ã©n",
      "at ique",
      "Ġw ays",
      "Ġw arm",
      "Ġw earing",
      "le ment",
      "le br",
      "Ġg ave",
      "Ġg ta",
      "Ġg ym",
      "Ġn ational",
      "Ã© ri",
      "Ġh ar",
      "Ġh inge",
      "et te",
      "Ġre lev",
      "Ġre duce",
      "om b",
      "Ġe at",
      "il itÃ©",
      "ion al",
      "as ing",
      "ac hing",
      "qu er",
      "qu elle",
      "qu oi",
      "Ġv ir",
      "Ġv ais",
      "Ġv oy",
      "Ġv irt",
      "el ine",
      "Ġst ru",
      "Ġst ock",
      "id ence",
      "im s",
      "iv id",
      "em ment",
      "em pt",
      "Ġth er",
      "Ġin qu",
      "ch ement",
      "st airs",
      "est er",
      "ur ity",
      "Ġtr am",
      "Ġtr ash",
      "ut er",
      "ut ions",
      "ag on",
      "ag it",
      "ag ers",
      "Ġch in",
      "Ġcom b",
      "Ġpl ain",
      "Ġpl ate",
      "Ġqu oi",
      "Ġal th",
      "Ġpro cess",
      "Ġpro of",
      "Ġse ason",
      "Ġse arch",
      "Ġne g",
      "ill Ã©",
      "ill iers",
      "pp ed",
      "Ġdo is",
      "Ġcon d",
      "ht m",
      "Ġsu ite",
      "Ġsu jet",
      "ire s",
      "ist er",
      "Ġex ists",
      "Ġi e",
      "Ġlo s",
      "Ġlo ck",
      "Ġlo ved",
      "Ġlo bl",
      "Ġlo yer",
      "ie ur",
      "ate g",
      "ate urs",
      "ri que",
      "Ġam b",
      "Ġar ch",
      "Ġsh e",
      "Ġsh are",
      "Ġsh ore",
      "Ġsh ock",
      "Ġ1 6",
      "ais e",
      "Ġun p",
      "Ġun if",
      "ne y",
      "Ġpr ot",
      "Ġle v",
      "Ġle ase",
      "Ġle gal",
      "are r",
      "Ġcomp et",
      "Ġcomp li",
      "Ġus es",
      "Ġus eless",
      "Ġta p",
      "Ġta ble",
      "Ġma ir",
      "Ġtim eline",
      "Ġim me",
      "Ġcan c",
      "Ġcl im",
      "Ġcl ich",
      "ien c",
      "Ġbe com",
      "Ġbe yond",
      "Ġpre vious",
      "Ġpre nds",
      "Ġpre nnent",
      "Ġme al",
      "um s",
      "ĠdÃ© but",
      "Ġsa w",
      "ong e",
      "ick s",
      "Ġgr at",
      "Ġgr av",
      "Ġpart y",
      "app oint",
      "Ġop er",
      "Ġop port",
      "Ġsp ots",
      "Ġdr unk",
      "Ġper ha",
      "Ġfre quent",
      "Ġhe ures",
      "Ġfr iday",
      "00 00",
      "Ã©t Ã©",
      "Ã©t ais",
      "Ġas ian",
      "Ġas yl",
      "Ġinc ident",
      "Ġro ck",
      "if ied",
      "Ġres ident",
      "Ġmet al",
      "th at",
      "Ġwh at",
      "Ġwh ere",
      "Ġfe e",
      "Ġcomm on",
      "Ġcomm ence",
      "Ġcomm enc",
      "Ġact iv",
      "erv ative",
      "erv illiers",
      "Ġph arm",
      "ĠrÃ© p",
      "ĠrÃ© nov",
      "lic ation",
      "Ġsome where",
      "Ġtout es",
      "Ġdis g",
      "Ġbus es",
      "Ġrem ain",
      "Ġthe atre",
      "Ġbl ind",
      "Ġpol ite",
      "Ġmar k",
      "Ġmar che",
      "Ġthink s",
      "Ġsc ene",
      "Ġfa ke",
      "Ġint ro",
      "Ġinf est",
      "Ġtw itter",
      "Ġrest o",
      "Ġsub ject",
      "Ġpay er",
      "ach e",
      "Ġacc ent",
      "Ġfam ili",
      "Ġgre w",
      "Ġpass Ã©",
      "Ġstart ing",
      "Ġchang er",
      "Ġfin it",
      "Ġem pt",
      "Ġem ail",
      "Ġcons ervative",
      "Ġsch edule",
      "Ġtour ner",
      "ĠÃ© c",
      "ĠÃ© lect",
      "Ġbon jour",
      "Ġte am",
      "Ġbas ics",
      "Ġinter r",
      "Ġsm ell",
      "Ġins ist",
      "Ġatt ack",
      "Ġland mar",
      "Ġfl ag",
      "Ġfun ction",
      "Ġvis a",
      "Ġarr Ãªt",
      "Ġincre dibly",
      "Ġmin imum",
      "Ġdes per",
      "Ġrec ycl",
      "Ġproper ly",
      "Ġind o",
      "Ġind ian",
      "Ġloc ations",
      "Ġcommun ities",
      "Ġla ke",
      "Ġla und",
      "Ġla unch",
      "Ġla quelle",
      "Ġsec urity",
      "Ġput ting",
      "ich e",
      "Ġfeel ing",
      "Ġdec ent",
      "Ġdec ades",
      "pl ace",
      "Ġsign s",
      "Ġstud ent",
      "Ġshop ping",
      "Ġhigh ly",
      "Ġhon n",
      "Ġshow ing",
      "Ġconv ention",
      "Ġcomple ted",
      "Ġ7 0",
      "ative ly",
      "aut res",
      "Ġ9 0",
      "Ġbre f",
      "Ġjus qu",
      "Ġgrand s",
      "Ġstr ong",
      "Ġtra jet",
      "Ġlearn ing",
      "Ġsort ir",
      "Ã©n ag",
      "Ġrev ie",
      "Ġvo ice",
      "Ġ202 1",
      "Ġ202 2",
      "Ġlang ue",
      "Ġfor ward",
      "Ġret our",
      "Ġou vert",
      "Ġbed room",
      "Ġsol ve",
      "Ġmill ions",
      "Ġann Ã©e",
      "Ġann ounc",
      "Ġvisit er",
      "Ġaw esome",
      "arr Ãªte",
      "Ġhope fully",
      "Ġval u",
      "Ġqual itÃ©",
      "Ġconf lic",
      "Ġintern et",
      "Ġfac ile",
      "Ġautom obil",
      "Ġconcern ed",
      "Ġce lebr",
      "Ġfem mes",
      "Ġcho ose",
      "Ġque ue",
      "Ġadd ed",
      "Ġcop s",
      "Ġcult ural",
      "Ġluck y",
      "Ġown ed",
      "Ġown ers",
      "Ġdou b",
      "Ġgard en",
      "Ġprof ession",
      "Ġprodu ce",
      "Ġresp ond",
      "Ġpat ients",
      "Ġcam er",
      "Ġjo ke",
      "Ġmanag er",
      "Ġtre at",
      "Ġhot els",
      "Ġrais ed",
      "Ġenc ount",
      "Ġsal aire",
      "Ġpot ent",
      "Ġdro ite",
      "Ġallow ed",
      "Ġocc up",
      "Ġpur pose",
      "Ġmil k",
      "Ġrend ez",
      "Ġconne ction",
      "Ġcounc illor",
      "Ġtech no",
      "Ġbehavi our",
      "Ġcivil ian",
      "esp Ã¨re",
      "Ġplay ing",
      "Ġdeal ing",
      "Ġer ror",
      "Ġvill age",
      "Ġris k",
      "Ġseule ment",
      "Ġeng ag",
      "Ġpartic ular",
      "Ġpersonal ity",
      "Ġpolit ic",
      "Ġpolit ical",
      "Ġcross ing",
      "he ure",
      "ipp ed",
      "pa ign",
      "Ġmass ive",
      "ival ent",
      "Ġregular ly",
      "plac ement",
      "Ġorgan ization",
      "Ġens uite",
      "Ġden is",
      "Ġbab ies",
      "Ġhum an",
      "Ġpos ition",
      "Ġappli ed",
      "Ġsoci ety",
      "Ġveh icle",
      "Ġattract ive",
      "Ġviol ence",
      "Ġaf ter",
      "Ã©p oque",
      "Ġunivers ity",
      "Ġcompre nds",
      "Ġmoy en",
      "Ġmoy ens",
      "Ġswe at",
      "Ġaware ness",
      "Ġsent ence",
      "Ġcir c",
      "Ġtrack s",
      "Ġposs ibly",
      "ĠdÃ©f ense",
      "Ġremo ve",
      "Ġpolic ies",
      "Ġinfl ation",
      "Ġfinan cial",
      "Ġrecord s",
      "Ġmainten ance",
      "ĠrÃ©gul iÃ¨rement",
      "vie w",
      "Ġutil is",
      "Ġtok yo",
      "Ġbes oin",
      "Ġbor ing",
      "Ġrad io",
      "Ġrapp ort",
      "Ġthre at",
      "Ġappart ement",
      "Ġidi ots",
      "Ġnov ember",
      "ĠtÃ© lÃ©",
      "Ġdoc ument",
      "Ġsuck s",
      "Ġoct ober",
      "Ġcris is",
      "Ġscoot er",
      "Ġinstit utions",
      "ĠsÃ©cur itÃ©",
      "jp g",
      "Ġmand atory",
      "Ġdet ail",
      "Ġrele ase",
      "Ġrepe at",
      "Ġchos es",
      "Ġpermiss ion",
      "Ġpurch ase",
      "Ġformul a",
      "Ġromant ic",
      "wor ks",
      "Ġsant Ã©",
      "Ġsand wich",
      "Ġalth ough",
      "Ġlobl aws",
      "Ġunif orm",
      "Ġopport un",
      "Ġperha ps",
      "Ġfamili ar",
      "ĠÃ©lect rique",
      "Ġlandmar ks",
      "0 7",
      "1 1",
      "1 4",
      "2 9",
      "3 5",
      "4 1",
      "5 4",
      "7 3",
      "a use",
      "b or",
      "b ish",
      "b elt",
      "c ar",
      "c ity",
      "c ool",
      "d s",
      "d ain",
      "d uc",
      "d ep",
      "e v",
      "e ed",
      "e ux",
      "f m",
      "f u",
      "f ree",
      "f air",
      "g ress",
      "h i",
      "h em",
      "h ority",
      "h abite",
      "i as",
      "i pe",
      "i ance",
      "i ety",
      "j ets",
      "k y",
      "k ly",
      "l ies",
      "m y",
      "m an",
      "m ed",
      "n al",
      "n ic",
      "n ight",
      "n ger",
      "p Ã©r",
      "r as",
      "r ir",
      "r ain",
      "r ound",
      "r ick",
      "s Ã©",
      "s ight",
      "t b",
      "t en",
      "t ers",
      "u i",
      "u ct",
      "u ble",
      "v p",
      "v ere",
      "v ille",
      "w ear",
      "w ik",
      "x e",
      "x ious",
      "Ġ q",
      "re te",
      "Ġs on",
      "Ġs il",
      "Ġs un",
      "Ġs ale",
      "Ġp in",
      "Ġp en",
      "Ġp ont",
      "Ġp ill",
      "Ġp Ã¨re",
      "Ġp istes",
      "Ġp ush",
      "Ġp areil",
      "Ġc at",
      "Ġc ow",
      "Ġc ad",
      "Ġc ast",
      "Ġc ather",
      "Ġc ycle",
      "Ġc aught",
      "Ġc ateg",
      "er ve",
      "Ġa ub",
      "Ġa uber",
      "Ġt v",
      "Ġt an",
      "Ġt it",
      "Ġt ent",
      "Ġt est",
      "Ġt ast",
      "Ġt arg",
      "Ġl ay",
      "Ġl ol",
      "Ġl ists",
      "Ġl ately",
      "ou l",
      "an o",
      "an y",
      "an ish",
      "an nel",
      "Ġm i",
      "Ġm or",
      "Ġm ach",
      "Ġm ath",
      "Ġd in",
      "Ġd ut",
      "Ġd ir",
      "Ġd ish",
      "Ġd rop",
      "Ġd oute",
      "Ġd ude",
      "it es",
      "it ing",
      "it ness",
      "is f",
      "Ġf i",
      "Ġf est",
      "Ġf ield",
      "Ġf iche",
      "ar ante",
      "ar row",
      "Ġb our",
      "Ġb ak",
      "Ġb aiss",
      "Ġb ott",
      "at ic",
      "Ġw el",
      "Ġw ish",
      "Ġw ild",
      "Ġw ik",
      "Ġw ife",
      "Ġw itness",
      "ed ia",
      "Ġg e",
      "Ġg h",
      "Ġg ent",
      "Ġg un",
      "Ġg old",
      "Ġg agn",
      "Ġg erm",
      "Ġg estion",
      "Ġn at",
      "Ġn ow",
      "Ġn one",
      "Ġn ature",
      "Ġn uit",
      "Ġn arrow",
      "ent ry",
      "Ã© m",
      "Ã© qu",
      "Ã© ment",
      "Ġh ol",
      "Ġh ad",
      "Ġh ub",
      "Ġh ole",
      "ic ation",
      "ic ul",
      "et h",
      "et ing",
      "ot i",
      "ot hing",
      "Ġre ss",
      "Ġre li",
      "Ġe y",
      "Ġe lection",
      "Ġe arth",
      "Ġe glinton",
      "il es",
      "il ies",
      "ro b",
      "ro y",
      "us es",
      "us ing",
      "ac c",
      "ac le",
      "ac itÃ©",
      "Ġv ol",
      "Ġv ite",
      "Ġv ue",
      "Ġv ote",
      "Ġv iennent",
      "Ġst ere",
      "Ġst ate",
      "Ġst ick",
      "Ġst ates",
      "Ġst ores",
      "Ġr ou",
      "Ġr ain",
      "Ġr ice",
      "Ġr ough",
      "Ġr ach",
      "im ag",
      "iv es",
      "ig er",
      "ig ible",
      "ol s",
      "ol Ã©",
      "em e",
      "un es",
      "un ic",
      "Ġth row",
      "Ġin it",
      "st er",
      "est s",
      "ur t",
      "Ġtr i",
      "Ġtr ig",
      "Ġtr ust",
      "Ġtr uck",
      "Ġtr ouv",
      "ad o",
      "Ġj ul",
      "Ġj um",
      "Ġj az",
      "Ġj ump",
      "Ġch ap",
      "Ġch ains",
      "Ġpl ant",
      "Ġqu elle",
      "Ġqu atre",
      "am p",
      "am s",
      "am as",
      "Ġpe ak",
      "Ġal le",
      "Ġal ot",
      "Ġal ber",
      "Ġal right",
      "Ġy onge",
      "Ġpar ks",
      "Ġpro c",
      "Ġpro jet",
      "Ġse pt",
      "Ġse vere",
      "end u",
      "av ait",
      "pp ing",
      "ul o",
      "ul ent",
      "ul ting",
      "our age",
      "ff et",
      "Ġcon cl",
      "Ġcon dition",
      "Ġcon do",
      "Ġli f",
      "Ġli ked",
      "ist r",
      "ist ry",
      "Ġex cl",
      "Ġex hib",
      "Ġit al",
      "Ġlo st",
      "Ġlo se",
      "ie u",
      "ie z",
      "ate ur",
      "ate gy",
      "pe au",
      "Ġ2 2",
      "ri x",
      "ri quÃ©",
      "Ġam ong",
      "Ġar gue",
      "ond iss",
      "res p",
      "res ent",
      "res se",
      "Ġo re",
      "Ġan gl",
      "Ġk ill",
      "Ġk itch",
      "ous ly",
      "lo c",
      "lo ad",
      "ci ence",
      "Ġpo ol",
      "Ġpo inte",
      "Ġle urs",
      "Ġle xus",
      "Ġcomp aris",
      "Ġus ual",
      "ure d",
      "Ġmo ss",
      "ĠÃ ¢",
      "ab l",
      "ap ers",
      "Ġim ple",
      "tt u",
      "tt es",
      "ord er",
      "Ġapp ear",
      "Ġcl ar",
      "Ġcl othing",
      "Ġbe ef",
      "Ġwe ight",
      "Ġcont am",
      "Ġcont rib",
      "all es",
      "Ġme as",
      "Ġme als",
      "per ature",
      "um ed",
      "ĠdÃ© b",
      "ĠdÃ© cl",
      "Ġco ok",
      "Ġco verage",
      "Ġevery day",
      "ong s",
      "Ġpart ies",
      "app elle",
      "Ġop pos",
      "Ġsp a",
      "Ġsp are",
      "Ġdr inking",
      "ign ed",
      "Ġyou nger",
      "cc a",
      "ore d",
      "Ġas ide",
      "Ġknow s",
      "Ġknow ing",
      "Ġinc or",
      "Ġro se",
      "Ġsi Ã¨",
      "Ġsi ze",
      "Ġres ult",
      "Ġmet t",
      "Ġmet er",
      "Ġav is",
      "Ġav enue",
      "Ġwh ene",
      "Ġwill ing",
      "Ġcr u",
      "Ġcr ime",
      "Ġcou p",
      "Ġbr an",
      "Ġph d",
      "Ġend s",
      "Ġaut o",
      "Ġaut hority",
      "Ġto y",
      "ĠrÃ© f",
      "ult ural",
      "Ġsome how",
      "Ġag rÃ©",
      "Ġdis p",
      "Ġrem ar",
      "Ġtor onton",
      "ible ment",
      "Ġdi apers",
      "Ġrent re",
      "Ġrent ing",
      "Ġrent ed",
      "Ġrent ers",
      "Ġrent rer",
      "Ġpub li",
      "Ġgu arante",
      "Ġreg ul",
      "Ġweek end",
      "Ġent ert",
      "Ġet h",
      "Ġtrans form",
      "Ġtrans fer",
      "Ãª ter",
      "Ġtw ice",
      "ins on",
      "Ġrest os",
      "anc Ã©",
      "Ġbo at",
      "Ġbo ard",
      "Ġbo ost",
      "Ġbo ots",
      "Ġgot ten",
      "ach eter",
      "cl in",
      "ip edia",
      "Ġacc omm",
      "Ġfam ille",
      "Ã©r ic",
      "Ġcent ury",
      "Ġpass ed",
      "Ġpass ion",
      "Ġpass port",
      "Ġem m",
      "Ġem s",
      "Ġtour ist",
      "Ġinst alled",
      "Ġprov ided",
      "ĠÃ© ch",
      "Ġfait es",
      "ress ed",
      "Ġlit t",
      "Ġbuy ers",
      "Ġte e",
      "Ġte xt",
      "Ġbas ic",
      "Ġsm oke",
      "Ġwww inst",
      "Ġwww go",
      "Ġfl ux",
      "Ġfl uent",
      "Ġarr ondiss",
      "Ġmin ute",
      "Ġconc rete",
      "Ġart ist",
      "Ġind ivid",
      "iz ing",
      "Ġup stairs",
      "Ġeas tern",
      "Ġsur round",
      "Ġel igible",
      "Ġsupp ly",
      "ib ility",
      "xt on",
      "Ġple as",
      "Ġpop ular",
      "Ġac ad",
      "ouv rir",
      "Ġblo qu",
      "Ġreal ise",
      "Ġreal ised",
      "Ġdec ide",
      "Ġke pt",
      "Ġca fe",
      "Ġca used",
      "Ġfol k",
      "Ġfol ks",
      "Ġvi ent",
      "Ġvi be",
      "Ġje unes",
      "Ġlet ting",
      "Ġmat in",
      "Ġhome own",
      "Ġless on",
      "Ġnear by",
      "Ġcomple t",
      "Ġcor ner",
      "Ġment ions",
      "Ġtrou ble",
      "Ġregard ant",
      "Ġtem perature",
      "Ġdel ay",
      "Ġdel ight",
      "Ġrel ated",
      "Ġrel atively",
      "Ġgrand e",
      "Ġgrand es",
      "Ġperm an",
      "Ġcal me",
      "Ġcap acity",
      "Ġmen u",
      "Ġstr ategy",
      "Ġexpect ing",
      "Ġopen ing",
      "Ġdiffere nce",
      "Ġvo it",
      "Ġvo ie",
      "Ġdev ait",
      "Ġside walk",
      "Ġfor ce",
      "Ġret ail",
      "Ġvie ws",
      "Ġaff ect",
      "Ġgiv ing",
      "Ġpark ed",
      "Ġcheck ed",
      "Ġinterest ed",
      "Ã§ you",
      "Ġcre ep",
      "Ġvisit ed",
      "Ġsecond s",
      "Ġdifferent Ã©",
      "aim e",
      "Ġmain ly",
      "arr Ãªt",
      "Ġconf ort",
      "Ġdisc uss",
      "Ġdisc over",
      "Ġdemand er",
      "Ġser ies",
      "Ġset tle",
      "Ġcycl ing",
      "Ġbro ad",
      "Ġshort age",
      "Ãªt ement",
      "Ġmal heure",
      "Ġwin ner",
      "Ġred dit",
      "Ġadd ing",
      "Ġincreas ing",
      "nes day",
      "Ġab and",
      "Ġfuck ed",
      "Ġstay ing",
      "Ġbill s",
      "Ġbill ions",
      "Ġwr itt",
      "Ġgard e",
      "Ġphot os",
      "Ġpat ient",
      "Ġcam paign",
      "Ġaction s",
      "Ġmanag ement",
      "Ġfran chement",
      "Ġfran kly",
      "Ġresid ence",
      "ĠproblÃ¨ mes",
      "Ġarriv ed",
      "Ġarriv Ã©",
      "Ġest im",
      "Ġest ate",
      "Ġsav ings",
      "Ġdog s",
      "Ġabsol ument",
      "Ġpour rait",
      "Ġpour quoi",
      "Ġbou l",
      "att ered",
      "Ġlead ership",
      "Ġfriend ly",
      "Ġsuggest ions",
      "Ġide al",
      "Ġtalk ed",
      "Ġform er",
      "ott es",
      "Ġrend u",
      "Ġelect rical",
      "Ġstand ard",
      "Ġclaim s",
      "Ġorig in",
      "Ġsou dain",
      "Ġpack ed",
      "Ġpack age",
      "Ġair b",
      "Ġmon op",
      "Ġver re",
      "Ġall ait",
      "Ġdoct ors",
      "Ġenv ie",
      "Ġenv iron",
      "Ġaccess ible",
      "Ġsk ill",
      "Ġpath s",
      "Ġmiss ion",
      "Ġgar age",
      "Ġgar bage",
      "Ġstat us",
      "Ġrac ist",
      "Ġrac ism",
      "Ġeng age",
      "Ġentire ly",
      "ogle com",
      "Ġclear ly",
      "Ġur ban",
      "Ġpress ure",
      "Ġhor rible",
      "Ġhold ing",
      "Ġquick ly",
      "Ġinstall er",
      "ex pli",
      "mar ket",
      "Ġcustom er",
      "Ġbur gers",
      "Ġbab y",
      "Ġwind ows",
      "Ġnois y",
      "Ġprop ri",
      "Ġok ay",
      "Ġcontract or",
      "Ġscre w",
      "Ġscre en",
      "Ġgreen belt",
      "Ġcollect ifs",
      "Ġpetit es",
      "Ġemplo y",
      "Ġpedestri an",
      "Ġsoir Ã©es",
      "Ġpouv oir",
      "Ġcit iz",
      "Ġfoot ball",
      "Ġnom bre",
      "Ġrece ived",
      "Ġequ ivalent",
      "Ġthan k",
      "Ġdevelop ment",
      "ĠdÃ©t est",
      "ĠsÃ» rement",
      "Ġpap ier",
      "Ġtar get",
      "Ġtow ards",
      "Ġlat in",
      "Ġvot ed",
      "Ġvict or",
      "Ġconn ais",
      "Ġrob inson",
      "ĠrÃ©c up",
      "Ġassoci ation",
      "Ġtyp ically",
      "Ġtyp ical",
      "Ġrespons ible",
      "Ġelectric ity",
      "Ġmainten ant",
      "Ġsqu at",
      "Ġsqu are",
      "Ġlic ense",
      "Ġfil m",
      "Ġwal mart",
      "Ġplat form",
      "Ġparl ent",
      "Ġnecess arily",
      "Ġload s",
      "ĠprÃ© v",
      "Ġevict ed",
      "Ġimpro ve",
      "Ġconven ience",
      "Ġconven ient",
      "aught er",
      "Ġreduc ed",
      "Ġpie ce",
      "Ġtub e",
      "Ġbille t",
      "Ã©ro port",
      "Ġvou loir",
      "Ġvide o",
      "Ġrare ly",
      "imp ression",
      "Ġsepar ate",
      "Ġdeg ree",
      "Ġarm en",
      "ĠdÃ©m Ã©nag",
      "Ġseek ers",
      "Ġphys ical",
      "Ġcaf Ã©",
      "Ġcapital ism",
      "Ġclean ing",
      "Ġpanne au",
      "Ġglob al",
      "Ġpsy ch",
      "agram com",
      "Ġille gal",
      "Ġsad ly",
      "Ġpant in",
      "Ġtun nels",
      "Ġmich el",
      "Ġded ans",
      "Ġfal se",
      "Ġfab riquÃ©",
      "Ġber lin",
      "Ġwed nesday",
      "Ġstruct ures",
      "ĠrÃ¨ g",
      "Ġdoz en",
      "Ġitem s",
      "Ġagre ement",
      "Ġassum ing",
      "Ġindep endent",
      "Ġsignific ant",
      "Ġrelig ious",
      "Ġannoy ing",
      "Ġpalestin ian",
      "Ġemploye es",
      "Ġnavig o",
      "bon jour",
      "bour g",
      "tor onto",
      "Ġcin em",
      "ĠlÃ¨ ve",
      "Ġlau rent",
      "Ġbic ycle",
      "ĠbÃ©n Ã©",
      "Ġvir age",
      "Ġvoy age",
      "Ġther ap",
      "Ġchin ois",
      "htm l",
      "Ġlos ing",
      "Ġtap ered",
      "Ġmair ie",
      "Ġimme uble",
      "Ġgrat uit",
      "Ġasyl um",
      "Ġpharm acy",
      "ĠrÃ©nov ation",
      "Ġdisg usting",
      "Ġempt y",
      "Ġinterr ac",
      "Ġfunction al",
      "Ġdesper ate",
      "Ġindo or",
      "Ġlaund ry",
      "Ġhonn Ãªtement",
      "Ġrevie ws",
      "Ġvalu ed",
      "Ġconflic t",
      "Ġautomobil istes",
      "Ġdoub t",
      "Ġcamer as",
      "Ġpotent ial",
      "ĠtÃ©lÃ© phone",
      "wik ipedia",
      "Ġcather ine",
      "Ġaub ervilliers",
      "Ġtarg ets",
      "Ġdut y",
      "Ġfest ival",
      "Ġbaiss er",
      "Ġwik i",
      "entry ttu",
      "Ġrach el",
      "imag ine",
      "Ġsept ember",
      "Ġimple ment",
      "Ġwhene ver",
      "ĠagrÃ© able",
      "Ġtoronton ians",
      "Ġaccomm od",
      "Ġwwwinst agramcom",
      "Ġwwwgo oglecom",
      "Ġindivid ual",
      "Ġmalheure usement",
      "Ġwritt en",
      "wikipedia org",
      "1 7",
      "1 00",
      "1 80",
      "2 30",
      "4 0",
      "4 7",
      "5 3",
      "7 13",
      "8 3",
      "8 80",
      "8 95",
      "a a",
      "a x",
      "a ke",
      "a res",
      "a ide",
      "a que",
      "a ult",
      "a illeurs",
      "a Ã©roport",
      "b ug",
      "b onne",
      "c is",
      "c al",
      "c ed",
      "c us",
      "c ol",
      "c ie",
      "c ond",
      "c are",
      "c ue",
      "c ule",
      "c ante",
      "d v",
      "d re",
      "d em",
      "d am",
      "d ays",
      "e um",
      "e urs",
      "f p",
      "f s",
      "f ere",
      "f ord",
      "f all",
      "f ore",
      "f Ã¨re",
      "g n",
      "g ing",
      "g ent",
      "g ot",
      "g ment",
      "g ie",
      "h Ã©",
      "h ist",
      "h ous",
      "h ave",
      "h ouse",
      "h ead",
      "h olding",
      "i i",
      "i ants",
      "i ative",
      "i Ã¨res",
      "i ji",
      "k el",
      "l it",
      "l im",
      "l ad",
      "l av",
      "m o",
      "m p",
      "m s",
      "m on",
      "m ac",
      "m ont",
      "m atis",
      "n om",
      "n orm",
      "n elle",
      "n ipe",
      "o es",
      "o os",
      "p re",
      "p es",
      "p ir",
      "p ath",
      "p agne",
      "r ot",
      "r av",
      "r ist",
      "r acy",
      "s or",
      "s st",
      "s hip",
      "t f",
      "t ement",
      "u ie",
      "u ous",
      "u ve",
      "u elle",
      "u gg",
      "u Ã©s",
      "v m",
      "v re",
      "v al",
      "v ide",
      "v erse",
      "w d",
      "w ell",
      "w ater",
      "x j",
      "x ic",
      "x im",
      "y n",
      "y ers",
      "y st",
      "y ear",
      "z z",
      "Ã ®",
      "Ġ ic",
      "Ġ ut",
      "Ġ ice",
      "Ġ um",
      "Ġ âĢ¦",
      "Ġ iron",
      "in ct",
      "in ary",
      "re nds",
      "Ġs ain",
      "Ġs ne",
      "Ġs li",
      "Ġs ach",
      "Ġs ending",
      "Ġs ession",
      "Ġs ongs",
      "Ġp a",
      "Ġp is",
      "Ġp om",
      "Ġp od",
      "Ġp ip",
      "Ġp ots",
      "Ġp ull",
      "Ġp isse",
      "Ġp oub",
      "Ġp ulo",
      "Ġc d",
      "Ġc v",
      "Ġc ig",
      "Ġc est",
      "Ġc and",
      "Ġc itÃ©",
      "Ġc Ã´",
      "Ġc ards",
      "on ed",
      "on se",
      "er a",
      "er g",
      "er ies",
      "en g",
      "en ir",
      "en ci",
      "en ry",
      "en ials",
      "Ġa t",
      "Ġa im",
      "Ġa ve",
      "Ġa ud",
      "Ġa up",
      "Ġa ug",
      "Ġt es",
      "Ġt el",
      "Ġt one",
      "Ġt ind",
      "Ġt ough",
      "Ġt ends",
      "Ġt ph",
      "Ġt Ãªte",
      "Ġl is",
      "Ġl ac",
      "Ġl um",
      "Ġl uc",
      "Ġl Ã©g",
      "Ġl ma",
      "Ġl ining",
      "Ġl tb",
      "ou e",
      "ou ve",
      "Ġm p",
      "Ġm ut",
      "Ġm ort",
      "Ġm our",
      "Ġm au",
      "Ġm um",
      "Ġm ild",
      "Ġm igr",
      "Ġm ike",
      "Ġm unic",
      "Ġm yst",
      "Ġd j",
      "Ġd u",
      "Ġd or",
      "Ġd im",
      "Ġd ig",
      "Ġd ur",
      "Ġd ad",
      "Ġd am",
      "Ġd ure",
      "Ġd irt",
      "Ġd Ã»",
      "Ġd oll",
      "Ġd estin",
      "Ġd alle",
      "Ġd aughter",
      "it ed",
      "it age",
      "is l",
      "is me",
      "is ions",
      "Ġf ly",
      "Ġf ig",
      "Ġf ond",
      "Ġf ish",
      "Ġf asse",
      "Ġf ils",
      "Ġf uel",
      "ar ies",
      "al ist",
      "Ġb en",
      "Ġb id",
      "Ġb ri",
      "Ġb ous",
      "Ġb ure",
      "Ġb ase",
      "Ġb elle",
      "Ġb ath",
      "Ġb ars",
      "Ġb elles",
      "Ġb iling",
      "at oire",
      "Ġw ow",
      "Ġw ire",
      "Ġw age",
      "Ġw ine",
      "Ġw ise",
      "Ġw arr",
      "Ġw agon",
      "Ġw tf",
      "le g",
      "or ing",
      "or Ã©",
      "or ite",
      "or istes",
      "Ġg al",
      "Ġg ay",
      "Ġg ut",
      "Ġg if",
      "Ġn an",
      "Ġn ic",
      "Ġn im",
      "Ġn ick",
      "Ġn Ã©c",
      "Ġn Ã©g",
      "Ġn ames",
      "Ġn ouve",
      "ent re",
      "Ã© ra",
      "Ġh op",
      "Ġh id",
      "Ġh em",
      "Ġh un",
      "Ġh ill",
      "Ġh aut",
      "Ġh ah",
      "Ġh und",
      "Ġh amas",
      "Ġh enry",
      "ic ed",
      "ic ious",
      "et c",
      "ot y",
      "ot ic",
      "ot id",
      "Ġre ck",
      "Ġre nc",
      "Ġre ndre",
      "Ġre plac",
      "Ġre cher",
      "Ġre nov",
      "Ġre bu",
      "om me",
      "Ġe ld",
      "Ġe ffic",
      "il ien",
      "il os",
      "ro v",
      "ro oke",
      "ro vers",
      "as ons",
      "qu el",
      "Ġv s",
      "Ġv in",
      "Ġv ale",
      "Ġv Ã©c",
      "el er",
      "Ġst ri",
      "Ġst ood",
      "Ġst ep",
      "Ġst ability",
      "Ġst amp",
      "Ġr on",
      "Ġr an",
      "Ġr out",
      "Ġr ome",
      "Ġr ass",
      "Ġr Ãª",
      "Ġr ues",
      "Ġr ise",
      "id ers",
      "id ement",
      "im m",
      "im port",
      "im ately",
      "iv ing",
      "iv ent",
      "iv ement",
      "ol f",
      "ol er",
      "ol it",
      "ol is",
      "ers ion",
      "em b",
      "em y",
      "ct ure",
      "Ġth r",
      "Ġth em",
      "Ġth erm",
      "ch ing"
    ]
  }
}